#version: 0.2
Ġ a
e r
t h
i n
o n
a n
Ġ ,
Ġ s
o r
t i
Ġ 1
Ġ b
a r
Ġ c
Ġ -
e n
Ġ th
Ġ p
Ġ f
a l
l e
Ġ m
Ġ w
t e
Ġth e
i s
r b
Ġ o
Ġ h
r e
Ġ 2
Ġ1 9
Ġ .
Ġ d
Ġ n
a s
Ġ in
a m
Ġa n
e s
Ġo f
l a
i c
e d
r o
i r
Ġ2 0
Ġ t
in g
Ġan d
Ġ j
ti on
u n
r rb
l rb
Ġ g
c e
e l
a te
u s
i t
c h
Ġ '
o l
i l
u r
ir th
en t
a t
Ġ l
h e
b er
Ġd e
i g
Ġ k
Ġ re
a tion
am e
Ġa r
Ġ20 0
s t
ti c
Ġ r
Ġw as
Ġf or
a d
Ġb irth
a g
Ġt o
s i
d ate
t er
o m
i m
Ġ' '
Ġ is
e ar
an d
t le
Ġs t
Ġ- -
u l
Ġ y
Ġ20 1
p la
m ber
Ġ e
ti tle
Ġa l
Ġc h
v e
a c
Ġa s
pla ce
tic le
v er
i an
Ġar ticle
Ġ `
Ġn ame
o t
Ġ un
or n
al l
i d
Ġh e
a p
Ġ on
Ġ` `
ig h
i a
Ġ v
a y
e t
u t
u b
te d
ation al
o w
Ġ19 9
Ġs e
Ġa t
it y
Ġp la
c t
Ġ le
ar y
a th
m er
Ġw h
is t
u p
r i
ar d
igh t
u g
r a
Ġ19 8
l y
Ġ1 8
Ġpla y
u m
Ġn ational
Ġ ro
Ġb orn
Ġun i
o s
ar t
i th
Ġf o
Ġ 3
Ġh is
Ġc o
Ġp ro
Ġ 0
ag e
ear s
re s
Ġ te
g e
us t
Ġb e
Ġ im
Ġn e
o c
u e
Ġ19 7
d er
Ġp o
Ġm ar
i e
s h
Ġw ith
m an
Ġ la
o u
Ġde ath
Ġs p
c c
ic an
u d
b all
u ary
es s
l ub
er s
a in
Ġc on
or d
i on
ro m
a k
Ġc om
Ġim age
e y
es t
ic h
or k
il l
Ġf rom
is h
Ġ19 6
i f
Ġne w
Ġj o
o v
ac k
Ġs h
Ġc ol
ic k
en d
r an
Ġ19 5
Ġc ap
Ġa p
o us
a v
Ġa mer
b irth
al s
Ġfo ot
Ġm e
o d
l and
Ġb y
r y
a b
e b
ver s
t s
Ġy ears
i p
Ġj an
Ġfoot ball
Ġamer ican
s o
a ch
Ġ 6
Ġs er
Ġ 4
Ġb o
Ġwh o
i re
Ġm ay
n ame
u c
i v
Ġ 5
t on
Ġ or
i k
un d
el l
p g
Ġ19 4
Ġs c
on g
Ġuni vers
i el
Ġc ar
f t
e c
Ġh as
si tion
w ard
ti ve
z e
Ġp re
Ġn o
Ġ en
ou th
Ġm o
Ġunivers ity
o p
e m
Ġst ate
Ġg o
le s
Ġc lub
Ġre c
si on
ow n
in e
Ġ ;
or e
Ġo cc
Ġ19 3
Ġpo sition
Ġplay ed
Ġj ul
ic e
Ġjan uary
o g
Ġp ol
o k
s on
Ġj un
Ġocc up
0 0
Ġa ug
as t
ur r
or t
Ġal so
Ġoccup ation
Ġaug ust
an t
f f
j pg
Ġm an
Ġh er
Ġjul y
r en
ct or
ag ue
Ġmar ch
h n
Ã ©
Ġ 7
ug h
urr ent
Ġ u
Ġuni ted
Ġp art
Ġc urrent
as s
Ġin d
Ġp ar
Ġen g
Ġf ir
an g
am es
Ġk n
Ġpro f
si d
i o
Ġ ti
te am
Ġco un
Ġ19 2
ce mber
Ġfir st
th er
p er
Ġ ed
Ġde cember
ct o
m ent
i z
on d
Ġb r
Ġo cto
Ġocto ber
ul l
Ġte am
Ġs ch
en ce
Ġjun e
er e
Ġno ve
i es
Ġ 8
Ġa g
Ġm us
Ġ201 1
Ġnove mber
Ġp h
l d
Ġs ing
Ġc an
Ġp r
s e
ate d
y ears
es sion
c l
Ġse p
Ġcol le
Ġ1 0
Ġf in
ur n
Ġ201 2
te mber
Ġcom p
Ġsep tember
m p
Ġ1 2
Ġf eb
re d
f or
Ġ1 7
Ġfeb r
m a
Ġ1 5
Ġm in
ig n
Ġfebr uary
q u
Ġ200 8
res ent
Ġrec ord
b ut
Ġas s
Ġ 9
Ġre p
Ġle ague
Ġme mber
m e
ous e
Ġser v
Ġ201 4
Ġcap tion
a h
Ġs u
Ġg en
Ġ &
Ġ i
Ġf il
as h
ess or
Ġ200 9
Ġ z
Ġw or
Ġjo hn
s he
Ġa ust
Ġs he
Ġy ork
Ġ201 3
1 9
b o
Ġw ork
Ġa d
am p
Ġde but
Ġkn own
r il
Ġf ran
Ġd ra
as on
c k
Ġth at
e er
r al
Ġ1 6
Ġw e
th e
Ġmus ic
Ġfil m
t o
Ġf ull
Ġap ril
c lub
i al
Ġfor mer
ad e
ter n
Ġap p
Ġof f
Ġprof ession
r ic
Ġe x
p h
en n
Ġ201 0
Ġp er
ub l
iel d
Ġ200 7
Ġa f
Ġnational ity
Ġpart y
Ġa ward
il d
Ġcolle ge
Ġwor ld
Ġb ro
t u
Ġa c
re e
Ġhe ight
Ġon e
r it
Ġ it
res s
Ġstate s
Ġpol i
i am
w n
Ġ :
Ġs outh
Ġt w
ol d
Ġ200 6
Ġb as
Ġpoli tic
an n
Ġ1 1
Ġcar eer
or y
y ear
g o
Ġplay er
Ġcoun t
o ol
in s
Ġc al
k e
Ġ us
Ġ1 3
Ġt er
ur ing
Ġse ason
in a
Ġ18 9
i er
Ġ19 1
Ġn or
Ġb ar
Ġg e
a j
a z
Ġw ar
Ġg u
at ch
Ġb at
Ġm ed
Ġcom m
Ġfull name
in ce
Ġg er
p x
Ġ1 4
Ġclub s
s s
Ġprofession al
Ã ¡
Ġs te
Ġaust ral
a i
en c
oc k
u mber
Ġf c
Ġe v
b ur
c o
i ed
m ar
w e
Ġc ity
ti sh
Ġ2 4
at er
Ġ200 4
Ġdra ft
i ve
Ġm id
Ġ2 2
Ġ201 5
Ġcan ad
Ġb and
le c
f l
h is
Ġ2 5
Ġch ar
Ġ2 8
st art
Ġst at
a ti
l o
Ġb ack
a f
Ġw ill
ber t
cl ud
r is
r um
y s
Ġg r
Ġwh ich
Ġa ct
Ġin clud
un g
Ġter m
v is
Ġb ri
Ġ200 5
Ġal l
Ġeng land
Ġ2 7
Ġl o
Ġr un
Ġr ight
ac tive
Ġse c
rit er
n er
Ġp resent
is ter
Ġcap s
h am
le d
ro und
oc i
s p
Ġa b
Ġde f
Ġc r
Ġfootball er
Ġ ir
Ġh a
Ġh ar
n e
Ġ el
an k
Ġd av
Ġ200 1
Ġsch ool
b el
Ġw on
Ġh ad
Ġy outh
Ġbe en
b y
Ġs o
Ġ2 1
om e
Ġgo als
Ġsu cc
u re
Ġ2 3
he ight
Ġch ild
Ġsp ouse
Ġger man
Ġge or
Ġ19 0
sh ip
t ing
Ġ2 9
Ġco ach
Ġla w
ain st
go als
u th
Ġ ear
Ġa ctor
an c
Ġt r
id e
Ġpolitic ian
Ġbri tish
a ir
Ġs an
Ġp e
k er
s ti
Ġb l
Ġb ut
le y
Ġ3 0
Ġpro d
Ġwe ight
b r
t t
ti st
Ġk ing
Ġtw o
Ġc l
Ġd ist
m y
Ġm on
Ġd uring
Ġmo st
a ul
f ord
Ġ200 3
Ġr us
Ġch amp
all y
Ġbe c
Ġchamp ion
p e
in n
Ġpre sid
c ap
k i
in c
en s
Ġin tern
Ġy ear
up date
Ġserv ed
Ġb ra
Ġb est
Ġg re
w w
on e
Ġc ent
Ġ2 6
ol og
Ġ200 2
Ġplay s
Ġsing er
l l
Ġm ich
si ze
a w
l ish
Ġm ade
Ġn ot
tion s
Ġfin al
a el
on s
ing s
Ġass oci
i x
q ue
v al
Ġc ro
Ġh igh
ic s
Ġcurrent ly
Ġchild ren
Ġo ver
Ġd es
2 00
os e
Ġgen re
Ġprod uc
k a
v el
Ġm is
Ġd ire
Ġapp ear
bur g
Ġa m
Ġs m
Ġd o
Ġj ames
Ġst ar
er al
or s
Ġcon t
g an
i ous
al e
Ġti me
Ġwill iam
sti tu
l s
ig in
Ġ200 0
sh ire
Ġpresid ent
i le
Ġ qu
er n
Ġl ast
Ġy o
ver n
ick et
v en
as ed
Ġ199 5
Ġ199 9
if orn
club s
Ġaf ter
Ġcal iforn
Ġact ress
uth or
al ist
Ġd a
ing ton
Ġg ro
Ġ198 2
Ġi i
f ield
h l
Ġh im
ic al
Ġr u
Ġe lec
Ġ199 2
Ġag ainst
Ġintern ational
Ġcaliforn ia
am il
Ġal b
ath er
Ġwh ere
Ġ3 1
Ġmin ister
Ġaustral ian
Ġdav id
cap s
c om
i b
m ater
in o
Ġb us
Ġre g
Ġ199 0
Ġ199 1
Ġat t
Ġoff ice
2 0
g round
l ig
r on
Ġa le
an s
ti l
Ġn d
Ġj ack
Ġre le
Ġcol um
a tive
m o
Ġan n
om as
Ġ199 6
Ġle ad
iel der
d ec
Ġa uthor
in d
Ġs w
Ġs en
en der
Ġf l
Ġm atch
Ġw al
Ġg ames
Ġle ft
Ġdist ric
o od
Ġp ubl
Ġd is
Ġal ma
Ġv ic
Ġfo ur
Ġte le
ock ey
Ġcanad ian
g er
Ġ /
Ġar tist
Ġsc i
vis ion
Ġdistric t
h a
i ti
t or
an ce
Ġm il
Ġthe ir
Ġh o
Ġre s
st rum
Ġ199 4
strum ent
an e
Ġm aj
Ġre ti
Ġ198 0
Ġcurrent club
Ġgeor ge
ol l
Ġ198 1
Ġtele vision
c es
e v
Ġs y
Ġth ro
Ġo ly
es e
Ġl ou
Ġ198 4
Ġor igin
Ġdire ctor
Ġoly mp
f ielder
i te
k et
r am
Ġre lig
Ġun der
Ġlo an
Ġrus si
Ġbec ame
ic a
ul t
Ġplay ing
Ġnational team
Ġ197 0
Ġ197 6
Ġla ter
ab le
Ġpre dec
Ġgo vern
Ġman ag
Ġnd ash
Ġpredec essor
h er
Ġw ell
ing er
Ġ18 6
Ġrep ubl
a ce
d e
Ġp ri
Ġm c
Ġh ockey
Ġ198 8
Ġpo p
Ġeng lish
Ġcount y
Ġsec ond
i or
v es
Ġj e
ol o
and er
Ġle g
Ġ18 7
Ġnational years
Ġro ck
a u
Ã ³
Ã ¼
an a
Ġth ree
al y
Ġo ther
Ġh ist
Ġ199 8
ers on
Ġcomp e
m ed
Ġ â
Ġ up
Ġs ince
Ġp it
Ġo ut
Ġn umber
la d
Ġ198 5
Ġback ground
Ġmaj or
Ġlou is
y l
Ġb u
Ġth omas
Ġp at
al d
Ġst ud
ul ar
Ġ18 8
Ġnational goals
Ġnational caps
Ġev ent
Ġale x
j e
m in
p ort
u k
w riter
Ĩ Ĵ
Ġc as
en e
Ġh el
Ġre sid
Ġwh en
Ġsc ot
Ġinclud ing
Ġrele ased
Ġâ ĨĴ
i ver
p en
an ia
Ġb ow
Ġc or
Ġf re
Ġm et
Ġw est
Ġde m
if e
Ġser ies
Ġrelig ion
l b
n a
Ġ ?
in ess
Ġw eb
Ġh ouse
Ġ199 7
Ġcon s
ik e
Ġaward s
Ġbas e
Ġnor th
/ /
f ore
Ġs a
Ġs k
Ġs al
Ġf e
it ar
os s
Ġph il
Ġmid fielder
Ġsucc essor
tt p
Ġchampion ship
Ġmich ael
Ġreti red
: //
j o
n umber
Ġs up
Ġs ong
Ġp aul
ation s
Ġoff ic
Ġyouth clubs
Ġyo ung
Ġbus iness
e p
r ap
Ġ ze
Ġf ive
Ġw ere
Ġde p
Ġto ur
Ġv al
Ġ198 3
Ġuni on
Ġ197 4
Ġla bel
Ġrecord s
Ġcount ry
Ġgro up
f ted
h an
k s
l in
y er
Ġ que
on y
Ġs ign
Ġw in
Ġo h
Ġh ttp
at or
st on
Ġwas h
Ġfo und
Ġalb um
f er
u al
Ġ title
Ġb et
Ġm or
Ġre ce
ad em
Ġ198 7
Ġ197 7
t al
y n
le g
Ġt ri
it z
ur t
Ġr ank
ter m
ov a
Ġbas ket
af ter
Ġrun s
Ġbase ball
k o
p o
s ch
Ġd ied
Ġin to
Ġfor ward
Ġ198 9
Ġsh o
ond on
Ġac adem
Ġmed al
n ey
Ġs il
Ġs im
Ġf ield
Ġw riter
Ġd an
Ġd en
Ġn fl
at s
Ġl ondon
ag o
Ġ197 9
Ġhist ory
Ġbasket ball
b a
c is
c ed
on es
Ġf ather
Ġl ong
Ġk ore
ter s
Ġbe fore
Ġbo ok
Ġclub number
Ġper for
Ġsci ence
b ack
l er
Ġ x
Ġc am
al and
Ġm a
Ġ197 2
iv ed
Ġus a
Ġwash ington
l ing
o ul
t y
Ã ¶
Ġs oc
Ġp c
Ġin v
Ġin ter
Ġin stitu
at ing
Ġ199 3
ish ed
Ġor der
Ġed uc
Ġpr im
Ġaustral ia
Ġgerman y
Ġmanag er
c on
n o
o ugh
r ac
Ġ end
Ġa re
Ġs am
Ġb er
Ġb el
Ġc la
en ti
Ġp ain
Ġp enn
Ġm art
Ġw om
te s
Ġl u
Ġte x
Ġte st
Ġmay or
Ġgen eral
Ġresid ence
Ġdem oc
Ġze aland
f o
ar i
Ġc re
is m
Ġj pg
Ġg old
Ġun til
Ġro le
Ġ196 8
Ġgu itar
olog y
Ġjack son
Ġrussi an
t ain
u es
v il
y le
z il
Ġ Ã
Ġs um
Ġb re
Ġc up
Ġm ill
Ġd el
Ġt or
Ġhe ad
Ġmatch es
c er
f ul
t ar
Ġ es
an y
Ġs olo
ti m
en ted
Ġp ort
la b
Ġj im
Ġl i
Ġre d
Ġar t
si te
Ġ196 6
Ġind ian
Ġprof essor
Ġrep resent
Ġsm ith
oll ow
Ġpc update
g ar
i tion
s b
an i
Ġs on
am ed
ic ago
ir a
Ġj ose
Ġar ch
Ġst ri
Ġal i
um p
Ġgo al
Ġfran k
Ġseason s
enc y
Ġbra zil
Ġdes ign
h ar
o ut
Ä ĩ
Ġ ent
Ġa v
Ġa ver
Ġb la
en a
Ġm el
Ġh en
es ter
ur ch
ent s
tic s
Ġe m
Ġch icago
Ġv oc
Ġat l
Ġ198 6
Ġsh ow
og rap
Ġmusic ian
Ġbro wn
Ġha ve
Ġappear ed
e ter
t en
Ġ er
Ġc y
Ġf ree
Ġm at
Ġh ol
Ġd on
Ġn on
Ġg ame
it s
ag es
ver al
Ġon ly
ie f
em b
Ġbat tle
we en
Ġassoci ation
Ġacadem y
d om
h i
p ro
r ist
s yl
t in
Ġs ome
Ġf ren
Ġh on
re w
Ġt ra
un der
ate s
Ġe mp
Ġch ris
id a
Ġse veral
Ġbe ing
Ġ196 5
Ġfran cis
ww w
Ġmis s
Ġweb site
v ania
Ġ ut
Ġ ill
Ġ ice
Ġth ir
Ġf ar
Ġm ore
Ġn ov
Ġk ar
Ġre la
si ve
Ġv ir
ri b
ri ed
Ġro man
res ented
Ġte ch
ers ey
az z
Ġpenn syl
Ġfren ch
Ġpennsyl vania
h and
m on
p p
s k
Ã Ń
in t
in ed
Ġm ag
Ġo wn
la bel
Ġj ud
it or
ch er
Ġr ich
Ġe p
Ġch air
Ġch urch
Ġro bert
Ġ197 8
if f
Ġbo ard
Ġpre v
ke e
Ġproduc er
Ġsum mer
e th
u ch
Ġs l
Ġs ur
en z
Ġm ur
Ġd iv
Ġin c
Ġto m
Ġto wn
Ġpla ce
Ġ196 4
Ġjo urn
Ġ195 2
Ġ195 4
Ġwork ed
Ġpolitic al
Ġgr and
inn ing
Ġoh io
Ġinstitu te
Ġwom en
c a
e g
i ze
t a
Ġ est
Ġa cc
Ġf ollow
Ġm ary
Ġd r
Ġj ersey
Ġl it
Ġar my
Ġto tal
Ġy es
Ġe le
Ġ18 1
Ġ196 0
Ġ195 6
Ġ194 4
Ġfran ce
mar k
Ġcanad a
Ġdef ender
Ġear ly
Ġcro ss
Ġfl or
Ġolymp ics
e k
i ted
u ro
w s
Ġm ak
ic tion
it ary
ol ic
Ġch ief
ra tic
Ġpro g
Ġ196 3
Ġ194 5
Ġmid d
Ġcolum b
Ġpubl ic
Ġcompe ted
e e
h o
i et
n ing
r ia
t urn
u la
or ts
Ġc ath
al th
Ġm od
Ġh ome
Ġd er
Ġd om
am a
Ġt re
ur i
Ġl os
Ġk g
ap an
Ġ197 3
Ġsh ar
Ġ195 8
Ġpr ince
Ġyouth years
Ġvic tor
Ġrepubl ican
Ġalex ander
Ġdemoc ratic
Ġaver age
Ġprev ious
a is
m en
y a
Ġ ver
Ġs ix
Ġw icket
Ġt en
Ġg l
st er
Ġr ad
Ġ18 0
Ġpro v
ud d
Ġapp o
Ġsucc ess
Ġking dom
Ġassoci ated
val ue
Ġelec ted
Ġlead er
Ġjose ph
emb ly
g in
m s
p or
r ing
Ġa th
in strument
Ġb en
ar a
Ġc a
Ġf amil
Ġm ov
Ġo d
Ġo per
ed y
Ġj os
Ġto ok
ish op
Ġ194 7
Ġu k
Ġind ia
Ġcoun c
Ġit s
fl u
Ġstat label
Ġstat value
Ġgovern ment
Ġbet ween
Ġbla ck
l iam
n d
o b
s inger
Ġa ir
in ts
Ġb ill
Ġth en
Ġm ad
Ġm ike
Ġw ood
is ion
Ġh all
Ġn amed
Ġin flu
Ġan g
ic o
Ġj er
ber g
Ġe uro
ay s
Ġco urt
ak h
ak er
Ġsh ort
Ġor gan
Ġcr icket
Ġcolum n
Ġsoc ial
Ġtex as
liam ent
2 1
b or
b orn
h y
i ro
i um
r ick
v ed
Ġs ub
Ġb al
Ġc e
Ġth is
Ġp an
le ague
Ġm er
Ġw es
Ġn ow
as e
Ġin strument
ol k
ur y
Ġar g
ac ts
Ġro y
Ġbo th
Ġ194 6
Ġsc or
Ġpar liament
Ġti m
Ġass embly
Ġrep resented
Ġdebut year
Ġover all
20 1
Ġthro ugh
Ġphil ip
Ġrece ived
Ġeduc ation
Ġvoc als
Ġfamil y
Ġcounc il
o f
o ff
ar m
Ġc iv
Ġc atch
Ġo pen
Ġh am
Ġn ick
Ġt ran
Ġj azz
Ġj apan
Ġr y
ad u
Ġto p
ot s
id ge
Ġv o
Ġbe gan
Ġmar ried
Ġ195 5
Ġed ward
19 9
Ġchar les
Ġgeor g
je ct
Ġoffic er
Ġtech n
Ġflor ida
Ġa ge
in es
on to
ti v
Ġb ay
Ġm as
el ly
us e
at ure
Ġl ar
Ġre turn
Ġr ac
Ġr ug
and s
et y
Ġ18 5
Ġ195 7
Ġmo ham
years active
Ġass ist
Ġsu ch
Ã¡ n
burg h
ls b
Ġda ugh
Ġappo in
Ġath le
b ec
g a
l i
m ing
m ond
s u
w an
w ork
Ġ iv
Ġa ff
Ġs ain
al ian
Ġm al
Ġm os
is la
Ġt ak
un t
el f
Ġl ife
ve ment
Ġ18 3
Ġro ss
Ġpo et
Ġsp orts
Ġ195 0
Ġ195 1
Ġpar tic
Ġit aly
ino is
Ġtor onto
Ġill inois
Ġthir d
Ġwicket s
b e
n ed
t ro
Ġ #
Ġa k
Ġa si
Ġb or
Ġb ass
Ġm y
te e
Ġn b
Ġj r
Ġg a
el ph
ol f
Ġde v
ow er
Ġ197 1
uc k
ell ow
Ġcomp any
Ġrecord ed
Ġdebut team
Ġfilm s
Ġtr ad
Ġpe ter
Ġmil itary
vil le
Ġhen ry
Ġvir gin
Ġrug by
b ro
r ian
w or
z a
in ing
Ġs ir
ar ch
Ġp l
Ġp al
Ġm en
Ġh al
re en
Ġan ge
Ġj ac
Ġis land
Ġim ages
Ġcon n
Ġcon stitu
Ġ196 1
Ġ196 2
Ġ196 7
ab eth
eb ut
ec u
Ġ193 2
Ġdra fted
ris on
Ġdef en
Ġir ish
Ġgre at
Ġsong writer
ep end
Ġsign ed
Ġchris ti
Ġcath olic
1 8
c i
h en
i j
n g
r ay
Ġ q
th ur
ti s
Ġf es
Ġf ed
Ġm ac
te st
Ġn hl
Ġt ur
el y
Ġl b
Ġk a
Ġk enn
Ġr ap
ot a
Ġ197 5
Ġsp e
Ġsp ain
Ġind epend
Ġ192 9
Ġph ys
tu re
Ġinclud ed
Ġmon t
Ġsen ior
Ġgovern or
Ġleg isla
Ġsup er
Ġeuro pe
c ar
c ons
d ra
g y
i la
i Äĩ
l ie
n ational
o y
r ich
u el
v a
x x
Ã £
Ġa bo
th ers
Ġf ig
Ġm ass
Ġd un
es h
Ġt a
Ġj u
Ġg ri
it a
ur al
ent ly
Ġk en
Ġk ent
Ġre v
ad o
im ent
Ġal f
ra el
oc al
Ġsp ec
Ġamer ica
Ġ193 8
ant a
Ġsing le
Ġserv ic
bo ur
Ġnot able
Ġwal es
Ġchampionship s
Ġden mark
Ġjud ge
Ġdiv ision
Ġjourn alist
Ġange les
Ġimages ize
h t
i lad
r u
r sb
y d
Ġ ve
ti ce
Ġb ur
Ġb ul
Ġo l
Ġd ar
la h
us se
it al
ur s
Ġst art
Ġch ina
ut y
Ġro ber
Ġla te
Ġcon g
if ic
Ġ195 9
Ġbo ston
00 0
sid e
Ġed itor
iz abeth
Ġag ent
Ġph ilad
Ġbro ok
Ġcal led
Ġbat ting
Ġste ph
we ight
Ġgr adu
Ġcl ass
Ġelec tion
Ġrepubl ic
Ġciv il
elph ia
Ġvirgin ia
Ġphilad elphia
b and
n es
r ican
w er
Ġs et
Ġb ran
en g
Ġf tin
Ġf ellow
Ġm ma
Ġw ife
Ġthe at
Ġd ate
Ġn t
Ġn om
Ġl ie
Ġl ine
Ġl ang
Ġis rael
ear ch
Ġal bert
ard s
Ġro und
Ġro se
ain ed
ak ist
Ġjo ined
so uri
ach us
Ġcar l
em a
Ġ193 1
Ġ193 3
Ġpol ish
urn e
Ġwork s
ric a
Ġaf rican
Ġit alian
ann a
Ġcomm it
anc es
Ġmis souri
Ġkore an
rib u
Ġrad io
Ġappoin ted
Ġconn ec
Ã£ o
b le
d y
d uring
o ther
s te
u z
in ese
on a
Ġs om
ti val
is s
re t
Ġd u
Ġn at
Ġt ro
Ġj ones
Ġl ist
Ġar thur
Ġis s
pla y
Ġe th
Ġch inese
Ġv an
et ts
ly n
Ġ194 0
Ġ194 8
Ġcar ol
Ġ193 5
Ġman y
me mber
Ġad am
sp ort
Ġcent re
vel op
Ġstar ted
Ġpop ular
Ġmod el
Ġder by
Ġprevious ly
Ġorgan iz
Ġtim es
Ġconstitu ency
Ġfes tival
Ġmass achus
Ġbran ch
Ġmassachus etts
b al
g en
l am
m it
o la
w ar
Ġs ys
Ġb all
en ant
Ġp et
Ġp akist
Ġf ight
te l
Ġo b
Ġd rum
Ġan th
Ġt v
Ġt urn
Ġand rew
Ġg ra
ch ester
Ġde velop
Ġk h
Ġk o
Ġk ey
Ġr ay
Ġst r
Ġal ong
Ġon tar
ut enant
ow a
ow ell
Ġle d
Ġte ach
Ġ195 3
Ġme x
Ġbo b
ire land
Ġind ust
Ġbr on
bo urne
Ġac tive
Ġ191 1
enc es
Ġ25 0
Ġsm all
Ġres earch
Ġje an
Ġfre der
Ġque en
Ġsil ver
enti al
Ġjim my
hand ed
Ġrich ard
kee per
Ġfollow ing
Ġtur k
Ġsys te
Ġontar io
w a
y e
y o
Ġ ireland
Ġs av
Ġs ide
ti es
Ġp ast
Ġd id
la v
ro s
un e
un k
ol is
Ġl or
Ġl ight
Ġk e
Ġre m
Ġar ts
Ġch rist
ian ce
Ġv ar
et s
Ġle e
os p
Ġmar k
Ġ193 7
Ġ192 8
Ġph ot
Ġpr inc
Ġmin or
Ġad min
Ġcomm un
Ġste ve
Ġel izabeth
Ġcent er
Ġhel d
po sition
Ġkore a
Ġent er
Ġmel bourne
Ġchair man
Ġmidd le
Ġwes tern
Ġdaugh ter
Ġabo ut
4 9
b ats
c tion
h u
w ay
Ã ¤
Ġ if
Ġb ishop
ar on
Ġc he
Ġp res
Ġp ress
Ġf ame
Ġw il
is e
is on
Ġh it
Ġh av
ch i
ur a
Ġre al
tic al
Ġr h
Ġr iver
ad or
Ġst an
ac t
Ġv i
Ġwh ile
Ġ18 4
Ġfo under
Ġpro ject
Ġjo e
end ed
ts burgh
ip l
Ġbo x
Ġ5 0
Ġ194 2
Ġ194 9
les s
Ġ193 6
ff ield
Ġpar ents
Ġ192 3
Ġ192 7
Ġbr ad
ah l
Ġi owa
ph y
Ġab d
Ġear ned
Ġdis c
Ġthro ws
Ġpit cher
Ġpit tsburgh
Ġscot land
Ġali as
Ġgoal keeper
Ġemp ire
Ġnov el
Ġprog ram
Ġjos Ã©
wor th
Ġeurope an
Ġtheat re
8 0
b ar
c ol
d on
d en
d ay
f e
i os
j a
m l
p ed
r d
r ation
s a
Ġa ch
Ġs ister
Ġs oci
Ġc orn
Ġc ard
Ġp ower
Ġf a
Ġf er
Ġf iction
te mp
Ġo x
Ġh old
Ġh ung
Ġd ay
Ġd ri
Ġt y
Ġg ir
at a
Ġde c
Ġr am
Ġfor m
Ġe con
Ġse ven
Ġro ad
Ġpo ints
land s
ell er
Ġkn ight
Ġ192 4
iz ed
Ġdebut date
Ġex per
Ġaf rica
bur y
Ġfinal year
Ġwilliam s
Ġje ff
jo hn
Ġque bec
Ġdan iel
Ġprim e
Ġhon or
enz o
Ġvictor ia
Ġscor ed
Ġphilip p
Ġtran s
Ġassist ant
Ġkenn edy
Ġadmin ist
1 7
c ow
d r
k n
n y
p ick
s en
s ki
u red
er a
in al
Ġs at
Ġc ze
Ġm ath
Ġw ent
Ġw oul
Ġw inning
is sion
Ġd i
Ġn g
Ġt al
Ġg ar
il y
ad a
om p
Ġst re
Ġst age
Ġst ock
Ġst ati
Ġal leg
id er
Ġv ol
Ġse lec
Ġ3 3
ess e
Ġ196 9
Ġmo der
op h
Ġ192 6
Ġsing h
Ġex p
Ġex ecu
az i
Ġbl ue
Ġbl ues
br idge
Ġcro ati
Ġmc g
Ġcompe ti
Ġscot tish
Ġpain ting
Ġmart in
Ġstri ker
Ġsuccess ful
Ġmos cow
Ġnb sp
Ġchristi an
Ġrober ts
Ġbrook lyn
Ġlie utenant
Ġeth n
Ġcarol ina
Ġecon om
Ġwoul d
1 2
f rom
h ing
i us
o un
v or
z en
Ã ¢
Ġ update
th ey
Ġs ar
Ġs ame
Ġc le
Ġp a
Ġp erson
Ġf if
Ġw rit
Ġthe y
Ġo k
Ġh and
Ġh og
Ġn ik
ro ss
Ġand r
ce ed
Ġl ive
ber s
Ġde tro
Ġk r
Ġre st
st ar
Ġr a
Ġr aj
Ġv is
um an
Ġpo st
Ġsp ort
Ġcol or
ire d
iv es
iv id
Ġmo ther
op le
Ġ193 9
og n
Ġpol and
ugh t
Ġsch ol
cl ass
Ġcomp le
Ġserv ing
Ġbro ther
Ġsec ret
Ġappear ances
Ġdo ub
Ġdo ctor
Ġcont ribu
iti es
Ġmet al
Ġbook s
Ġinv ol
Ġcla y
Ġfrancis co
Ġgeorg ia
Ġaff air
Ġsain t
Ġindepend ent
Ġspec ial
Ġbul gar
Ġach ie
Ġsoci ety
Ġcze ch
Ġdetro it
8 3
c u
c ord
d a
n ames
p le
p resent
w in
w ing
Ä į
Ġs as
Ġs ov
ti g
ti me
Ġb i
Ġb ig
Ġb ank
ar ian
is a
am er
Ġj ord
Ġg ian
Ġg ran
ol n
il la
Ġde g
ig an
tic ut
Ġfor e
ag ainst
om a
Ġch ap
ian o
orn ey
Ġv el
Ġv ik
um b
Ġro b
ey ears
Ġsh er
ick eter
Ġser b
uc ceed
Ġsc reen
Ġti g
Ġfin ish
Ġcomp os
Ġjohn son
Ġshe ffield
Ġ189 4
Ġ189 5
Ġact ing
Ġrun ning
Ġcr icketer
Ġir an
Ġso ur
inc oln
Ġfinal team
Ġstar s
Ġii i
Ġatt ended
Ġlead ing
Ġfour th
Ã³ n
Ġpat rick
Ġbow ling
Ġdep art
rac t
Ġmov ed
Ġgri ff
Ġconnec ticut
member s
Ġox ford
Ġstati s
Ġmoder n
Ġupdate d
Ġsov iet
c le
c us
d s
f ied
m or
m ad
p a
s r
v ing
à ¤
er y
Ġs old
or g
Ġb a
Ġc all
Ġc red
Ġth an
Ġp en
Ġh ay
Ġh ill
re al
Ġin n
Ġof ten
us s
Ġl oss
Ġis lam
Ġhe alth
ust on
ie w
Ġla t
Ġsp ent
Ġme ck
od y
Ġpre m
Ġgo od
Ġrec ogn
Ġ193 0
Ġmin nes
Ġaust ria
Ġfran ces
Ġaward ed
Ġwar ren
Ġgu ard
Ġbat s
mar ie
Ġdef e
Ġ190 8
Ġlaw yer
Ġpe ople
Ġhigh est
Ġatt orney
Ġrussi a
Ġcy cl
Ġbattle s
Ġmag az
Ġcolumb us
Ġdom in
Ġarg ent
Ġcatch es
Ġreturn ed
Ġrac ing
Ġservic eyears
Ġcong ress
Ġcommit tee
Ġhav ing
Ġaffair s
Ġminnes ota
3 0
b c
f an
i ent
n i
o st
s c
u ally
Ã º
Ġb ach
Ġc ri
Ġth ere
al o
al leg
Ġm un
Ġm ik
Ġw is
Ġw ay
is ted
Ġh amil
Ġn ative
as ka
am o
Ġg h
Ġg y
Ġg il
it ch
Ġl in
ig or
Ġk u
Ġr and
Ġas h
ot o
Ġv as
ard en
Ġplay ers
sh all
ers et
ab lish
Ġ4 5
Ġ194 3
Ġ193 4
Ġ192 5
Ġ17 9
Ġserv ice
Ġz im
Ġad d
Ġad v
Ġcomm ission
Ġinclud e
Ġdav is
Ġtr ack
Ġdes c
Ġatt ack
til lo
Ġho uston
Ġolymp ic
Ġdep uty
Ġfound ed
Ġtri al
sch ool
Ġperfor man
Ġli ber
Ġatl anta
Ġlit er
instrument alist
Ġpartic ip
Ġjac ob
ht ml
Ġnt update
Ġnom in
Ġorganiz ation
Ġfreder ick
kn own
Ġfore ign
Ġcompos er
alleg iance
Ġhamil ton
1 0
a ff
c as
d ebut
i od
j i
j ames
o x
p erson
u f
u er
v in
y an
Ä ĥ
Ġa st
er v
th od
Ġs i
Ġs id
Ġ1 00
Ġb in
Ġb ang
ar ia
Ġc ir
Ġc iti
Ġm ach
Ġthe m
Ġh ow
Ġh ugh
re y
Ġd or
Ġd own
Ġd og
Ġd anc
am ent
Ġan other
it ing
ch en
il i
Ġl incoln
Ġre ach
Ġe ast
Ġal ger
Ġv on
ub a
Ġwh it
Ġfo x
Ġ3 6
Ġne ver
Ġne br
Ġmar ia
Ġcon v
Ġcon fer
ion s
Ġcap tain
av y
Ġ4 9
iv ing
Ġind uc
Ġind ivid
Ġbr ian
Ġteam s
Ġag ain
Ġsing les
Ġpr ac
Ġwork ing
Ġper iod
Ġbas ed
Ġ189 0
Ġ191 7
Ġchar ac
Ġcr im
Ġear l
Ġcent ury
Ġcont in
Ġreg ular
Ġsw ed
Ġpubl ished
Ġfe at
Ġalbum s
Ġsho ots
Ġsil va
Ġbrazil ian
ograp her
Ġest ablish
Ġlit tle
Ġroy al
Ġnick name
Ġathle tic
arch ive
Ġlegisla tive
Ġsom erset
Ġderby shire
Ġsas k
amer ican
Ġdepart ment
Ġprem ier
Ġciti zen
Ġnebr aska
1 3
b s
k ins
l or
t r
u ce
u res
w h
w ith
w ood
x t
y ce
Ã §
Ġ ur
Ġa lab
ar e
Ġc em
Ġp ot
Ġf r
Ġf red
Ġm u
Ġw ing
Ġh u
Ġh ear
Ġh od
Ġh its
re st
Ġn ig
Ġt ack
Ġj ust
Ġj ak
ce l
el in
ch an
Ġl im
Ġk elly
Ġr an
Ġr en
Ġfor ce
ag u
Ġto urn
si der
and ing
Ġe ver
Ġch er
ac y
Ġun dra
Ġpro s
ord on
Ġser ge
Ġmo vement
Ġjun ior
Ġman age
team s
Ġfin land
Ġfin ished
Ġ15 0
Ġmember s
ric in
Ġbar ry
Ġmed ical
Ġgre g
Ġfinal date
Ġsim p
Ġdel iver
Ġut c
Ġele ct
Ġprov id
Ġdefen se
Ġju an
Ġalf red
bour g
Ġiss ue
Ġpakist an
Ġexecu tive
Ġethn ic
Ġschol ar
Ġsour ce
Ġmagaz ine
Ġalab ama
Ġundra fted
2 5
6 7
` `
c an
d o
d av
d ney
i date
k ov
n ess
p ng
r ight
s ong
t an
v ocal
w ell
z er
Ä ±
Å į
Ġ ic
Ġa ut
in i
Ġs aw
Ġb il
Ġb ud
Ġc ame
Ġc ra
Ġp ir
Ġm ot
te en
Ġh op
Ġd if
Ġd ram
Ġn u
Ġn Ã©
am ous
Ġj on
Ġj us
Ġg lo
el le
it o
at o
at ors
Ġk ir
Ġr on
im i
and a
Ġal tern
ot ing
ia h
ut ch
Ġse e
ist ol
os lav
res sion
Ġmar shall
ud w
ov ak
ff alo
Ġpar is
Ġ192 0
Ġ191 6
Ġbar on
Ġbat ted
Ġha w
Ġcent ral
olog ist
Ġmich igan
vel y
ans as
Ġann ual
Ġbu ffalo
Ġstud ies
Ġevent s
Ġcons erv
Ġoffic ial
Ġval ley
Ġdesign er
eter y
Ġest on
Ġcolumb ia
Ġcolumn s
Ġce o
Ġtechn ology
work s
Ġhal f
Ġcarl os
Ġdrum s
Ġbron ze
Ġsyste m
Ġvar ious
Ġprinc ess
Ġphilipp ines
Ġmath ema
Ġsecret ary
Ġinvol ved
Ġdanc er
Ġcem etery
Ġtourn ament
ricin fo
Ġaltern ative
3 5
4 5
7 6
b l
b il
e um
l it
m ich
n ik
o th
o ver
r ated
Â ł
Ġ $
in z
Ġb ol
ar o
ar ter
Ġc m
Ġc ab
Ġp ers
Ġp ion
Ġp ass
Ġf em
Ġf ern
Ġf olk
Ġm ain
Ġw el
Ġw at
te in
Ġd ick
am on
Ġan ne
ro w
Ġj ump
Ġg all
Ġg ib
Ġg ordon
ch e
ent y
Ġl uc
he ad
Ġk im
st ump
ag i
si a
om b
Ġy ards
ve t
ap olis
Ġv ice
et t
Ġse oul
mer o
ug u
ug oslav
Ġ3 2
Ġco ast
Ġ0 9
res ult
Ġim p
Ġim port
Ġpo ker
Ġla dy
Ġsp an
Ġcon sider
Ġnew s
Ġ5 5
ok a
Ġeng ine
Ġ192 2
Ġmus eum
Ġrecord ing
Ġwe ek
Ġ189 6
Ġ191 3
Ġstat us
Ġall en
Ġhar v
Ġ190 9
Ġproduc tion
Ġcont ro
Ġlast test
Ġreg iment
Ġpri ze
Ġsa x
Ġpaul o
Ġbusiness man
Ġtest debut
Ġbre ak
Ġstri ke
Ġatl an
ograp h
Ġdon ald
Ġep is
Ġspe aker
Ġmont real
cons in
lah oma
Ġdevelop ment
Ġindust ry
Ġhold s
Ġgir ls
Ġstre et
Ġok lahoma
Ġclay ton
Ġbulgar ia
Ġchap man
ucceed ed
Ġdefe ated
Ġwis consin
Ġmanage ment
Ġdeliver ies
song writer
stump ings
0 4
1 6
a e
b an
b ab
b ane
f r
k h
k ing
l im
m al
p s
p os
s el
t ory
u te
w ill
Å Ĥ
à ¸
Ġ Å
Ġ Ð
th is
Ġs ug
or ies
ti ll
ti ves
ti Äĩ
Ġb on
Ġb ad
ar k
Ġp s
Ġp ad
Ġf al
Ġf ul
Ġf amous
al if
le an
Ġm i
Ġm ul
Ġw olf
is si
Ġo ak
re p
re cord
Ġd ie
Ġn el
Ġn ine
as a
la us
ate ur
Ġl ig
Ġl udw
Ġk w
Ġfor med
Ġbirth name
im a
ul ture
Ġy ugoslav
Ġe ag
Ġe ight
ian s
ot ti
Ġse le
Ġse at
Ġle w
Ġle vel
Ġwh ite
ist s
ri e
Ġ3 5
Ġ3 8
Ġco ul
Ġ0 3
Ġ0 8
Ġsp art
ud e
Ġsh ane
end or
od e
Ġ6 0
Ġcar r
ok e
Ġman chester
Ġag ing
Ġag ric
ah ls
Ġac tiv
Ġsouth ern
ins ti
Ġmed ia
Ġcomm and
af at
Ġhar rison
Ġso ul
Ġmon th
Ġqu arter
ron ic
Ġsen ate
Ġho st
Ġsy dney
Ġcas tillo
Ġfive for
Ġwin ter
Ġma x
Ġber lin
Ġmill ion
tim es
Ġsome times
Ġmiss issi
pp i
Ġmidd les
Ġver y
Ġten for
Ġoper a
Ġang el
Ġasi a
Ġfed eral
Ġphys ic
Ġkey bo
Ġturk ey
Ġenter tain
Ġbox er
Ġcompeti tion
Ġperson al
Ġjord an
Ġgran t
Ġdeg ree
Ġgriff in
Ġcir cu
Ġconfer ence
Ġindivid ual
Ġethnic ity
Ġjus tice
Ġengine er
Ġharv ard
Ġmississi ppi
2 4
2 6
8 7
8 9
a ud
d ie
d ale
f c
f ran
g r
g ed
g ation
h ol
i i
i en
k in
l ow
o ur
r id
t own
w ick
Ã ´
Ġ %
Ġ ern
in ton
on st
Ġs ri
Ġs qu
Ġs amp
Ġb ull
Ġb udd
Ġc at
Ġc and
Ġf k
Ġf und
Ġf lo
Ġf air
le t
Ġm ess
Ġw id
Ġthe ory
Ġo thers
Ġh y
Ġh ip
Ġh ans
Ġh esse
Ġh uman
Ġ19 19
Ġd ol
Ġd ere
Ġd ance
Ġn ar
Ġin te
Ġan al
ro p
Ġj ay
Ġg al
el or
Ġk er
Ġk ill
Ġk ansas
tic o
Ġr ace
Ġfor ces
ag h
ag ed
Ġch art
ot t
Ġv ac
Ġle ban
ri es
Ġro les
Ġpro mo
Ġpro min
Ġ0 6
Ġ0 7
Ġpo d
ie m
Ġla ke
ain s
Ġcon st
ak i
Ġ4 0
Ġ4 6
Ġ5 4
Ġind ones
Ġcoun sel
ther n
Ġbr un
Ġag ed
Ġcolle ction
for m
ign on
ign ed
Ġad vis
Ġmusic al
Ġex t
Ġbro ad
Ġ189 3
Ġ189 9
ier re
Ġ191 0
Ġ191 5
Ġnor thern
Ġgu y
Ġcomm on
Ġste ven
ai led
enc ed
Ġev a
Ġ22 5
ati ves
Ġso f
de z
Ġstud ied
Ġ188 6
Ġhel ped
Ġbow l
lb s
Ġsoc cer
Ġmanager years
Ġmanager clubs
Ġpain ter
Ġcre ated
Ġrepresent atives
out s
pro f
Ġtra ining
Ġrela tions
Ġmur der
Ġmak ing
Ġtre vor
Ġprov ince
Ġinflu ences
Ġry an
Ġvo ice
Ã¡n dez
Ġmal ay
Ġfight ing
Ġmex ican
col or
Ġadminist ration
Ġselec ted
Ġserb ian
Ġsold ier
Ġbats man
Ġadd ition
Ġsid ney
Ġinduc ted
Ġcharac ter
Ġpion eer
Ġfem ale
Ġspan ish
Ġconsider ed
insti tu
Ġcircu it
0 1
1 1
2 3
2 9
3 3
5 5
a o
b ishop
e x
g re
g ers
g arden
h r
h ag
j an
j os
j Ã©
m as
m el
m ore
n ut
p t
t z
v ador
w est
w ins
z i
Å ¡
Ð ¸
à ´
Ġ !
Ġ *
Ġ il
er ation
in et
Ġs v
Ġs us
Ġs ou
Ġs Ã£o
ti er
Ġb ern
Ġb aker
Ġc f
Ġth or
Ġp ur
Ġp orn
Ġf ut
Ġf ade
Ġf ron
al a
le ton
Ġm end
Ġm old
Ġw ins
Ġo mar
Ġh c
Ġh or
Ġh ur
Ġh osp
Ġd yn
Ġd ipl
Ġn ear
Ġn et
Ġn azi
as per
el d
ch t
Ġl as
Ġl and
Ġl anc
Ġl ocal
Ġre sp
ad er
ear garden
and ro
Ġy ale
Ġch am
Ġch ad
Ġun it
id s
id ebut
Ġhe avy
ap p
Ġv en
ay a
ay e
ow ski
Ġpla ced
Ġle t
um on
Ġro mero
Ġbe au
Ġmar c
Ġcon c
Ġcon cer
Ġcom mer
Ġjo h
ack er
Ġcol on
ab l
Ġpol ice
Ġjun g
ren ce
Ġ7 4
Ġpar k
ment s
Ġbr ent
Ġsing ing
qu ently
Ġz ag
19 6
amp a
Ġheight in
Ġheight ft
Ġtw enty
ins k
enc ar
Ġdraft year
Ġdraft pick
Ġhar ry
Ġhar per
Ġrus hing
ens en
Ġhigh school
200 8
Ġproduc ed
vel and
Ġam ateur
Ġcont ract
Ġrele ase
mo ther
Ġsen ator
Ġartist s
Ġorigin al
Ġmc lean
Ã¼ r
Ġcas e
Ġcor por
Ġsup port
Ġwin ner
Ġbet ter
Ġcam m
Ã¶ n
Ġend ed
Ġfrank lin
Ġhen ri
Ġfree man
Ġemp lo
mon t
Ġown er
Ġod idebut
Ġcatch er
Ġmas ter
Ġmoham ed
Ġmoham mad
Ġiv an
Ġdefen sive
Ġfig ure
usse in
Ġlang u
Ġanth ony
Ġturn ed
Ġteach er
Ġlor enzo
Ġcle veland
Ġrest ing
Ġcolor ado
Ġvik tor
Ġmeck iff
Ġbach elor
Ġcri tic
dav id
Ġdram a
Ġglo bal
Ġconserv ative
mich ael
will iam
Ġps y
Ġdie go
Ġyugoslav ia
Ġspart ak
Ġsqu ad
Ġdere k
Ġsof ia
hag en
2 2
4 0
7 5
7 7
8 6
8 8
b in
b ased
d owell
e f
e ver
e lec
e wan
g est
h ouse
l an
l le
l io
m n
p ool
r at
s ince
s burg
t ent
u ct
v an
w art
w ide
w yn
Ġ uc
Ġ ell
Ġa i
Ġa ik
Ġa aron
th ough
in als
an ie
Ġs or
Ġs ent
Ġs ult
or ary
ti al
Ġb an
Ġb av
Ġb bc
Ġc in
en te
en burg
Ġth ose
Ġp ac
Ġf el
Ġf ac
Ġf all
Ġf ly
Ġf ant
Ġf aul
Ġm r
Ġm ut
Ġm uch
Ġw he
Ġw ard
Ġw ild
Ġthe se
Ġo ld
Ġh ard
Ġh ind
as y
Ġin f
am al
es a
ic y
Ġt ar
Ġj ensen
Ġg ary
el i
it ney
ch ar
Ġl ane
Ġl ands
Ġl ives
Ġde al
Ġk ang
Ġre fer
Ġr ang
om ing
ul p
Ġe mer
Ġe ach
Ġe ff
Ġch an
Ġch ann
ian a
Ġun known
ap ore
Ġv ide
et te
Ġse m
Ġle s
ath an
ist ry
ra ine
um ann
Ġbe h
sh i
Ġsp ring
Ġsp lit
Ġcon d
Ġcon f
Ġcon temp
Ġcom edy
ey er
est yle
est nut
ov o
av or
Ġfoot sc
Ġme mor
Ġor thod
ik a
Ġsc ulp
Ġpre ced
Ġno ted
Ġcurrent team
Ġed mon
Ġ8 0
Ġph ill
Ġsing apore
Ġ9 0
ash ire
the w
enn a
Ġtw ice
Ġ191 8
atch ewan
Ġmed ium
Ġste fan
co ver
Ġdraft round
Ġchar lie
Ġlo st
Ġright s
Ġir a
Ġir on
Ġir ene
Ġ190 1
Ġ190 4
olog ical
200 5
200 9
Ġelec tions
Ġbus h
Ġpubl ish
Ġvic tory
Ġ186 7
Ġ186 9
Ġleg al
Ġpit ch
Ġcons ort
Ġval er
Ġsign ature
Ġfound ing
itz er
Ġdan ish
Ġcam er
Ġcam bridge
Ġguitar ist
tim ore
Ġgoal t
Ġshow s
Ġut ah
Ġinflu ential
Ġbal timore
Ġtechn ical
Ġpartic ular
Ġga ve
uck y
Ġtrad ition
bro ugh
Ġphys ics
Ġgradu ated
Ġhung arian
Ġfif th
Ġcontribu tions
Ġachie vement
Ġscreen writer
Ġcred ited
Ġperforman ce
Ġprac tice
Ġswed en
Ġsask atchewan
Ġserge i
Ġmot or
Ġeston ian
Ġcab inet
Ġgib son
Ġsax oph
Ġmul ti
Ġnel son
Ġlew is
Ġactiv ist
Ġmiddles brough
Ġlanc ashire
Ġfootsc ray
Ġorthod ox
Ġedmon ton
7 0
8 5
b at
c en
c op
f olk
g i
g as
g ro
g ian
h el
h ood
j ian
l as
l ine
m b
r ad
s v
s an
s elf
u art
v ich
w au
x el
y i
z o
z iz
Ã «
à ®
Ġ Ø
Ġ id
Ġa h
Ġa hl
in k
in er
on ist
Ġs in
Ġs elf
or ter
or ge
ti vely
Ġb lo
Ġb akh
Ġc i
en se
en sive
Ġth ough
Ġp il
Ġp ra
Ġp os
Ġp ick
Ġp istol
Ġp ierre
Ġf us
Ġf ish
Ġf ace
Ġm ick
Ġm ah
Ġm lad
Ġw ahls
Ġo s
Ġh om
Ġh art
Ġh ong
Ġh ang
Ġ19 00
Ġd am
Ġd ann
Ġn ation
Ġn iz
as tern
ic ine
ed ic
Ġt u
Ġt on
Ġt as
Ġt am
Ġt ay
tion al
un sch
Ġg ren
el s
us h
it us
ol in
il ity
ent al
Ġl am
Ġl ut
Ġl iver
Ġl ike
he im
ber to
Ġk ess
Ġk ev
Ġre f
im oto
and r
tle y
Ġst ory
Ġst aff
Ġal encar
Ġal though
id el
Ġhe ath
Ġon ce
Ġv a
Ġv anc
Ġv inc
Ġat temp
ct ure
Ġle ko
mer ous
up per
ra it
um ent
os op
Ġ3 9
Ġ0 5
ge orge
Ġne v
Ġne xt
man n
Ġla bor
ou d
Ġsp r
ov ich
end ing
av ier
Ġme e
od i
od es
ip ient
Ġjan e
Ġ4 1
Ġ4 8
Ġbo ys
uc tion
ik ha
Ġ194 1
op p
Ġrec ently
Ġrec ipient
ant z
Ġher o
ren e
Ġ7 0
Ġ7 6
ond o
Ġbr it
ld ra
Ġcomp u
Ġcomp an
Ġaust rian
Ġformer ly
Ġbro thers
ann e
Ġ189 7
Ġ191 2
Ġmed icine
Ġcomm ander
Ġcomm ands
Ġger ald
Ã¡ k
bur ial
we ig
Ġall ow
Ġrun ner
Ġdef ence
ne w
Ġtr ue
Ġsan ford
Ġbec ome
Ġbra unsch
Ġsw itzer
Ġdis cover
Ġmil wau
Ġmanag ed
Ġpri or
Ġ187 3
Ġbu ild
Ġfre estyle
Ġsal vador
Ġphil osop
Ġmor ris
Ġsho oting
con tent
Ġlu x
Ġlu is
Ġred sk
Ġindian a
Ġrepresent ing
Ġarch ite
Ġarch bishop
Ġent rep
ograp hy
Ġshar on
Ġang ell
Ġjer ry
Ġjapan ese
Ġry u
hen y
Ġken ya
Ġkent ucky
Ġdar k
Ġstart ing
Ġsteph en
Ġgradu ate
Ġtro phy
war z
Ġsav oy
Ġrem ained
Ġcommun ity
ipl ine
Ġdisc ipline
Ġhung ary
Ġexper iment
Ġalleg heny
Ġcroati a
Ġcroati an
Ġnik ola
Ġgian ts
Ġfinish ing
Ġnomin ated
Ġestablish ed
Ġcitizen ship
Ġhear t
Ġelect ronic
Ġnu merous
Ġstrike outs
pos ito
Ġeag les
Ġcoul d
Ġentertain ment
Ġcand idate
Ġwid ely
Ġindones ia
Ġdipl om
Ġsult an
Ġbav aria
Ġcontemp orary
Ġkev in
Ġbraunsch weig
Ġswitzer land
Ġmilwau kee
Ġredsk ins
Ġentrep rene
5 9
7 4
7 8
a ug
b on
b ass
b ara
c r
c or
d ar
e o
e an
g c
g es
g ary
g ang
h ab
i ot
i ens
j p
k en
l u
l ar
l ia
l os
l ington
n at
n ick
n ell
o o
p re
p ec
r idge
t ra
y u
y ers
Ã ¯
Å Ħ
Ġ é
Ġ ul
Ġ ess
th an
on so
Ġs ad
Ġs ul
Ġs ang
Ġs inc
Ġs till
or igin
Ġb ir
Ġc s
Ġc er
Ġc ass
en i
en ko
Ġp ate
Ġp ian
Ġp ap
Ġp ay
Ġp av
Ġp uer
Ġf ile
al i
Ġm ir
Ġm ix
Ġm eyer
Ġh amp
Ġh aj
Ġh ank
Ġh uss
re z
Ġd j
Ġd ro
Ġd at
Ġd ays
Ġn ag
Ġn ord
Ġin st
Ġan c
la ir
la im
Ġt an
Ġt at
Ġt amil
Ġand erson
Ġj es
un a
ce p
us ed
il led
ur ity
at ar
Ġl ord
Ġl ip
Ġl ok
Ġl iti
Ġl ions
Ġde b
Ġde ad
Ġk laus
Ġre pla
Ġar iz
Ġar men
Ġr ick
Ġfor t
om o
and e
Ġst yle
Ġy an
Ġe is
Ġe ug
Ġal t
Ġal der
Ġch ess
Ġch estnut
ver si
ian e
ot to
id o
igh am
Ġv ie
et a
et own
ard o
ug las
Ġro s
Ġfo o
Ġfo ster
Ġfo cus
Ġ0 1
Ġ0 4
Ġne igh
Ġwith out
ou ver
ain er
ion al
Ġjo yce
Ġsh ir
end all
end ra
ran co
eb acker
Ġ4 2
iv en
iv al
Ġ5 1
op en
em in
em bourg
ant ry
Ġman uel
ctor al
Ã© tico
Ġpart ner
ass a
Ġpar ker
Ġpar aly
Ġti ed
iz a
Ġbr uce
Ġbr igham
Ġph o
Ġfin anc
qu es
Ġrecord ings
Ġapp e
Ġoff ensive
enn y
Ġ189 8
Ġ191 4
Ġnor way
Ġwar s
co unt
Ġstat s
ys is
Ġsec urity
Ġab b
ting ham
Ġcl inton
Ġnot tingham
ons ki
Ġappear ance
Ġam ong
Ġstar red
Ġhim self
Ġru les
Ġann a
ev ich
Ġsy rac
Ġ187 0
Ġhist or
Ġup on
Ġtitle s
Ġsho o
Ġperfor ming
back ground
Ġare a
Ġcla im
ĠÃ ĸ
Ġmill er
Ġatl Ã©tico
Ġmat thew
rib ed
Ġplace of
Ġacc omp
Ġmak e
udd in
Ġscor ing
Ġathle tics
Ġsain ts
Ġpoet ry
Ġspe ed
Ġdun can
Ġrev iew
Ġnotable works
Ġnat ural
Ġpet ro
Ġphot ographer
Ġvi enna
Ġproject s
omp son
Ġdoub les
Ġdoctor al
Ġstatis tics
Ġcycl ist
Ġlin ebacker
Ġattack ing
Ġliber al
Ġliter ary
Ġparticip ated
Ġbang lad
Ġreach ed
ovak ia
Ġbaron et
Ġfal cons
Ġludw ig
Ġquarter back
Ġanal ysis
Ġbrun o
abl onski
Ġgoalt ender
hel m
Ġpil ot
Ġliver pool
Ġvanc ouver
Ġlux embourg
Ġentreprene ur
Ġsinc lair
Ġpate l
Ġpian ist
Ġpuer to
Ġliti gation
Ġariz ona
Ġparaly mp
Ġsyrac use
Ġplaceof burial
. .
4 4
7 2
c al
c at
c up
c ast
c ial
d an
g h
g u
g ra
h ow
h ran
j am
j ana
k ner
l ic
n p
n am
n elly
o eller
p r
p ri
p aul
u an
v o
v ine
w on
w ays
y agi
Ã ¦
á Ģ
Ġ ia
Ġ ump
Ġ igor
th omas
in ch
in ian
on jÃ©
an otti
Ġs ed
Ġs un
Ġb ot
Ġb har
Ġb eargarden
Ġb gc
ar ily
Ġc ad
Ġc ast
Ġc inc
Ġc ult
en in
en ham
Ġth ompson
Ġp un
Ġp ace
Ġp iano
Ġf le
Ġf ur
Ġf ri
Ġf ailed
al bert
Ġw it
Ġw ak
Ġw inn
Ġw inger
is ing
Ġo p
Ġh ab
Ġ. ..
Ġd all
Ġn y
Ġn ight
Ġn ai
Ġn ova
as i
Ġin ves
ic z
ic he
ic ap
ro ck
ro yer
Ġt upper
Ġj ess
Ġg i
Ġg un
Ġg ay
Ġg ree
Ġg iven
el er
ate ly
ch ik
ol an
il ian
ur u
ur er
ur in
Ġl uk
Ġl isa
Ġk id
Ġk ong
Ġk han
Ġk uba
Ġre ign
Ġar n
Ġar ag
Ġar afat
tic ian
Ġr id
Ġr io
Ġr ene
Ġr ider
ad ier
ad esh
Ġto k
si p
im age
ear ce
Ġst ation
Ġst ories
Ġst uart
Ġe c
Ġe gy
Ġch i
id i
ia k
Ġv lad
ay er
ut or
ard ar
ight on
Ġro d
Ġro m
Ġro me
Ġro ll
Ġro yer
Ġ3 4
Ġ3 7
Ġco pen
Ġte l
Ġte mp
Ġbe g
Ġbe ach
Ġpo int
Ġmar tial
Ġsp ira
ican t
ud ley
ak ing
ak sh
Ġcom ic
if icant
Ġnew sp
Ġsh ary
Ġsh ah
ran o
ab r
ab ri
Ġ6 1
Ġ6 4
Ġ4 3
Ġ5 3
ell ing
Ġsc ore
op her
Ġposition s
ant um
Ġman ila
ugh lin
Ġpart s
ass an
Ġed die
iz on
Ġsch warz
Ġpr ison
Ġpr adesh
se ason
Ġ17 5
Ġmin istry
ah eli
Ġgen er
Ġaust in
ins tein
Ġus ed
Ġnor folk
Ġbar bara
Ġ14 0
co ach
Ġcanad iens
Ġwill ie
Ġbri ef
Ġlo ve
Ġcr onjÃ©
Ġhar old
ne ider
Ġso und
Ġ23 0
Ġ190 2
Ġlaw rence
Ġtr in
Ġbl ond
Ġbut ler
Ġprod uct
Ġmon ey
inn ati
Ġgre en
ll ig
200 4
Ġqu alif
Ġqu antum
Ġale ks
Ġmil an
ev a
olo ur
Ġlouis e
Ġlouis iana
Ġ188 0
Ġbow ler
Ġfe w
ony m
Ġsign ificant
Ġperfor med
Ġma ur
Ġinv ited
Ġinter est
Ġprim emin
Ġmart ÃŃ
Ġtest s
fo under
Ġgold en
Ġindian apolis
Ġrepresent ative
Ġav ignon
Ġem ir
Ġvoc alist
Ġer a
Ġmat t
Ġkar l
pp ed
Ġmag n
Ġrich mond
Ġsur v
Ġjourn al
Ġacc laim
ho on
Ġmad rid
bor ough
Ġsub se
Ġasi an
Ġdev ine
Ġtrad ed
Ġq atar
esh ire
Ġisrael i
ste ph
Ġball s
Ġmex ico
Ġwil helm
Ġbrad ford
Ġabd ul
Ġnovel ist
Ġcard inals
Ġeconom ic
Ġeconom ics
Ġandr Ã©
Ġvel shi
Ġinn ings
Ġdomin ican
Ġargent ina
Ġconv iction
Ġfeat ured
Ġnig er
Ġtack le
Ġpros ec
Ġprovid ed
Ġdif ranco
Ġkir am
Ġimport ant
Ġatlan tic
ÅĤ aw
Ġpad illa
endor f
Ġinte llig
Ġleban on
Ġpromin ent
Ġconcer t
Ġpac ific
Ġfaul kner
Ġlands berg
Ġrang ers
Ġpreced ed
Ġdann y
Ġcompu ter
Ġphilosop hy
Ġexperiment al
Ġdiplom at
Ġhamp shire
Ġarmen ian
Ġfinanc ial
Ġshoo ter
Ġbgc olour
Ġcinc innati
Ġdall as
Ġcopen hagen
Ġnewsp ap
Ġprimemin ister
0 3
6 8
a aron
b et
c b
c z
c ted
c ricinfo
d u
e la
e per
f a
g us
h ou
i as
i ors
j er
j un
k ar
k al
l ight
l ana
m id
m ary
n or
n el
n ap
n ish
p n
p ar
p ur
p ast
q i
r uction
s is
s ucceeded
t v
u ed
u ard
w inning
w icz
Ã ¨
Ã ±
Ã ¸
Ä ģ
Ä Ļ
Ð ½
Ġa xel
th ro
in th
in burgh
an z
Ġs ol
Ġs ap
Ġs ick
Ġs ab
Ġs af
Ġs ons
Ġs anta
or ated
ti e
Ġb om
Ġb id
Ġb ai
Ġb ody
ar s
ar ca
Ġc ur
Ġc ulture
en ai
Ġth ur
Ġp ic
Ġp akh
Ġp unk
Ġf urn
le f
le ans
Ġm cc
Ġm ale
Ġm lb
Ġw a
Ġw ater
te ss
Ġthe sis
Ġh un
Ġh us
Ġh ot
Ġh ann
Ġh ussein
Ġd oc
Ġd ue
Ġd utch
Ġd np
Ġd udley
Ġn a
Ġn i
Ġn ations
as u
as than
Ġin j
Ġin iti
am ma
Ġan ti
Ġan im
Ġan ton
Ġt us
Ġt ong
Ġt ang
Ġt enn
Ġt rum
ing u
Ġj am
un ce
Ġg as
Ġg Ã¶
Ġg osp
ch y
Ġl ind
he m
ig uel
Ġk ame
Ġk illed
Ġk ainer
Ġre bane
Ġar ab
st an
Ġr im
Ġr ud
Ġr if
Ġr ania
Ġr ais
Ġto uring
si k
si ble
and o
and y
ul i
ul zer
Ġy ou
pla ces
pla yer
Ġe astern
ve y
ot te
Ġun cle
id ad
id ence
Ġv fl
et ing
ut t
Ġwh ose
ri al
ri but
Ġplay off
Ġro ger
Ġborn eo
Ġco o
Ġco us
res sive
Ġmar ri
Ġmar ie
Ġmar cel
Ġwith in
ain e
ord in
Ġcom ed
if t
ov iÄĩ
ov anna
Ġsh im
ick i
av an
Ġme chan
so p
Ġbo yd
Ġ5 00
Ġor leans
Ġsc ene
Ġmo b
Ġpol icy
son s
Ġher n
Ã© ri
Ġind o
Ġpar agu
ang el
Ġti ll
Ġti ger
Ġ192 1
Ġed inburgh
Ġ8 4
Ġag ency
Ġfin nish
for ming
Ġ9 2
Ġserv es
Ġsu ff
Ġi b
Ġyork shire
ric ia
Ġper ry
ress ed
Ġcal gary
ke wicz
Ġ13 9
Ġ189 2
Ã¡ z
Ġev ans
Ġband s
Ġchar l
Ġschool s
Ġ190 3
Ġ190 5
Ġcoach ed
Ġlaw yers
br u
Ġcl ar
Ġmon arch
Ġbec oming
Ġgre y
aw a
Ġhigh ly
200 3
Ġyo ur
Ġreg ard
Ġann oun
Ġauthor ity
Ġsen ators
Ġdis p
Ġsy rian
Ġthro wing
Ġorigin ally
Ġ187 8
Ġstud y
Ġstud io
Ġalex and
Ġmet s
Ġmet re
Ġrece iving
tal ion
Ġacadem ic
Ġsim on
Ġden ver
Ġx i
Ġinv est
Ġprim arily
Ġdel hi
Ġes posito
Ġport rait
Ġut tar
Ġdr ug
Ġele ctoral
Ġlos ing
Ġver sion
201 3
Ġmas ters
Ġdaugh ters
Ġ183 5
ij s
Ġfed eration
Ġindepend ence
Ġgri eg
Ġservic es
Ġol ive
Ġalbert a
Ġdu ke
play ed
Ġpakist ani
Ġturk ish
Ġsyste ms
Ġwil son
chi at
Ġvi olin
Ġnovel s
Ġdri ver
Ġty pe
dr ig
Ġmcg inn
Ġwrit ing
Ġdoub le
Ġbank s
Ġrecogn ized
Ġmun ich
Ġgy mn
Ġadv oc
Ġdesc ent
Äĥ u
Ġdor oth
Ġearl ier
wh ile
Ġhod ge
Ġsimp son
Ġbil ly
Ġpir ates
ĠnÃ© e
Ġbol and
vet lana
Ġcontro versi
Ġseat tle
prof ession
mas ter
Ġhosp ital
Ġnet work
Ġcommer cial
Ġjoh ann
Ġpsy chiat
Ġcin ema
Ġfly ing
Ġwild e
Ġrefer red
Ġchann el
Ġbeh ind
Ġcamer on
cen era
sv g
Ġah med
Ġhart ford
Ġtay lor
Ġbrit ain
ldra fted
Ġcompan ies
Ġallow ed
Ġhuss ain
Ġeis ner
Ġwars aw
jam in
Ġfri end
Ġinves tig
thro ugh
Ġgosp el
Ġparagu ay
Ġdoroth y
' t
0 7
2 8
7 3
a use
a uman
a oka
b re
b us
b ot
b ie
b ak
b ors
c s
c y
c ious
c ats
c ross
d le
f ic
g et
h on
h ap
h op
h ael
h ib
i ad
k ed
k at
l on
l ory
l oss
l enburg
m pla
m outh
m owski
n an
n et
o e
o is
o um
p an
p ond
r as
s in
s ir
s ub
s ey
u x
u en
u tion
u iz
u tes
u oka
v iÄĩ
x ter
y es
z es
z io
z ny
Å Ł
Ð °
Ġ _
Ġ å
Ġ è
Ġ ide
Ġa uck
er re
er ed
th am
in Äĥu
an ts
Ġs r
Ġs la
Ġs el
Ġs it
Ġs and
Ġs Ã©
Ġs usse
Ġs otto
or ia
Ġb ears
Ġb urn
Ġb int
ar ed
Ġc u
Ġc ate
Ġc fl
Ġc bs
Ġc ricinfo
Ġc Ã´
en tist
en ix
Ġp on
Ġp ut
Ġp age
Ġp ears
Ġp resented
Ġp ga
Ġf ire
Ġf ast
Ġf ash
Ġf itz
Ġf avor
al f
al ma
le e
le tt
Ġm p
Ġm ack
Ġm imi
Ġm iguel
is k
is ÅĤaw
rb an
Ġo il
Ġh az
Ġh iro
Ġh unt
re b
Ġd in
Ġd one
Ġn im
Ġn av
Ġn ba
Ġin s
Ġan y
la w
ed s
ed er
ro b
ro om
ro usse
Ġj i
Ġj ar
Ġj enn
Ġj asper
Ġg on
Ġg et
Ġg olf
ce ll
ate st
us hing
ch air
ol i
ur se
Ġl ank
Ġk on
Ġk am
Ġk ate
Ġk um
Ġk az
Ġk ee
Ġre ad
Ġar m
st al
st anding
Ġr ub
Ġr ice
Ġr fc
ad i
ad es
ad vis
Ġto uch
ter bury
im ana
and on
and ler
Ġst ak
Ġst ran
Ġe ye
Ġal an
Ġch o
Ġch ern
et o
et ti
Ġse x
Ġpla t
Ġle v
ug g
Ġro chester
Ġro sa
Ġro drig
art y
Ġ3 00
Ġpro st
Ġpro per
Ġ0 2
res pond
Ġte sti
Ġbe at
Ġbe ati
Ġne ther
oc ese
ue z
Ġpo or
Ġmar ket
Ġla bour
Ġsp in
ak ash
ey imana
ich eng
Ġjo in
Ġcol in
ick er
end enin
Ġcap ital
als e
ry stal
ab ase
vers e
ip al
Ġjan et
ach t
Ġ6 5
Ġ6 6
Ġ4 4
Ġmay assa
ik i
ong k
Ġunivers it
Ġhas san
op s
em y
Ġrec ent
Ġjul ian
Ġher bert
Ġ7 7
sid y
Ġcoun ties
Ġcoun tess
per o
Ġsch auman
ere e
Ġ8 7
Ġcan cer
Ġcan terbury
Ġpr ay
Ġ15 5
Ġ15 00
Ġfil ip
Ġz anotti
Ġjohn ny
Ġshe pp
Ġshe ila
amp ton
ade em
Ġprofession ally
Ġex hib
ubl in
Ġac ross
Ġcount ries
Ġge off
Ġbat talion
Ġmed als
co is
Ġ24 0
Ġ22 0
ung an
sp ir
Ġab ol
Ġab ram
Ġha ir
ne z
Ġel der
Ġhad field
Ġ190 7
Ġcoach ing
anc y
br id
Ġbest s
Ġgre atest
aw ks
200 6
200 7
Ġdire cted
Ġam bass
Ġcont ribut
Ġqu izon
Ġda ve
Ġann ie
Ġsw im
Ġfl ames
Ġwal ter
Ġwal ker
Ġvic tim
Ġsci entist
ces ter
Ġsy n
Ġsy ria
Ġrelig ious
Ġ186 5
Ġ186 8
Ġpri v
Ġpri zes
Ġmc ne
Ġ188 1
Ġscot t
Ġcor on
Ġsong s
Ġmor rison
Ġrank ed
Ġmart ins
Ġwom an
fo ot
Ġcre ative
ĠÃ Ĺ
Ġmill s
Ġent ry
Ġav a
Ġer ic
Ġhol y
Ġhol ly
Ġhol der
Ġdon nelly
Ġrela tives
Ġmur phy
ca a
Ġfollow ed
Ġmary land
Ġtotal goals
Ġtotal caps
iet a
ula ziz
Ġshar if
201 1
201 4
Ġopen ing
199 8
Ġlar ry
Ġmoham med
Ġtak e
Ġbor is
bro wn
Ġrap ids
car los
national ity
Ġkent ridge
Ġve enai
Ġsteph anie
Ġclass ical
Ġnt l
play ers
Ġball ard
Ġray mond
Ġstr ong
Ġindust rial
ye on
Ġpast or
Ġcommun ic
Ġenter ed
hu a
Ġ184 3
Ġfer gus
Ġgir l
Ġadminist r
Ġstock port
Ġmcg lory
Ġpa ik
Ġhog an
Ġraj asthan
Ġvis iting
Ġsher iff
Ġstatis tical
Ġhay den
Ġlat ter
Ġmik ec
Ġgil bert
Ġrand y
Ġrand all
Ġzim mer
Ġdesc ribed
Ġliter ature
Ġast ros
Ġalger ian
Ġalger ia
teen th
Ġwel sh
Ġdick erson
ograph ic
kh age
Ġmonth s
Ġkeybo ard
Ġmess ner
Ġdol cenera
Ġadvis ory
Ġbroad cast
Ġmalay sia
Ð¸ Ñ
Ġfut ure
Ġfron t
Ġcolon el
Ġzag reb
Ġcorpor ation
Ġlangu age
elec tion
Ġvide o
Ġvaler ie
Ġsaxoph onist
Ġsin icki
Ġniz eyimana
Ġarchite ct
tra ining
origin al
Ġdat abase
Ġnag y
Ġlok omo
Ġpho enix
Ġbanglad esh
how ever
Ġfur ther
Ġvlad im
Ġtrin idad
ĠmartÃŃ nez
Ġintellig ence
Ġnewspap er
eper nick
kal u
Ġbom bers
Ġrais ed
Ġcontroversi al
Ġauck land
Ġsusse x
Ġpears on
Ġfash ion
Ġbeati fied
Ġnether lands
icheng reen
Ġambass ador
Ġlokomo tiv
0 6
0 9
1 5
2 7
4 3
4 7
6 3
6 4
8 1
8 4
9 2
9 3
a il
b ham
c m
c io
d i
d in
d own
f il
f urt
f ollow
g ow
g gy
i ally
j ess
k is
k im
l if
l ang
l ovakia
n on
n ow
o on
p l
p ite
r n
r Ã©
s al
t Ã©
u y
v re
v ir
w itz
w hen
y r
z zi
Æ ¡
Ð ²
Ù Ĩ
å ®
Ġ ig
Ġ ian
Ġ um
Ġ áĢ
Ġa round
er mo
th m
th y
th ing
th man
an ied
Ġs ac
Ġs ucceeded
Ġs ardar
Ġs vetlana
ti a
ti an
ti re
Ġb c
Ġb h
Ġb es
Ġb ed
Ġb ap
Ġb enn
Ġb ati
Ġb olog
Ġb ates
Ġb olk
Ġb jp
ar us
Ġc ub
Ġc amp
Ġc ushing
Ġth ongk
Ġp f
Ġp ere
Ġp oss
Ġp earce
Ġf ielder
Ġf rick
Ġf act
Ġm am
Ġm iam
Ġm Ã¼
Ġw er
Ġw ri
Ġw ander
Ġw right
te ch
te ls
te mpla
Ġthe ater
Ġh i
Ġh um
Ġh ild
Ġh utch
re am
re ment
Ġd ur
Ġd ub
Ġd est
Ġd ahl
Ġd mowski
Ġn ich
Ġn ash
Ġn une
Ġn asa
Ġn caa
as gow
Ġin aug
la p
la y
la ter
ed om
ro d
ro te
Ġt ol
Ġt ul
Ġt ampa
Ġj ason
Ġj ockey
Ġg or
Ġg od
Ġg Ã³
Ġg ained
el la
el and
it t
it ation
ch in
ch est
ol ution
il ing
il let
Ġl y
Ġl ith
Ġl ion
Ġl isted
Ġl iving
Ġk ay
Ġk ut
Ġk os
Ġk uk
Ġk urt
Ġk insk
Ġk opp
Ġar res
Ġar mit
Ġar rest
st ad
st yle
Ġr w
Ġr av
Ġr ena
ad jian
ag ues
Ġto ge
Ġto day
si e
si an
im b
Ġst one
ul u
Ġy u
Ġy ong
Ġe qu
Ġe ichengreen
Ġal ord
Ġch Ã©ri
ac i
ac on
Ġun su
id u
id en
Ġv ari
ub les
ct ing
Ġle on
Ġle av
Ġle one
Ġwh om
up s
ug e
um ed
Ġro vers
os lovakia
Ġpro l
Ġpro bab
res h
ust ino
Ġbe ij
Ġmar gar
sh aw
Ġla ura
cc ess
Ġcon ran
Ġcom ing
ill s
Ġjo han
Ġjo ining
Ġjo anna
Ġjo sip
ov en
Ġsh ap
Ġsh av
Ġcol ts
ran king
Ġcap e
Ġcap it
ous ki
od ina
ab i
ip s
ach i
Ġ6 3
Ġ6 49
Ġ4 7
Ġmay a
uc ker
iv iane
und s
und ed
ward s
Ġen s
em e
ok es
Ġjun iors
ast y
ant in
Ġ7 3
ugh an
ass er
Ġind ie
Ġpar ma
io z
iz ation
ull o
Ġsch neider
Ġsch ulzer
Ġ8 3
Ġcan on
ession s
Ġmin er
Ġrep orter
Ġserv ant
Ġgen eva
Ġwor tley
Ġshe p
19 3
Ġwork places
Ġwe instein
Ġex ten
enn e
Ġper u
Ġper th
Ġworld wide
Ġbro ck
tu res
Ġac tion
Ġus e
Ġter ry
Ġter rit
Ġ189 1
Ġnor cross
Ġbar n
Ã¡ s
Ġste el
enc er
enc ia
Ġev idence
Ġev angel
mar sh
ater n
Ġwill ard
Ġsec tion
Ġab st
Ġir vine
Ġha as
Ġel lef
Ġso x
Ġsucc ession
Ġ190 6
Ġking ston
Ġdist ingu
my th
aul t
Ġbec ause
Ġbra khage
Ġgre w
200 1
Ġmis sion
Ġdo ha
ale x
Ġlast odi
Ġyo on
icket archive
ven ue
Ġdavid son
ib le
Ġsw ane
ender son
Ġwal wyn
Ġdis s
Ġsci ences
Ġres er
Ġres igned
Ġreti rement
Ġdirector s
Ġ186 4
de f
Ġpri x
ior result
Ġje w
Ġ187 6
Ġ187 9
Ġout side
Ġbu ijs
Ġcas sidy
Ġhel p
Ġcor respond
Ġwest on
Ġcons ult
Ġdep or
Ġtitle d
Ġmor ton
yn d
Ġrank s
po el
po ints
Ġmedal templa
Ġfield ing
Ġnfl new
Ġeduc ated
Ġdemoc rat
vil la
ĠÃ ī
Ġbre ton
Ġes kim
Ġli br
Ġrepresent s
har ris
Ġtra iner
Ġfar az
Ġrela y
ÃŃ n
Ġinc umb
Ġgrand master
Ġ181 2
Ġ181 4
Ġ181 7
alth ough
ais i
Ġgl enn
Ġgl asgow
Ġben jamin
Ġmov ies
Ġoper ation
Ġuk raine
Ġinflu enced
Ġpan tiÄĩ
Ġlar ge
Ġaff ili
Ġtak aoka
Ġak ana
Ġcatholic ism
Ġmac c
Ġfig ures
Ġbur ial
Ġol der
Ġiss ues
play ing
Ġalong side
wa it
Ġlight weight
Ġke ating
Ġchrist opher
Ġprinc ipal
Ġrh odes
Ġstan isÅĤaw
Ġprogram s
don ald
Ġcorn er
Ġform ula
Ġtrans la
Ġtrans fer
Ġselec tion
Ġwrit ten
Ġhand icap
Ġkr as
Ġcontribu ted
Ġachie ved
Ġczech oslovakia
Ġtig ers
Ġhay ward
Ġloss es
Ġmeck lenburg
Ġmun ey
Ġway ne
Ġku wait
Ġperforman ces
Ġhow e
Ġcontin ued
Ġfeat uring
Ġmu eller
Ġtack les
Ġever y
Ġdif fer
Ġmathema tician
inz endorf
Ġwat son
Ġbon ey
Ġlig a
Ġsele zny
Ġkeybo ards
Ġpersonal ity
Ġern ie
onst antin
Ġgal at
Ġchart s
Ġvac ant
Ġcommon ly
institu tions
Ġsou za
Ġthor in
Ġmend ieta
Ġmold ova
Ġresp on
Ġemplo yer
Ġfant asy
Ġwhe ater
Ġemer itus
Ġphill ies
Ġtradition al
Ġlam b
Ġkess ler
Ġva ughan
Ġvinc ent
ument ary
Ġnev ada
Ġmee han
cr icketarchive
cor an
Ġnord ahl
Ġrepla ced
Ġalder man
ĠÃĸ z
Ġaccomp anied
dan iel
Ġhab sburg
uru villa
Ġarag Ã³n
Ġrene e
Ġegy pt
Ġtemp le
Ġmaur ice
jun iorresult
Ġsap ru
Ġsick le
Ġbid dle
Ġrim ouski
Ġrud man
Ġrif le
Ġindo or
advis or
Ġshepp ard
Ġfergus on
Ġadministr ator
Ġzimmer man
fil ms
follow ing
Ġbolog na
Ġbolk iah
Ġmiam i
Ġnich ol
Ġkut aisi
Ġkinsk y
Ġarres ted
Ġarmit age
Ġtoge ther
Ġalord iah
Ġunsu ccess
Ġbeij ing
Ġmargar et
Ġellef son
Ġdistingu ished
Ġswane poel
Ġmedaltempla tes
Ġeskim os
Ġincumb ent
Ġselezny ova
Ġunsuccess ful
1 4
4 6
7 9
8 2
9 0
9 6
a a
a ur
a ut
a uthor
b ul
b urn
b rew
c am
c os
d d
d es
f re
f iction
g or
g al
g il
g ie
g ium
g kin
g eshire
h p
h ary
h ist
h ach
i tions
j ack
j av
k es
k el
k ri
k ey
l is
l oc
l uc
l ik
n ig
n id
n amed
o a
o h
o le
o id
o urs
p unk
r or
r nik
s er
s am
s ang
u h
u ins
v ar
v ell
w as
w ine
y uk
z he
z Ã¡
z ullo
Ä Ł
Ð µ
Ð º
Ð »
Ù Ħ
Ġ |
Ġ ×
Ġ ich
Ġa z
Ġa er
Ġa ud
Ġa venue
er o
er ick
er ang
in ter
in son
in ko
an th
an at
an ian
Ġs f
Ġs s
Ġs z
Ġs ay
Ġs op
Ġs ant
Ġs ier
Ġs ale
Ġs olic
Ġs oph
Ġs sr
Ġs fr
or a
or der
ti z
Ġ1 000
Ġb os
Ġb ry
Ġb ab
Ġb ah
Ġb itney
ar n
Ġc el
Ġc ell
Ġc ba
Ġth r
Ġth ug
Ġp ent
Ġp se
Ġp yle
Ġp fr
Ġf an
Ġf un
al ing
al ay
al ova
le te
le ct
le man
Ġm v
Ġm ust
Ġm urr
Ġw o
Ġw ang
Ġw ide
Ġw ind
Ġw rest
Ġw agh
Ġw rote
Ġw chin
is i
is p
is el
is sb
Ġo tt
Ġo pp
Ġh an
Ġh at
Ġh ul
Ġh ud
Ġh ick
Ġh ors
Ġh enderson
re ll
Ġd ig
Ġd im
Ġd und
Ġd uch
Ġd owell
Ġn l
Ġn am
Ġn un
Ġn adeem
Ġin tro
Ġin form
Ġan ch
es te
es tic
ic as
ic es
ed ral
ro l
Ġt ac
Ġt ai
Ġt ony
Ġt bil
Ġand y
Ġj ock
Ġj ablonski
un ch
un ki
Ġg ey
Ġg ang
Ġg round
Ġg arden
el ve
ch ard
ch rist
il ar
ur g
ur ie
ent o
at ory
Ġl oc
Ġl ock
Ġl yn
Ġl ived
Ġl antz
Ġl otte
he ather
Ġde ter
Ġde cl
Ġde carlos
Ġk re
Ġk el
Ġk at
Ġk all
Ġk ap
Ġk ary
Ġk ash
Ġk eral
Ġk uruvilla
st or
tic a
Ġr ash
Ġr ib
Ġr iff
Ġr ico
Ġr hy
Ġfor d
ag er
om er
om ed
Ġst and
Ġst aheli
Ġy ous
pla in
Ġe int
Ġal ford
Ġal bers
Ġch a
Ġch ance
Ġch ase
Ġch andler
ian pur
Ġun s
orn e
all en
id ent
Ġhe ather
Ġhe brew
ia th
ia tives
Ġv ill
Ġv ene
Ġv ision
Ġv illa
Ġv iew
Ġv iviane
Ġle f
Ġwh a
Ġwh at
ist ance
ra cht
Ġro thman
Ġuni ver
Ġfo ix
Ġco v
Ġco ver
Ġco oke
Ġpro m
Ġte tt
Ġbe a
Ġbe ier
oc iatives
Ġpo pe
Ġpo zzi
Ġmar qu
Ġmar tel
ie ce
sh op
man us
Ġla b
Ġla val
Ġla tin
ou k
ess ee
Ġcon go
Ġcon spir
ak a
Ġcom ics
ill ian
ish a
Ġnew ton
Ġjo y
Ġjo Ã£o
ov alova
Ġsh ot
Ġcol lab
Ġcol omb
end el
ran i
Ġamer icas
Ġme mp
Ġme thod
od ar
ab d
Ġjan n
Ġjan ata
Ġser ve
Ġser ra
Ġ4 00
Ġbo oth
Ġbo umann
Ġ5 9
Ġor io
Ġor chest
ik h
iel sen
Ġcar ey
ec ker
ec tively
ze h
Ġen co
Ġrec over
Ġpol l
ok hl
ant om
Ġ7 5
Ġ7 8
Ġpar sons
Ġkn ow
sid is
ther ston
per forming
Ġed is
Ġed gar
Ġed mond
ment al
Ġbr ig
Ġbr une
Ġsch oeller
Ġ8 9
Ġmus lim
Ġph antom
Ġpr at
Ġfin ance
Ġ12 5
ma il
qu ent
Ġ9 4
Ġz h
Ġz ar
Ġz inzendorf
Ġjohn s
19 5
bo umann
Ġad olf
Ġapp ro
Ġex eter
Ġper hap
Ġaf l
Ġbro ught
tu red
Ġheight weight
Ġtw ins
Ġtw elve
ann o
ann ed
Ġ11 3
Ġus sr
Ġus open
Ġnor we
Ġbar tels
Ã¡ cio
Ġste wart
Ġev en
Ġev ren
we alth
Ġchar an
Ġinclud es
Ġlo th
Ġpresent er
ham mad
ham idi
Ġcr one
Ġel iot
ship s
Ġpe ak
Ġcl endenin
Ġpresid ential
Ġbra bham
ll ar
ll us
Ġassoci ate
que z
Ġdes pite
Ġdes hp
Ġproduc ing
Ġproduc tions
vel t
Ġappear ing
Ġdo uglas
Ġqu Ã©
vern yuk
Ġda e
Ġalb anian
Ġreg ent
ron aut
Ġsw iss
Ġvic ente
Ġsci enti
ha ugh
Ġho urs
Ġres ign
Ġsy l
ram ento
ves ter
Ġ187 7
aly a
aly st
Ġmajor ity
Ġbu il
Ġpat ri
Ġstud ios
Ġ188 3
Ġcas tle
Ġcor bin
Ġcor coran
Ġfre edom
Ġdem onst
Ġweb b
Ġcons ist
Ġsa id
Ġsal t
Ġsal am
Ġfe ature
Ġfe therston
Ġque ens
sch is
Ġsim ilar
Ġden is
Ġlong est
Ġperfor mer
Ġx avier
Ġcam brid
Ġeduc ator
no on
Ġsam ba
Ġbel ie
Ġbel gium
Ġjackson ville
tain ed
vil i
Ġtor ped
Ġport ray
Ġbla ke
ester velt
Ġem i
Ġcy r
Ġmat te
Ġhol land
hi ro
Ġthir ty
Ġkar in
Ġroman ia
Ġep ic
Ġsl ovak
Ġsl oven
Ġsur ge
enz ong
Ġtom my
ca use
Ġ181 3
Ġ181 6
Ġprog ressive
ula tion
Ġcath edral
Ġshar ed
Ġgl en
udd enham
instrument s
Ġod adjian
Ġjos hua
Ġmad ison
Ġsub cat
Ġinstrument al
Ġciv ic
Ġham ad
Ġham mond
Ġnick named
Ġ185 8
Ġassist s
su it
Ġak ron
Ġbass ist
Ġpl an
Ġpl ant
Ġpal est
Ġka epernick
Ġrap hael
national years
national caps
Ġdun lap
Ġta ught
Ġalf onso
Ġclass ic
Ġconnec tion
Ġadam s
Ġfight s
Ġdrum mer
Ġturn t
Ġgra ham
Ġkh okhl
Ġbron cos
Ġrichard son
Ġrem ain
Ġmiddle ton
Ġrh ine
Ġrh ode
Ġabd ulaziz
Ġsister s
Ġcorn illet
Ġcard inal
Ġram s
Ġexper i
Ġhonor ary
Ġphilipp ine
Ġsat y
Ġmath e
Ġdi ocese
Ġtal ent
star s
Ġra unki
Ġsport ing
Ġcomple te
Ġcomple ted
Ġbulgar ian
Äį i
Ġvik ings
Ġserb ia
Ġrecogn ition
Ġfrances a
Ġ179 8
Ġzim bab
Ġjacob s
Ġdor is
chen ko
Ġlincoln shire
Ġcrim es
Ġswed ish
Ġur ugu
Ġhod gkin
Ġnig el
Ġlim erick
Ġren Ã©
Ġundrafted year
Ġimp act
Ġepis ode
Ġepis cop
Ġful ton
Ġful op
Ġmi yagi
Ġoak land
Ġagric ulture
Ġphysic ist
Ġcat anz
Ġhy de
Ġpromo tion
Ġconst ruction
Ġcommon wealth
Ġmurder s
jos Ã©
Ġsou ter
Ġbern ard
Ġcf b
Ġcf ldrafted
Ġporn ographic
Ġdyn amo
Ġdyn asty
Ġcham ber
ampa ign
Ġemplo y
Ġsor ok
Ġinf antry
Ġsem i
Ġmemor ial
Ġsculp tor
Ġbush man
Ġpublish ing
Ġparticular ly
Ġblo od
Ġtas man
Ġjane iro
Ġdiscover ed
Ġnikola i
Ġcs ka
Ġcass ina
Ġpap al
Ġmix ed
Ġappe als
Ġstats end
Ġnottingham shire
Ġparalymp ic
pri or
Ã¦ r
Ġcad man
Ġcast ro
Ġcult ural
Ġwit ness
Ġgi ovanna
Ġrid ing
abr ata
Ġblond ie
Ġsubse quently
Ġniger ia
Ġprosec utor
bet ween
Ġsaf ety
Ġhun ter
Ġhus band
Ġhann achi
Ġdoc umentary
Ġtang erang
Ġtenn essee
Ġcoo ley
Ġcous in
Ġhern Ã¡ndez
Ġgymn ast
oum and
Ġsel van
Ġjenn er
Ġkon ovalova
Ġkaz akh
Ġplat form
Ġtesti fied
akash vili
Ġuniversit Ã©
Ġfilip ino
Ġsyn th
foot ball
Ġholly wood
original team
Ġdatabase football
Ġsac ramento
Ġbenn ett
Ġwander ers
Ġnune z
ĠgÃ³ rnik
Ġlion el
Ġkos ovo
Ġkuk Ã«
aci ari
Ġvari ety
Ġprol ific
Ġabst ract
Ġgalat to
zhe mal
Ġsier ra
Ġsolic itor
Ġthug utt
Ġpent ath
Ġpse ud
Ġmurr ay
Ġwagh orn
Ġwchin itz
issb ecker
Ġott awa
Ġanch or
Ġtbil isi
Ġkall ianpur
Ġkary lle
Ġkeral a
Ġriff el
Ġrhy thm
Ġeint racht
Ġtett au
Ġconspir acy
Ġmemp his
Ġorio les
Ġedmond s
Ġbrune i
Ġnorwe gian
Ġdeshp ande
Ġfetherston haugh
Ġcambrid geshire
Ġtorped o
Ġkhokhl ova
Ġraunki Ã¦r
Ġzimbab we
Ġurugu ay
Ġcatanz aro
0 5
0 8
3 8
4 1
4 2
6 6
6 9
7 1
@ @
b u
b un
c ing
c ent
c ess
c tions
c za
d f
d or
d uc
d ine
d og
e ct
e ks
f ern
g ory
g han
g ift
h ic
h at
h orn
h od
h wa
h assan
i que
j im
j uan
k k
k elly
l ja
l isted
l una
m c
m ate
m us
m at
m ian
m ud
m acht
n ar
n la
n ot
n ie
n ers
n aciari
p on
p ic
p at
p et
q la
q me
r l
r ice
r Ã¢
r cb
s ar
s ing
t ation
u als
u able
v na
w o
w id
w rit
w right
y am
z al
z el
z qu
z han
Å Ļ
È Ļ
Ñ Ĥ
Õ ¡
Ø §
Ù ħ
Ġ Ä
Ġ rb
Ġ ted
Ġa ka
er ated
er gy
th al
th ani
th ias
in ck
in tire
on ic
an or
an ge
an Ã©
Ġs ud
Ġs ack
Ġs ade
Ġs myth
or i
or tion
or ced
or ough
ti tion
ti tt
Ġb it
Ġb ent
Ġb ug
Ġb ou
Ġb ord
Ġb io
Ġb ash
Ġc n
Ġc ot
Ġc ow
Ġc ly
Ġc art
Ġc amil
Ġc oss
Ġc ampaign
en o
en er
en os
Ġth ings
Ġth rew
Ġp ed
Ġp ard
Ġp Ã©
Ġp ied
Ġp eng
Ġf la
Ġf at
Ġf ill
al am
al at
al ty
al berto
al iza
al chik
al aksh
le z
Ġm la
Ġm and
Ġm ash
Ġm ats
Ġm anda
Ġm ental
Ġw y
Ġw atch
Ġw ww
Ġw ings
Ġw elf
Ġw sop
Ġw imb
Ġw estervelt
te c
te iro
is er
is ed
Ġo z
Ġo ls
Ġo be
Ġh ous
Ġh ier
Ġh ib
re f
re me
re ys
Ġd ag
Ġd res
Ġd edic
Ġd ublin
Ġd ungan
Ġd zhemal
Ġn s
Ġn ard
Ġn one
Ġn ike
Ġn ico
Ġn athan
Ġn alchik
as z
am an
am mal
Ġan alyst
ic t
ic ester
ic luna
ed d
ed ra
ed ones
ed itary
ro ber
ro yo
Ġt ap
Ġt art
Ġt av
Ġt ry
Ġt Äĥ
ing en
Ġand re
Ġand ino
Ġj ag
Ġj aro
Ġg ab
Ġg endall
Ġg jess
el led
us a
us ha
ch ise
ol ker
il s
il son
ur aj
ent ures
at us
at ter
Ġl us
Ġl ov
Ġl og
Ġl Ã³
Ġl ower
Ġl ilian
Ġde hn
Ġde xter
ig a
ig rated
Ġk i
Ġk or
Ġk ad
Ġk ow
Ġk ick
Ġk bo
Ġk ais
Ġk wan
Ġk lim
Ġk avan
Ġk rystal
Ġk onstantin
Ġk olker
Ġre so
Ġre yn
ation ally
Ġar a
Ġar ran
Ġar tis
Ġar tie
Ġar royo
st ud
st own
Ġr af
Ġr ally
Ġr nla
Ġfor ced
Ġfor naciari
ad ze
ag ing
ag lia
si m
si vely
ter field
ter weight
om m
om es
Ġis a
Ġis tan
and ar
and re
tle worth
Ġst or
Ġst ay
Ġst ren
Ġst ash
Ġst lb
ul am
ul ik
Ġy am
Ġe t
Ġe ch
title s
Ġal c
Ġal ice
Ġal berto
Ġal var
Ġch ang
Ġch inn
Ġch ester
Ġch ely
ve tiÄĩ
ac cord
Ġas ked
ver t
Ġun o
Ġun ex
id us
Ġhe er
Ġhe at
Ġhe idel
Ġv id
Ġv ital
Ġv ps
ay ama
et tes
ut s
ut tleworth
ub ara
ow der
Ġse en
Ġse ate
Ġse mp
Ġse min
ct ly
Ġle ct
Ġle ast
Ġle eds
Ġle agues
Ġle icester
ist on
ist an
ri k
ri ac
ug al
um e
um i
um m
os h
os ted
art s
art on
Ġfo od
Ġco p
Ġco ughlin
Ġco urse
Ġpro te
Ġte ss
ge ous
ust y
Ġim per
Ġne p
Ġmar co
Ġmar low
ie z
sh ot
Ġla h
Ġsp ir
Ġsp okes
Ġsp encer
Ġcon test
Ġcom ment
est o
ill ermo
if ford
Ġnew port
Ġjo b
ov ed
ov Ã¡
Ġsh ao
Ġcol l
Ġcol om
av ian
Ġme g
Ġme ier
Ġme ena
ab insk
eb vre
vers y
ip eg
Ġbo er
Ġbo yce
ire lja
uc as
uc ks
Ġ5 8
ton zo
Ġor eg
Ġor zel
und a
ell i
Ġsc ar
Ġsc icluna
Ġcar e
Ġcar ter
ze j
Ġno ble
Ġen vir
Ġmo hi
Ġmo unce
les te
Ġrec ru
own ed
Ġocc as
Ġjul ius
Ġoccup ied
ff man
ff any
Ġman s
Ġman if
Ġman zullo
Ġher mann
Ġher editary
Ã© r
Ã© llar
Ġ7 2
Ġ7 9
Ġu qla
Ġcurrent position
ass in
ass nig
Ġpar ent
Ġfir m
Ġkn e
ther e
ther land
Ġed ition
Ġed uard
Ġdecember ists
ond a
Ġbr and
Ġbr istol
Ġbr ighton
Ġbr icker
ull s
Ġpr us
Ġ10 1
Ġ10 3
Ġmin as
Ġmin ne
Ġ9 3
Ġ9 7
Ġrep ort
Ġsu Ã¡
Ġgen e
Ġgen oc
ash a
Ġz ia
Ġz ah
Ġz one
Ġz Ã¼
Ġz hu
she ikha
Ġshe ikha
bo ard
bo ok
Ġad rian
Ġad albert
Ġad ela
Ġfran chise
Ġdra wn
Ġ16 04
Ġwe alth
Ġwe hr
Ġwe issbecker
Ġwe eks
Ġfilm m
Ġex cell
Ġper man
Ġaf ghan
Ġaf zal
Ġbro ss
Ġac qu
old s
Ġbas aglia
ann one
ann ette
Ġbar ioz
az ar
Ġwar wick
Ġgu est
Ġmed alist
Ġger ais
Ġste ing
Ġste hl
enc ing
Ġev ol
bur ton
co e
Ġchar ge
Ġstat season
ati h
ati ya
lo e
Ġback ing
af a
Ġgr am
Ġab ility
Ġir ving
Ġhar ari
Ġso chi
Ġear li
Ġsan j
Ġpe ace
Ġpe ters
Ġpe ggy
Ġbl ock
Ġbl itz
Ġweight lif
Ġmon te
Ġmon mouth
Ġchampion s
pe z
pe ter
inn y
cap e
Ġgre ater
Ġmich urin
Ġam in
Ġam Ã©
ather ine
Ġreg ion
Ġatt kis
lig a
mo st
ind a
ger y
ha us
Ġreti ring
ev o
Ġsy mb
ult y
Ġwell ington
Ġ186 0
Ġ186 1
Ġ186 2
Ġpri eto
Ġleg end
Ã¼ hr
Ġother name
Ġlouis ville
Ġbu enos
Ġ188 2
Ġ188 4
Ġ188 8
Ġevent ually
min ster
Ġhel sin
Ġmet ro
Ġsk ater
Ġsk vernyuk
Ġsal man
Ġsal Ã©
Ġsal hab
Ġsup por
Ġyoung er
rap p
han ammal
Ġfound ation
Ġmor i
itz ner
Ġfield s
Ġx ii
Ġinter im
Ġinter ior
Ġprim ary
no zhan
Ġbel ong
Ġlu iz
Ġcre ate
Ġcre ator
Ġgold sb
Ġjackson s
Ġbre eland
Ġes tim
Ġport land
Ġport ugal
Ġli u
Ġarch ae
Ġfrank ie
Ġfrank furt
Ġdesign ed
Ġav n
Ġav iv
Ġmusician s
Ġhon ours
Ġfar m
Ġfar mer
Ġkar a
Ġtech no
Ġmag omed
Ġsur vey
Ġsur gery
Ġdiv orced
Ġtown s
Ġdr ink
Ġdr ucker
Ġele ven
Ġmak usha
ho teiro
Ġdom ina
Ġtre as
Ġsix th
Ġten ure
Ġ180 4
Ġleader ship
Ġmov ie
Ġod i
Ġjos h
Ġmad oun
Ġwood worth
Ġjer ko
bor hood
Ġce le
Ġpan el
Ġmer li
Ġwes ley
Ġarg u
Ġarg ona
201 0
Ġopen ed
Ġham bridge
Ġham zeh
Ġvo tes
199 2
199 4
199 7
199 9
Ġlar rousse
Ġrac er
Ġ185 3
Ġ185 4
ga ard
Ġtak en
Ġtak ing
Ġ183 2
Ġ183 6
Ġak bar
Ġbor oumand
Ġnb l
Ġdev on
Ġtrad ing
bro ss
Ġjac ques
Ġmont ene
Ġmont anÃ©
national points
rich t
Ġalf ons
ru ctor
Ġve ter
Ġve gas
Ġbur lington
Ġrober to
Ġcong ression
Ġsteph ens
wer dine
Ġline up
uz i
Ġdu o
Ġnat alya
Ġob ree
Ġkh alif
Ġbob by
Ġke ith
Ġphot o
Ġminor ity
Ġche f
Ġpres tig
Ġdisc ip
Ġfa ith
Ġfa ustino
Ġfer din
Ġdri ft
Ġdec orated
Ġdaniel s
Ġsat terfield
Ġethn iki
Ġpa olo
Ġandr ade
Ġra id
Ġcomple x
Ġspecial iz
Äį ar
tig lio
Ġbi ology
Ġbig gest
Ġjord y
Ġtig ht
Ġiran ian
cus sion
Ġpen ev
Ġinn oc
Ġcycl ing
Ġargent ine
Ġbach ar
Ġmik el
Ġgil les
Ġku qi
Ġash ok
Ġzim bru
Ġcommission er
Ġtrack s
person nel
Ġmach o
Ġhow ard
Ġcrim inal
Ã§ a
Ġjak ovich
Ġgreg ory
Ġsimp ly
Ġjon athan
Ġhaw ai
Ġmathema tics
Ġfern ando
Ġwel terweight
Ġweek end
Ġcontro versy
Ġlasttest date
Ġlasttest year
Ġtestdebut date
Ġtestdebut year
Ġbad an
Ġoak s
Ġlig ue
Ġkw itney
Ġagric ola
Ġmax im
Ã´ nid
Ġbull s
Ġflo inn
Ġnar ain
institu tion
Ġhur iez
Ġheavy weight
Ġlet ters
Ġbeau ties
Ã¼r gen
Ã¶n ig
Ġlangu ages
Ġglobal port
Ġsquad ron
Ġai res
Ġaik en
Ġfel ic
Ġfac ulty
Ġconf ir
Ġsculp ture
Ġira q
Ġpitch ed
bat ting
Ġid enti
Ġahl in
Ġmlad ost
Ġref eree
Ġdiscover y
Ġbuild ing
ean u
Ã¯ d
Ġinst ructor
Ġlip schis
Ġeug ene
Ġneigh bors
Ġneigh borhood
Ġhistor ian
vo ÅĻ
Ġia in
Ġbhar atiya
Ġpun j
Ġwinn ipeg
Ġnai rob
Ġgree k
Ġarn old
Ġprison er
Ġbrief ly
Ġacclaim ed
jer aye
Ġsab res
Ġanton ia
Ġjam ie
Ġkame isha
Ġmarri ott
Ġcomed ian
Ã¡z quez
Ġdisp ute
Ġinvest or
bak oto
kat alaksh
Ġcu Ã©llar
ĠcÃ´ tÃ©
Ġpage ant
Ġfavor ite
Ġgon zÃ¡
oli ÅĦ
Ġstak es
Ġproper ty
Ġspin elli
Ġhassan al
Ġbests eller
Ġswim ming
Ġvictim s
cester shire
Ġmcne al
Ġbap tist
Ġcub s
Ġpf itzner
Ġpere ira
Ġmam noon
Ġwer ner
Ġwri te
Ġinaug ural
Ġtul ane
Ġrav ens
Ġprobab ly
Ġcapit ol
Ġshep ard
Ġevangel ical
Ġdiss ociatives
Ġconsult ant
Ġolder shaw
Ġcorner back
kri eg
isp atih
Ġdig ital
Ġdund ee
Ġkat sidis
Ġrash ani
Ġcha os
Ġvill ar
Ġvene tiglio
Ġorchest ra
Ġprat ap
Ġperhap s
Ġscienti fic
Ġsyl vester
Ġbuil t
Ġpatri ots
Ġmathe us
zqu ita
Ġbug adze
Ġcot ton
ĠpÃ© rez
Ġpied mont
Ġwelf are
Ġwimb led
Ġhier l
Ġhib bert
Ġdag est
Ġnard ini
rober ts
Ġtart u
ĠtÄĥ rÃ¢
Ġjaro sik
Ġgjess ing
ĠlÃ³ pez
Ġkow al
Ġklim enko
Ġreso ur
Ġreyn olds
Ġarran ger
Ġistan bul
Ġstren g
Ġstash wick
Ġalvar ado
Ġchely abinsk
accord ing
Ġsemp oliÅĦ
Ġtess a
Ġimper ial
Ġoreg on
Ġenvir on
Ġminne apolis
ĠsuÃ¡ rez
ĠzÃ¼ rich
Ġadela ide
Ġwehr macht
Ġwarwick shire
Ġearli est
Ġmonmouth shire
Ġattkis son
Ã¼hr er
Ġhelsin ki
Ġgoldsb orough
Ġmadoun i
Ġargona uts
Ġcongression al
Ġkhalif a
Ġprestig ious
Ġferdin and
Ã´nid as
voÅĻ Ã¡k
Ġnairob i
ĠgonzÃ¡ lez
0 2
3 1
5 0
9 4
9 7
b as
b ed
b ra
b ell
b ull
b one
c ity
c urrent
c aw
c Ä±
d b
d j
d em
d uk
d etti
d wid
e i
e ast
e fe
f d
f ay
f ade
f isk
f Ã¼hrer
g ing
g ve
g io
g ai
g ger
g Ã¼
g hi
g gen
h as
h im
h iv
h ung
h wan
h ussein
h alf
h awks
i ary
i res
i ques
j k
j pe
j ose
j Ã¶
j ablonski
k v
k Ã¡
k sti
l sh
l ou
l ong
l ker
l ived
m g
m ay
m os
m ith
m ov
m ates
n ies
n cl
n ai
o ted
o tia
p in
p ol
p art
p ey
p op
p ass
p ah
p ris
p owder
r in
r ath
r ge
r ue
r Ã³
r Ã¶
s um
t om
t ors
t Ã³
v i
v id
v Ã¡
w al
w ers
w ak
w ich
w ang
w ford
y at
y oul
z as
z ig
z ka
z hou
Ã ²
Å «
Å ¾
Ê »
Ñ Ģ
× ¨
Ù Ĭ
à ¥
æ ĸ
æ Ŀ
Ġ +
Ġ @
Ġ ì
Ġ ord
Ġ iz
Ġ vern
Ġ esse
Ġ à¤
ģ ÄĻ
ĩ Ä±
ľ mit
Ġa me
Ġa my
Ġa less
Ġa ux
Ġa qme
er i
er ing
th a
th ese
th uiz
in en
in ers
in ari
on en
on is
on ia
on se
on ius
an an
an ova
an lan
Ġs und
Ġs ung
Ġs ind
Ġs ite
Ġs nap
or um
or ets
ti ar
ti ful
Ġb t
Ġb ac
Ġb ard
Ġb art
Ġb ion
Ġb ak
Ġb ell
Ġb ond
Ġb led
Ġb au
Ġb iff
Ġb omb
Ġb aksh
ar h
ar ticle
ar ri
Ġc b
Ġc d
Ġc es
Ġc it
Ġc im
Ġc lo
en ame
en ov
en lan
Ġth er
Ġth ai
Ġth under
Ġth umb
Ġp as
Ġp el
Ġp ack
Ġp end
Ġp ure
Ġp air
Ġp ng
Ġp elle
Ġp orter
Ġf t
Ġf u
Ġf ro
Ġf resh
al ity
al Ã©
le m
le x
le igh
le ader
le uli
Ġm b
Ġm orn
Ġm ap
Ġm ull
Ġm ater
Ġm ys
Ġm ite
Ġm ald
Ġm itch
Ġm gang
Ġw u
Ġw ol
Ġw all
Ġw ages
Ġw aff
Ġw ncl
te g
te es
te ous
Ġthe od
Ġthe uer
Ġo ur
Ġo st
Ġo tis
Ġo ulu
Ġh ir
Ġh ug
Ġh ov
Ġh urr
Ġh ort
Ġh oll
Ġh oss
Ġh Ã¶
Ġh won
Ġh ighton
Ġh rn
Ġh osted
Ġh vid
re u
re v
re cht
Ġd w
Ġd orn
Ġd ak
Ġd ial
Ġd oll
Ġd na
Ġd uty
Ġd enny
Ġd hanammal
Ġn and
Ġn ap
Ġn ames
Ġn ied
Ġn akh
Ġn olan
Ġn ielsen
as tic
as ter
as ia
as ima
am ar
am ble
am ura
am sa
Ġan i
es cu
es pn
la ots
ic ial
ro y
ro se
ro bert
Ġt in
Ġt ren
Ġt ina
Ġt avor
Ġt uddenham
ing chen
Ġand rey
Ġj a
Ġj at
Ġj ae
Ġj Ã¼rgen
Ġg us
Ġg ol
Ġg ag
Ġg ot
Ġg ia
Ġg ys
Ġg ale
Ġg Ã¢
Ġg ains
el ius
us tee
it an
it als
ch ap
ch ant
ol cs
il ure
il ty
ur ist
ur ry
ur ci
ent or
ent ry
Ġl g
Ġl en
Ġl al
Ġl il
Ġl ia
Ġl ump
Ġl omb
Ġl assnig
he org
Ġde an
Ġde ck
Ġde mo
ig g
Ġk m
Ġk y
Ġk in
Ġk ov
Ġk ah
Ġk ann
Ġk Ã¼
Ġk yle
Ġk ato
Ġk umon
Ġk ush
Ġk ulik
Ġk unda
Ġk Ã¶nig
Ġre place
Ġre ich
Ġre for
Ġre member
Ġre iche
Ġar sen
st r
st op
st row
Ġr ing
Ġr iv
Ġr ah
Ġr atch
Ġr uth
Ġwas an
Ġfor est
Ġfor ec
Ġfor ens
ad r
ad y
ad as
ad ium
Ġto dd
ter ed
om orets
im e
im s
Ġis ay
and rew
Ġst y
Ġst on
Ġst ing
Ġst ra
Ġst anding
Ġst rock
Ġst adium
Ġy ann
Ġy arm
Ġy asser
Ġe y
Ġe to
Ġe gar
Ġe wing
Ġe idus
Ġal ash
Ġal ways
Ġal most
Ġch id
Ġch enn
Ġch ile
Ġch mel
Ġch allen
ve z
ac ional
Ġas her
ver y
Ġarticle s
ot b
Ġhe ir
Ġhe werdine
ap est
igh teous
Ġv iel
Ġv ind
Ġv iet
Ġv inny
Ġv Ã¡zquez
ay o
et ton
et nik
Ġle en
Ġle ge
Ġle ster
Ġle andro
Ġle Ã´nidas
ath ard
ath aling
Ġwh ar
Ġwh eler
Ġwh arton
ist ence
ri ers
ri elle
ard e
Ġ18 20
Ġplay wright
Ġnational ist
os ed
Ġfo ught
Ġco leman
Ġ0 000
res ti
Ġte m
Ġte en
Ġte hran
Ġte ksti
Ġbe y
Ġbe athard
Ġim an
Ġim ran
Ġne uf
oc cup
ue ger
ue jeraye
der ick
Ġpo le
Ġpo ul
Ġpo und
Ġpo em
Ġmar ine
ie j
sh el
sh ish
sh av
sh uttleworth
man ager
Ġla urie
ou x
Ġsp ar
Ġsp ace
ud es
ud ine
ball os
Ġcon or
ion ov
ion ios
ak in
ak ers
ak cÄ±
Ġcom br
ey e
ill ic
ish na
Ġnew ark
ov an
ov re
ov aj
Ġsh ik
Ġsh iz
Ġsh ib
ick ly
end s
ran e
Ġap art
Ġap oll
Ġap ost
av edra
Ġme hran
Ġme eting
ab ly
ab les
ab olcs
ip ers
ip worth
Ġjan a
Ġjan ash
so e
ach ev
Ġ6 7
Ġbo o
Ġbo og
iv Ã¢
ton g
Ġor ator
ik yan
Ġsc and
Ġsc otia
Ġsc urry
Ġcar mel
ec o
Ġpre fe
Ġpre cious
Ġno el
Ġno har
Ġno thing
Ġen com
Ġen ergy
Ġmo on
Ġmo or
Ġmo en
Ġmo ore
Ġmo ley
op er
op es
Ġgo hou
og rad
Ġpol y
ast asi
ast richt
ff ie
Ġman date
Ġman ier
Ġman ning
Ġman uf
hn e
ugh ter
Ġu we
Ġu rban
Ġu resti
Ġpart ners
Ġcurrent number
Ġpar ish
Ġpar tiz
Ġeng le
Ġeng aged
ang alam
ang ionov
Ġkn ud
Ġti t
Ġti ffany
Ġti rath
per or
Ġed m
iz ka
Ġbr uins
Ġbr umm
Ġsch wart
Ġsch arn
Ġ8 1
Ġ8 2
Ġ8 5
Ġ8 8
Ġ8 00
Ġcan ucks
Ġpr ague
Ġpr itch
se f
cl us
Ġcolle gi
Ġcolle ctions
Ġ10 6
Ġfin als
urn oy
Ġcomp eting
Ġcomp iling
Ġ12 0
for ce
Ġ17 0
Ġmin ing
Ġmin eral
Ġass elin
Ġ9 1
Ġ9 8
Ġ9 9
me th
Ġsu therland
Ġi hl
Ġz en
Ġz ap
Ġz hi
Ġz ita
Ġz iad
Ġz angionov
Ġshe ikh
19 45
bo ys
Ġad ap
Ġad ult
Ġad nan
Ġfran z
the ir
Ġfull back
Ġformer coach
Ġformer part
ade th
Ġapp ony
Ġex istence
Ġper fe
Ġper cussion
ann ing
Ġ11 1
ins inger
Ġus m
Ġus ing
Ġus ery
Ġus ually
Ġus asz
Ġter esa
Ġnor a
Ġnor man
Ġbar cel
Ġge ology
Ġge oved
aj cza
Ġwar ri
Ġwar burton
Ġgu ice
Ġgu ide
Ġgu ido
Ġgu illermo
Ġgu ilty
Ġcomm ons
Ġger ard
Ã¡ Å¡
Ġste ens
Ġev gen
co ughlin
Ġband leader
Ġchar am
Ġchar mian
ati e
Ġgr ay
Ġgr endel
Ġact ually
led ge
Ġab arca
Ġcr uz
Ġha ico
Ġhar ris
Ġhar ald
Ġhar mon
by lle
Ġso on
Ġso lab
uth ier
anc a
Ġtr ade
Ġtr ustee
Ġsan ter
Ġsan asy
Ġbl u
Ġbl as
br ian
tist a
Ġcl an
Ġcl ifford
Ġdist inc
Ġmon k
Ġmost ly
Ġrus e
Ġrus s
pe ct
Ġpresid ency
Ġintern et
Ġintern ationally
Ġbra ce
Ġbra ica
Ġbra very
Ġgre ene
ll or
Ġcro w
Ġcro wn
200 0
ka uf
Ġam oo
Ġstar ring
Ġqu al
Ġqu ickly
ven tion
Ġgro za
hl rapp
ib e
Ġnd ong
Ġjack ie
Ġsw itch
Ġpubl ie
ha il
iti a
Ġmil itia
Ġho tel
Ġres ult
Ġres umed
Ġmanag ing
Ġpri ti
Ġpri idu
Ġmc intire
Ġpop ov
Ġ187 4
Ġ187 5
au la
Ã¼ lker
Ġout fielder
Ġout standing
Ġpat ent
je an
uk oviÄĩ
Ġcas tonzo
Ġbow ring
Ġcor inth
Ġfre quently
Ġweb ber
Ġcons ecu
Ġsa ud
Ġsa avedra
Ġsk y
Ġsk ating
Ġsk ills
Ġsk ovaj
jo art
Ġsup pl
Ġdep ression
Ġval encia
Ġval uable
Ġlabel s
Ġsign ing
Ġmor ell
Ġmor gan
Ġtri o
Ġtri es
Ġsho ot
Ġsim iÄĩ
Ġsim ien
ba ugh
Ġperfor m
back s
Ġx ia
Ġx ingchen
Ġma ÅĦ
Ġma astricht
ling house
Ġinstitu tions
rac y
Ġsam ir
Ġber k
Ġber ry
Ġbel t
Ġcla ir
Ġcla vell
Ġmart ine
Ġlu o
Ġlu ther
Ġtex ans
Ġdemoc racy
Ġcre ating
ĠÃ ĵ
Ġmill ar
Ġmill ward
tar escu
Ġes ther
Ġport ugu
Ġav oid
Ġmel cher
Ġem elin
Ġem uejeraye
Ġem peror
Ġmat thias
Ġhol man
pro ject
rist o
Ġtra ined
Ġill oul
Ġfar aliza
Ġkar etnik
azz otti
ÃŃ k
ÃŃ ost
Ġchair person
iff e
Ġsl im
Ġmur Ã§a
Ġinc or
Ġest ate
Ġacc oun
Ġacc used
Ġchief s
Ġdom ing
Ġdom estic
Ġtre at
Ġshar ma
Ġprince ton
Ġvictor ian
Ġten or
Ġgl ou
Ġappo int
Ġca us
Ġca use
Ġod is
Ġoper ated
nd io
Ġbill board
Ġmad ondo
Ġwood y
Ġwood lands
Ġjer ae
Ġjer emy
Ġshort land
Ġshort stop
Ġcricket archive
bor g
Ġsub ject
Ġbal ajcza
Ġce ballos
Ġpan kewicz
Ġpan ionios
Ġmer it
Ġmer chant
Ġwes thuiz
Ġtran sport
Ġgeorg ian
Ġgeorg etown
ines ename
tiv o
Ġmas oud
Ġlar gest
Ġ185 5
Ġappoin ter
su ed
su ff
Ġmal ta
be fore
Ġak h
Ġbor ja
Ġbor chard
Ġnb c
Ġga uss
Ġga uthier
Ġpl ot
Ġpl anned
ecu tion
Ġchristi anno
ij aya
Ġq i
Ġka ido
Ġkenn y
Ġlegisla ture
Ġsuper liga
car r
dra ft
national team
Ġdun av
Ġju ven
Ġrev ival
Ġrev olution
Ġbur ish
Ġol iver
Ġbrook s
wer th
Ġnom ura
Ġlang don
ribu tion
ste in
Ġtro wer
Ġtro ops
Ġmodel s
gen eral
mit ted
mit ri
Ġanth ology
Ġanth onis
Ġgra eme
Ġdevelop ed
Ġko tham
Ġstr ate
Ġled a
Ġteach ing
Ġfreder ik
ye cto
Ġsav itt
Ġlight ning
Ġrem ains
Ġchrist ina
Ġphot ography
position s
Ġche m
Ġche t
Ġreal name
Ġbox ing
Ġcorn ell
Ġcard iff
Ġfa ilure
Ġty chy
Ġdec ade
Ġdec ades
Ġram azzotti
lands cape
Ġjeff reys
Ġsat o
Ġng ody
Ġtal bot
Ġalleg ed
Ġexecu ted
Ġcompeti tions
Ġsuccessful ly
Ġroberts on
Ġfif a
Ġnik Ã§
Ġandr zej
Ġkr pey
Ġkr ueger
Ġvis count
Äį ÃŃn
Ġbi ukoviÄĩ
Ġgian t
Ġchap ter
Ġvel ox
Ġrob bie
Ġrob inson
Ġgriff ith
Ġba igor
Ġcall ing
Ġpen edones
Ġislam ic
Ġlat usa
Ġdomin ik
Ãº s
Ġcri tical
Ġgh azi
Ġgh alay
Ġgil geous
Ġku ipers
Ġash in
Ġash field
Ġvas il
Ġvas ily
Ġvas ili
Ġ179 0
Ġast ronaut
Ġsi res
Ġmach ine
Ġdog g
chen kov
Ġwhit t
Ġwhit low
Ġwhit gift
Ġprac tic
Ġcharac ters
Ġcrim e
Ġpot ential
Ġfr atern
Ġjak ub
agu a
Ġcher yl
Ġcher bourg
Ġpros ecution
Ġprovid es
25 4
Ġaut ry
Ġbud apest
Ġcra wford
Ġhop kins
ĠnÃ© meth
Ġjon uzi
Ġeston ia
Ġmathema tical
bl ue
Ġpass ing
Ġfern Ã¡ndez
Ġdick ey
Ġgall oul
Ġgall antry
Ġgall inari
Ġmuseum s
Ġlasttest against
Ġtestdebut against
Ġdonald son
ĠÅ ł
ĠÅ ģÄĻ
Ġsug imoto
Ġbon ta
Ġwolf e
Ġwolf gang
Ġludw ik
endor fer
Ġphysic ian
hol der
Ġsamp o
Ġbudd y
Ġbudd hist
Ġflo urnoy
Ġker r
Ġker ispatih
agh uraj
Ġleban ese
Ġpromo ted
Ġpod ium
iem cz
Ġadvis or
gre ll
Ġil leg
Ġthor pe
Ġhor witz
Ġhur st
Ġland mark
Ġresp ectively
Ġcham bers
Ġven ice
Ġbeau tiful
Ġconc ern
196 3
Ġodidebut date
Ġodidebut year
Ġodidebut against
Ġivan ovo
Ġivan oviÄĩ
Ġcritic ally
Ġpsy ch
elec ted
Ġuc la
Ġhind marsh
char les
Ġvide os
Ġles lie
Ġspring field
Ġpublish er
Ġsaxoph one
Ġmulti ple
jian g
yi ÄŁ
Ã« l
Ġbakh it
Ġpos sible
Ġfus ia
Ġfus ari
Ġfish er
Ġmlad enov
Ġos car
Ġtas co
Ġgren adier
itus i
Ġlut ter
Ġlut ricia
Ġkess el
Ġattemp ted
Ġattemp ts
bon ey
lu o
pec ted
yu ki
Ã¯ na
Ġul tim
Ġbir ken
Ġcer em
Ġpav el
Ġanc est
Ġtat tarescu
Ġklaus en
Ġrick ford
Ġyan kee
Ġvie ws
Ġfoo te
Ġfoo titt
Ġshir ley
Ġappe al
count ry
Ġabb as
Ġabb ey
Ġhistor ical
Ġpetro viÄĩ
Ġparalymp ics
gra efe
jana a
lic ations
Ġia fd
Ġump ire
Ġsed ki
Ġbot an
Ġfle ur
Ġwak ayama
Ġwak amura
Ġny gaard
Ġnai lab
Ġjess ica
Ġgun powder
Ġgree ce
Ġtok pah
Ġchi ÅŁ
Ġrod gers
Ġtel ugu
Ġbeg inning
abri zio
Ġgener ally
Ġproduct s
Ġaleks ey
Ġaleks andar
onym ous
Ġinterest s
Ġabdul lah
mid t
Ã¨ re
Ã¸ rge
Ġbai ynd
Ġthur ston
Ġpakh alÃ©
Ġiniti ally
Ġtus har
Ġgas light
ĠgÃ¶ rÃ¶
Ġmechan ics
Ġmob ile
Ġ139 8
Ġregard ed
Ġannoun ced
Ġalexand ra
Ġmcginn is
Ġadvoc ate
Ġjohann es
Ġpsychiat ry
pan kewicz
Ġpon ti
Ġdin os
Ġnim rod
Ġlank an
Ġrub iano
Ġtouch down
Ġchern omorets
Ġrodrig uez
Ġabol ished
Ġabram ov
Ġcontribut ing
Ġcommunic ations
Ġmikec z
Ġkeyboard ist
Ġvladim ir
kalu ke
Ġthongk rue
Ġposs ner
Ġfact ory
ĠmÃ¼ ggen
tech n
Ġhild en
Ġhutch ence
Ġgor bun
ĠchÃ©ri f
Ġshap iro
Ġ649 5
Ġcanon ica
Ġexten sively
alex ander
Ġreser ve
Ġjew ish
Ġcorrespond ent
Ġdepor tivo
Ġmacc abi
Ġkras nozhan
Ġmuney asu
Ġdiffer ent
Ġrespon sible
ĠÃĸz yiÄŁ
Ġunsuccessful ly
cam m
fre derick
luc a
Ġsf sr
Ġsop rano
Ġsoph ie
Ġbos caw
Ġthr one
Ġmust afa
Ġwang gai
Ġhick man
Ġhors es
Ġdim itar
Ġtai wan
Ġlyn n
Ġdecl ared
Ġkre uz
Ġkash akashvili
Ġstand ard
Ġlef ebvre
Ġbea uty
Ġjoy ner
Ġmethod ist
Ġappro ach
Ġloth ian
Ġresign ation
Ġcyr illic
Ġexperi ence
Ġsaty endra
Äįi ar
Ġcfb dwid
Ġsorok in
Ġtasman ia
Ġkazakh stan
ĠkukÃ« si
cent ury
not able
rl Äĥ
Ġrb i
Ġsud an
Ġsack s
Ġsade ghi
Ġbent ley
Ġbash aud
Ġcn n
Ġcamil o
Ġmats ubara
Ġoz iemcz
Ġhous ing
Ġdres den
Ġdedic ated
Ġjag odina
Ġgab on
Ġlus ikyan
Ġartis tic
Ġraf ael
Ġisa ac
Ġyam ada
Ġunex pected
Ġheidel baugh
Ġvid mar
Ġlect urer
Ġspir it
Ġcolom bo
Ġmeg adeth
Ġmohi uddin
Ġprus sia
Ġgenoc ide
Ġafghan istan
Ġsteing ross
Ġstehl ÃŃk
Ġsanj janaa
Ġpeters burg
Ġblitz krieg
ĠamÃ© rica
haus en
Ġsymb ol
Ġsuppor ted
Ġmori arty
Ġmagomed ov
Ġcele br
Ġraid ers
Ġhawai i
katalaksh amma
Ġwimbled on
Ġdagest an
Ġresour ces
ĠsempoliÅĦ ski
Ġenviron mental
current ly
gÃ¼ strow
hiv amsa
jpe g
jose ph
lsh chik
nies zka
æĸ ĩ
Ġord ained
Ġesse x
ĩÄ± nar
Ġame zquita
Ġaless andro
Ġaux erre
Ġbard akcÄ±
Ġbion detti
Ġbled soe
Ġbau tista
Ġbaksh in
arri eta
Ġces ena
Ġpend leton
Ġpelle tier
Ġfro st
Ġmorn ing
Ġmys ore
Ġmite v
Ġmgang ira
Ġwaff en
Ġtheuer kauf
Ġhov lik
Ġhurr ican
Ġhort a
Ġhoss ain
ĠhÃ¶ grell
Ġhrn Äįiar
Ġhvid ovre
Ġnied ling
Ġnakh on
espn cricinfo
Ġtren ÄįÃŃn
Ġtavor i
Ġgol fer
ĠgÃ¢ rlÄĥ
chap man
urci u
heorg he
Ġkov achev
ĠkÃ¼ laots
Ġkulik ova
Ġremember ed
Ġratch asima
Ġforens ic
Ġisay chenko
Ġyarm outh
Ġchenn ai
Ġviel werth
Ġlege ay
athaling am
Ġteksti lshchik
Ġneuf eld
occup ation
Ġcombr inck
Ġshik urin
Ġshiz uoka
Ġshib li
Ġjanash ia
Ġboog ie
ivÃ¢ ndio
Ġprefe cture
Ġnohar athalingam
Ġencom pass
astasi ia
Ġmanuf act
Ġpartiz an
Ġschwart z
Ġpritch ard
Ġcollegi ate
Ġzhi yu
Ġformerpart ner
Ġappony i
Ġbarcel ona
Ġgeoved i
Ġsteens el
Ġsolab arrieta
Ã¼lker im
Ġskovaj sa
Ġsuppl ies
ĠmaÅĦ ka
Ġportugu ese
Ġmelcher t
Ġkaretnik ov
Ġwesthuiz en
Ġkotham angalam
ĠnikÃ§ i
Ġkrpey an
Ġbaigor ria
Ġghalay ni
Ġfratern ity
ĠÅģÄĻ cz
ĠchiÅŁ inÄĥu
ĠgÃ¶rÃ¶ g
Ġthongkrue a
ĠmÃ¼ggen burg
Ġgorbun ova
ĠÃĸzyiÄŁ it
Ġboscaw en
Ġoziemcz uk
2 49
6 0
6 5
a x
a um
a end
a aki
a Ã«l
b n
b la
b ir
b ri
b art
b ill
b Ã©
b ah
b Ã¡
b ai
b ha
b ates
b ined
b bc
b ient
b eargarden
c ro
c ond
c ys
d is
d am
d el
d ue
d ong
d Ã¶n
e man
e ason
e ase
f le
f us
f ong
f red
f ace
g s
g on
g el
g ate
g ot
g id
g ies
g ure
g eral
g ib
g ets
g bakoto
h all
h ome
i ation
i als
i led
i hiro
j ang
j me
j ubl
j ann
j aya
k y
k ow
k ang
k ala
l ord
l op
l ike
l antz
l odar
m ill
m ke
m ira
m iss
m ission
n bar
o i
o bo
o by
o onist
o ubles
p ir
p ac
p ine
p tions
p olis
p irelja
r s
r up
r ine
s man
s ubl
s ains
s mith
t man
t ak
t ens
t unk
u ted
u mer
u der
u cc
u ki
u ana
v on
v as
v un
v ik
v ince
v ko
w es
w om
w ald
w ahls
w ijaya
x ton
y ing
y evich
z on
z ine
z ana
z arus
£ eanu
° Æ¡
Ã ¥
Ã Ł
Å £eanu
Æ °Æ¡
Ð ¼
Ð ¾
× Ļ
Ø ±
Ø ³
à ¯
à µ
ä »
Ġ ç
Ġ æĿ
Ĳ Æ¡
Ġa us
Ġa ub
Ġa uth
Ġa val
Ġa yan
Ġa ziz
er ah
th en
th orn
th ree
in ath
in rich
in iem
on t
on an
on ent
on id
an sion
an che
Ġs g
Ġs ie
Ġs ession
Ġs Ã¡
Ġs lo
Ġs ki
Ġs ib
Ġs au
Ġs lav
Ġs ucceed
Ġs aye
or ation
or os
ti f
ti rb
ti vis
ti mo
ti ations
Ġb up
Ġb old
Ġb ally
Ġb inning
Ġb less
Ġb icy
ar ies
ar the
ar inen
Ġc w
Ġc ed
Ġc ut
Ġc ust
Ġc ial
Ġc ris
Ġc ates
Ġc atherine
en h
en ve
en ico
en kov
Ġth re
Ġth ani
Ġth ink
Ġth ayer
Ġp d
Ġp i
Ġp x
Ġp le
Ġp es
Ġp ath
Ġp ork
Ġp ip
Ġp ne
Ġp iet
Ġp iss
Ġp une
Ġp inch
Ġp omer
Ġp asha
Ġf i
Ġf as
Ġf igh
Ġf ra
Ġf ion
Ġf ab
Ġf ell
Ġf ai
Ġf ide
Ġf uk
Ġf oss
Ġf ried
Ġf ired
Ġf aye
Ġf ener
Ġf encing
Ġf joart
Ġf abrizio
al is
al ot
al ts
al em
le si
le ts
Ġm ol
Ġm ist
Ġm ou
Ġm ud
Ġm ort
Ġm ati
Ġm ainst
Ġm Ã¤
Ġm ignon
Ġm umon
Ġm tv
Ġw ag
Ġw ord
Ġw ish
Ġw ong
Ġw onda
Ġw enlan
Ġw etton
te ll
te fisk
Ġthe ore
is es
is bane
is iak
is adr
Ġo mer
Ġo vers
Ġo ma
Ġo ko
Ġo verse
Ġh id
Ġh ers
Ġh end
Ġh und
Ġh ague
Ġh sb
Ġh yo
Ġh ired
Ġh inch
Ġh alse
Ġh jk
Ġh risto
re la
Ġd il
Ġd ad
Ġd um
Ġd ah
Ġd ron
Ġd aly
Ġd ual
Ġd lam
Ġd Ãº
Ġd amon
Ġd ream
Ġd arts
Ġd voÅĻÃ¡k
Ġd mitri
Ġd Ã¸rge
Ġd Æ°Æ¡
Ġn j
Ġn oc
Ġn ip
Ġn ature
Ġn amo
Ġn avy
Ġn ancy
as ure
as por
Ġin k
Ġin t
Ġin ga
Ġin tel
am arca
Ġan te
Ġan ug
Ġan ci
Ġan astasiia
es ted
es ovÃ¡
la u
la in
la ge
ic ide
ed u
ed is
ed onia
ro ke
ir ie
Ġ20 5
Ġt old
Ġt ds
Ġt annone
Ġt agua
Ġj ard
Ġj um
Ġj av
Ġj amal
Ġj avier
un tu
un ci
Ġg if
Ġg ather
Ġg Ã¼
Ġg ama
Ġg abri
Ġg andy
Ġg yeon
Ġg illian
Ġg heorghe
el izabeth
us alem
it ant
ch es
ch ing
ch ad
ch ild
ch inesename
ol Ã©
il ia
il ly
il hach
ur d
ur st
ur ang
ur ies
at u
at ti
at rian
Ġl ich
Ġl und
Ġl Ã¡
Ġl lo
Ġl ose
Ġl ds
Ġl opes
Ġl jubl
he i
he w
ber i
ber n
Ġde vil
Ġde tec
ig arh
Ġk al
Ġk le
Ġk ig
Ġk up
Ġk amil
Ġk ira
Ġk hy
Ġk ader
Ġk amal
Ġk endall
Ġk edd
Ġk atie
Ġre x
Ġre yes
Ġre eder
Ġre election
Ġar k
Ġar ri
Ġar med
Ġar itz
Ġar ena
st a
st as
st aheli
Ġr i
Ġr ar
Ġr ic
Ġr ia
Ġr ist
Ġr ican
Ġr ain
Ġr end
Ġr enn
Ġr ca
Ġr afat
Ġr Ã¡k
Ġr ival
Ġr ising
Ġr usty
Ġr ighteous
Ġr aghuraj
Ġfor et
Ġfor ty
Ġfor ms
ad am
ad ed
ad ow
ad av
ad ab
Ġto o
Ġto ured
si em
si ys
si bil
ter ian
im in
im ar
im li
Ġis mail
and an
and ace
tle s
tle tt
Ġst ans
Ġy a
Ġy r
Ġy uri
Ġy agi
Ġy eni
Ġy osh
Ġe ac
Ġe igh
Ġe min
Ġe amon
Ġe gger
Ġe akin
title d
Ġal um
Ġal ph
Ġal ves
Ġal isa
Ġal onso
Ġal oi
Ġal pine
Ġal igarh
Ġch or
Ġch en
Ġch un
Ġch ul
Ġch eshire
Ġch atrian
ac o
Ġas st
Ġas unci
ot tes
Ġun de
id ed
Ġhe inrich
ap hic
Ġon line
Ġon dar
Ġv s
Ġv it
Ġv av
Ġv og
Ġv ino
Ġv oting
ay r
ay uki
ut n
ut ov
ted t
ow s
Ġse a
Ġse an
Ġse ong
Ġse ah
Ġat ar
Ġle o
Ġle af
Ġle amon
Ġle vert
ath a
ath i
up p
ard ino
ra h
ra ce
ra inian
ly se
Ġ18 22
um ble
Ġnational s
Ġro ch
Ġro om
Ġro ald
Ġro han
Ġro sen
Ġuni Ã£o
Ġ3 000
Ġco at
Ġco ok
Ġco ley
Ġco yo
Ġpro team
Ġpro years
Ġpro wins
Ġpro cess
Ġpro yecto
Ġte lec
ge me
ust ina
Ġbe aud
Ġim pro
Ġim db
Ġne g
Ġne go
Ġne ilson
Ġne jme
oc a
Ġpo ign
Ġmar ian
Ġmar ion
Ġmar ines
Ġmar iners
ie c
sh aron
sh rine
Ġla d
Ġla zio
Ġla unch
Ġla Ã¯d
Ġla zarus
ou tier
Ġsp a
Ġsp ending
cc a
cc ane
ain t
Ġcon clus
ord y
Ġcom bin
Ġcom bined
ish an
if udd
Ġnew ell
Ġjo an
Ġjo vetiÄĩ
ov ac
ov na
ack i
Ġsh a
Ġsh ut
Ġsh ak
Ġsh ank
Ġsh imi
Ġsh adow
Ġcol ony
Ġcol ima
Ġcol lage
end oubles
ran ce
Ġcap able
ous ly
Ġme mo
od a
od idate
ry u
eb e
ip o
Ġjan g
Ġ6 8
Ġ6 9
Ġser rano
Ġbo jan
Ġbo uglas
Ġmay umi
Ġ5 2
Ġ5 7
Ġor tman
ik o
und i
Ġsc rum
Ġsc anlan
Ġsc ardino
Ġcar on
Ġcar ry
Ġcar men
ec tion
ec tive
Ġhas ler
Ġpre c
Ġen listed
Ġmo z
Ġmo tion
Ġmo ak
Ġmo hand
Ġmo unt
op inath
op endoubles
em i
em at
Ġgo es
Ġgo ing
les ranking
les kÃ¡
Ġrec urr
ine e
ore vna
Ġjul ie
Ġpol o
ok ed
ok ip
Ġjun ction
ast art
ant y
Ġman ito
Ġman hat
Ġher ly
Ġher shel
ren nan
ass elin
Ġpar amo
Ġeng eld
Ġti l
Ġti ras
per ry
Ġed vin
Ġed iting
Ġed ivÃ¢ndio
Ġbr as
Ġbr amble
Ġbr isbane
Ġteam ed
Ġsch uen
Ġsch midt
Ġ8 6
Ġag nieszka
Ġph d
Ġph one
ld Ä±
Ġsing ers
se la
cl iffe
Ġ12 1
Ġ17 80
Ġ17 87
ma x
Ġ15 30
Ġ15 86
Ġmin utes
Ġ9 5
Ġ9 6
Ġ9 00
Ġrep e
Ġsu et
Ġgen res
ash i
ash en
ash lie
Ġz Ã¡
Ġz abr
Ġz vez
Ġwor th
Ġwor anat
Ġwor cestershire
she ffield
19 89
Ġwork shop
Ġad alberto
Ġfran cois
Ġdra ws
Ġ16 5
Ġapp l
Ġapp ears
Ġapp lications
Ġoff ered
Ġex am
Ġex chan
Ġper si
Ġper per
ild e
Ġbro ke
Ġbro dy
tu al
Ġac id
Ġac ost
Ġac Ã¡cio
Ġsouth west
Ġtw isel
Ġbas es
Ġpolitic s
ann ah
Ġcal vin
Ġcal edonia
ke ley
Ġus man
Ġnor berg
Ġbar i
Ġbar ros
Ġbar bar
Ġbar rÃ©
Ġbar tlett
Ġge ological
aj evo
Ġwar ner
Ġgu ang
Ġgu erre
Ġ14 18
Ġ14 16
Ġste p
Ġste ffie
ai tis
enc ies
umber land
co te
mar ia
Ġchar ity
Ġchar ley
Ġstat en
ris ing
Ġgr Ã¶n
Ġgr ims
Ġgr gure
Ġgr aphic
ung a
Ġterm s
Ġsec ure
ham med
sp e
Ġab azi
Ġab reu
Ġcr andon
Ġha o
Ġha ayer
Ġha okip
Ġhar bour
ne ur
Ġel is
Ġel ite
Ġel ba
Ġel off
Ġel lyse
Ġdav it
Ġdav ison
Ġwon der
by terian
Ġsucc i
Ġchild hood
Ġlaw suit
Ġear le
Ġear ning
Ġtr iath
Ġpe leuli
ker ios
Ġbl ind
Ġbl ida
Ġprod uce
tt enham
Ġking s
Ġking stown
Ġcl ive
Ġcl ark
Ġcl outier
Ġdist ance
ens or
Ġyear pro
Ġbra ves
olog ian
Ġmich el
Ġcro ix
Ġover turn
200 2
Ġdire ctly
Ġam or
Ġam ass
Ġdo ug
Ġstar a
Ġstar ter
ious ly
ile sh
Ġqu orum
Ġlast odidate
Ġactress es
Ġgro w
Ġgro wing
Ġru an
Ġalb ion
ib a
Ġreg ional
Ġjack ets
Ġjack iem
mo unce
mo hammed
Ġann enkov
dec win
dec loss
Ġauthor ities
Ġsen eg
Ġfl ash
Ġwal d
Ġwal tham
Ġdis ney
Ġdis ease
Ġmil inko
Ġho ur
Ġho ffman
Ġres istance
ev ac
Ġolymp iad
Ġwell er
de gh
Ġmc dowell
Ġmc manus
Ġsecond s
Ġje annette
Ġleg acy
Ġ187 2
Ã³ ir
Ã³ ra
Ġbu chan
Ġbu ccane
Ġpat tern
Ġpat ena
Ġpat rich
Ġpat ricia
Ġstud ent
Ġstud ents
Ġ188 5
Ġ188 7
Ġ188 9
je on
uk en
Ġcas as
Ġhel ena
Ġhel mke
Ġresid ing
Ġscot ts
Ġmet z
Ġmet rop
Ġwest side
Ġwest minster
lb aum
na ud
Ġcons ec
Ġsa ifudd
Ġsk ier
Ġsk ulls
Ġsk ipworth
Ġfe el
Ġfe insinger
itar ian
Ġphil anth
Ġyoung est
ep pe
ep olis
Ġdep alma
Ġtour s
ks son
lin es
Ġwash burn
Ġfound ations
Ġrece iver
Ġrece ptions
Ġtri ed
Ġtri als
Ġtri ple
Ġsho es
Ġsim Ã³n
Ġfield goals
Ġdan ial
Ġden tist
ats u
ago za
ba o
Ġperfor ms
Ġx ie
Ġcam era
Ġma iden
Ã¶ l
Ġinter red
no te
no tes
no Å¡
rac ted
Ġsam uel
Ġsam oa
Ġber t
Ġber tr
Ġber oe
Ġber keley
Ġbel le
Ġbel gian
Ġbel arus
Ġcla udine
Ġpain ted
Ġlu la
Ġlu ke
Ġlu tefisk
Ġtex t
Ġmayor al
fo ur
fo unded
Ġcre we
ism s
ĠÃ ľmit
ĠÃ ĩÄ±nar
Ġbre ast
Ġbre eder
Ġbre wers
Ġdel more
Ġes pec
Ġport o
lab ha
Ġli bert
Ġaver aging
Ġmel ton
Ġmel ody
Ġem igrated
Ġer ick
Ġcy rielle
Ġmat tar
its ki
Ġbattle field
pro clubs
pro vince
tin ari
Ġsome wh
Ġhon our
Ġtra ff
under s
Ġfar nell
Ġfar rell
Ġnov oros
Ġnov itski
Ġkar nat
Ġrela tion
Ġvir k
Ġroman ian
sk ating
ÃŃ pero
Ġown ed
Ġep onymous
Ġboard s
Ġsl ow
Ġsl ovakia
Ġsl ouk
Ġmur do
Ġmur unga
Ġgrand child
Ġdr ag
Ġele anor
Ġprog ressed
ho siem
Ġshar ks
Ġvictor ies
men te
Ġver de
Ġgl oria
Ġ180 5
Ġath ens
Ġben g
Ġben ch
Ġben edic
Ġca en
Ġmov ing
Ġuk rainian
Ġblack man
ob stad
ob oda
Ġbill ie
Ġbill ion
Ġmad hop
Ġmike e
Ġwood ward
Ġang olan
Ġjer ome
Ġjer usalem
Ġshort ly
Ġcolumn ist
Ġsocial ist
born e
iro vich
Ġce leste
Ġpan thers
Ġmer z
Ġnow acki
Ġparliament ary
Ġthrough out
Ġham burg
Ġry d
Ġvo ices
Ġbegan skating
199 5
Ġtechn iques
tiv als
Ġbay ne
Ġmas aaki
Ġrac es
Ġrac ed
Ġ185 0
Ġathle te
ming ham
Ġiv or
Ġmos he
Ġmos kaluke
Ġtak ashi
Ġ183 1
Ġasi f
Ġasi mov
Ġbor der
Ġmy c
Ġmy r
Ġga izka
elph onse
Ġdev os
Ġpeter son
wor ld
Ġpal at
Ġpal mer
Ġpal ace
Ġmen kerios
Ġhal vor
Ġjac oby
Ġisland ers
Ġdrafted year
Ġdrafted round
Ġchristi ana
hen ge
hen ry
Ġq ing
Ġq ian
Ġfes tivals
Ġmac y
Ġmac iej
Ġrap per
Ġphys ical
Ġlegisla tion
dra w
dra vko
lie utenant
rich ard
Ġfig ue
Ġfig geme
Ġdun lop
Ġta e
Ġta x
Ġta Ã¯na
Ġta urang
Ġjournalist s
Ġbur ied
Ġbul well
Ġol son
Ġdar ren
Ġdar cys
Ġstart s
Ġcong re
Ġsteph an
Ġgradu ating
wer in
Ġset t
Ġset ting
eng th
Ġfellow ship
Ġlie th
Ġlang ford
Ġlang aitis
ste ven
Ġsom en
Ġdu ties
Ġdu rban
Ġnat al
Ġtro y
Ġcarol ine
Ġpopular ly
Ġorganiz ations
war ren
Ġpet tinari
Ġob tained
Ġdevelop ing
Ġko stas
Ġstr ugg
Ġteach es
Ġpast teams
Ġlor ton
Ġlor raine
Ġke ep
Ġvar na
osp alot
Ġphot ograph
Ã¤ n
Ġpres nell
Ġpres eason
Ġreal ism
Ġriver a
Ġstan more
Ġ184 2
Ġfounder s
Ġbrad field
Ġabd Ã¼lkerim
80 2
bar ry
fe ast
Ġcorn elius
Ġpower ful
Ġfer ry
Ġday na
Ġdri ve
Ġram iro
Ġform al
Ġseven th
Ġexper t
Ġjeff rey
Ġhonor ed
Ġng uy
Ġtal k
Ġgar ner
Ġgar linghouse
Ġstock hol
Ġalleg iance
Ġvol os
Ġvol ga
Ġexp ressed
Ġexp ansion
Ġmcg ill
ius eppe
oun ced
Ġsar ah
Ġsar gs
Ġsar ajevo
Ġwrit ers
Ġok ina
Ġhog ue
Ġhog gid
Ġkr ishna
Ġrest aur
Ġraj a
Ġraj ai
Ġraj endra
Ġvis ual
Ġmother well
Ġschol tz
Ġcomple ting
win ner
Ġbank er
Ġgian luca
Ġvel la
Ġsher win
Ġsher dog
Ġfinish es
Ġba ilhach
Ġcall anan
Ġcred its
Ġpen itusi
Ġinn ov
Ġlat ur
Ġgood loe
Ġfrances ca
Ġdefe ating
Ġcycl ones
Ġcongress man
Ġmik hail
Ġgh assan
Ġgh ulam
Ġgy alts
Ġvas co
Ġ179 2
Ġadv ance
Ġjacob sen
Ġnomin ation
Ġnomin ations
cas tillo
Ġsi bylle
Ġmach ado
Ġdog s
Ġconv ic
Ġindivid uals
Ġcontin ues
Ġcontin ental
Ġregular ly
Ġsask ia
tr ack
wh eler
Ã§ e
Ġur ibe
Ġpot gie
Ġfred die
Ġmu hammad
Ġmu vun
Ġjust in
Ġjak obstad
Ġran ge
Ġpros pero
Ġalfred o
Ġscholar ship
do ug
Ä± ldÄ±
Ġsaw ai
Ġbil bao
Ġcra ig
ĠnÃ© stor
Ġkir k
Ġhaw es
Ġhaw ks
Ġhaw thorn
bil ity
Ġbol ton
Ġpers epolis
Ġpass ed
Ġfern and
Ġmain e
Ġwat ts
che on
Ġluc ie
Ġimp ression
Ġweek ly
Ġbreak through
Ġepis odes
kh uli
Ġsug ai
Ġnine teenth
Ġkw on
Ġkw ame
Ġeag le
Ġphysic ians
fran k
fran ces
Ġern st
Ġern est
Ġsri wijaya
Ġsamp son
Ġcat amarca
Ġfund s
Ġmess er
Ġhuman itarian
Ġinte gr
Ġker degh
Ġkill am
Ġkill ing
Ġvac ated
Ġpromin ence
Ġpod esovÃ¡
Ġconst able
Ġext reme
prof it
Ġmalay sian
Ġsv oboda
Ġsus an
Ġbern ardo
Ġfut sal
Ġmold ovan
Ġhosp itals
Ġlas ted
app ear
Ġven erated
Ġconcer ts
Ġcolon ial
Ġzag ora
Ġsupport ing
Ġhenri ksson
Ġell iston
Ġaik ath
Ġsent enced
Ġban jo
Ġban isadr
Ġcin emat
Ġmr s
Ġmut u
Ġmut obo
Ġwhe el
Ġhind u
Ġtar get
Ġtar gets
Ġeff orts
Ġchan ge
Ġchan ois
Ġchann ing
Ġsem if
Ġmemor able
Ġphill ips
Ġpitch ing
Ġvaler ian
Ġmotor cy
cop e
ĠØ ¹
Ġblo ch
Ġbakh tiar
Ġbakh shish
Ġci urciu
Ġci untu
Ġthough t
Ġpra irie
Ġmah ar
Ġmah mud
Ġwahls tedt
Ġhom etown
Ġhang ul
Ġhang zhou
Ġnation wide
Ġniz hn
Ġtam Ã¡s
Ġgren ad
andr Ã©
Ġnev ado
oud hary
Ġspr ings
Ġspr inger
Ġhero es
Ġdefence man
Ġbuild ings
Ġarchite cture
Ġryu ji
dar hod
lar ge
Ġul rich
Ġsul u
Ġsul ly
Ġbir mingham
Ġcs illa
eni u
Ġpav lodar
Ġhaj duk
Ġhaj darhod
Ġanc ina
Ġtan imoto
Ġtat ul
Ġjes Ãºs
Ġrepla cing
Ġyan lin
Ġalder men
Ġros coe
Ġfocus es
Ġclaim s
Ġclaim ed
Ġaccomp lish
Ġump ired
Ġsun ni
Ġbhar at
Ġfle et
Ġnova is
Ġgi Ã²
Ġluk anova
Ġluk Ã¡Å¡
Ġarn oux
Ġtok yo
Ġec ology
Ġchi ÈĻ
Ġrom Ã¡n
Ġrom aine
Ġshary n
Ġshary chenkov
Ġ175 1
Ġblond e
Ġqualif ied
Ġemir ates
Ġmagn ani
Ġjournal ism
Ġsubse quent
steph en
steph ens
Ġniger ian
Ġprosec ut
mid fielder
nap olÃ©
Ġcur rie
Ġthur mann
Ġpic ture
Ġpic tures
Ġfurn ace
Ġinj ured
Ġanim als
chy enko
Ġlind a
Ġlind en
Ġmarri age
Ġcharl ottes
Ġannoun cer
Ġstudy ing
Ġalexand ria
Ġolive ira
Ġviolin ist
bus ch
sub win
uiz amon
Ġsand erson
Ġburn s
Ġcate gory
Ġfitz harris
Ġmack ay
Ġoil ers
Ġhiro aki
Ġhiro yuki
Ġdin amo
Ġjar rad
Ġlank a
Ġkam beri
Ġkum mer
Ġread ing
Ġcho ice
Ġrodrig o
Ġexhib ition
Ġgeoff rey
Ġabol hassan
Ġabram s
Ġcontribut or
Ġpriv ate
Ġcoron er
Ġcoron ation
Ð¸Ñ Ľ
Ġvladim irovich
Ġig orevna
Ġum alat
Ġbh ai
Ġbed abrata
Ġbati uk
Ġbati llus
Ġfrick leton
Ġnash ville
lay ne
Ġtol ani
Ġrw anda
Ġstone henge
Ġyu i
Ġyu val
Ġleav es
Ġshav o
Ġens emb
Ġsteel ers
Ġlastodi year
Ġlastodi against
ĠÃī lio
Ġlibr ary
Ġlibr arian
Ġaffili ate
Ġtransla ted
Ġtransfer red
Ġnichol as
jack son
jav ka
kel Ã¤
sam i
uh ong
ÙĦ Ø
Ġaer os
Ġaud io
Ġsz abolcs
Ġbry ant
Ġcel imli
Ġmv p
Ġwo hlrapp
Ġwind s
Ġwrest ler
Ġhul kk
Ġintro duc
Ġinform ation
Ġgey re
Ġdeter min
Ġkel so
Ġrib amar
Ġyous sef
Ġchance llor
Ġuniver sid
Ġlab rie
Ġcollab or
Ġcolomb ia
Ġenco ur
Ġknow ledge
Ġzh enzong
Ġzar agoza
ĠquÃ© bÃ©
Ġdae jeon
Ġdemonst ration
Ġconsist ing
Ġsalam anca
Ġportray ed
Ġmatte ucc
Ġsloven ia
Ġsurge ons
Ġplan et
Ġpalest inian
Ġturnt ables
Ġremain der
Ġepiscop al
Ġchamber layne
Ġpentath lete
Ġpseud onym
Ġrhythm ic
fern Ã¡ndez
pat rick
sing lesranking
Õ¡ Õ
ĠÄ ĲÆ¡
Ġbit am
Ġbord ian
Ġcoss ar
Ġped ro
Ġfla g
Ġfat ah
Ġwy oming
Ġns w
Ġtap e
Ġtav Äįar
Ġtry gve
Ġlog an
stud ents
Ġheer enve
Ġnep hew
Ġrecru ited
Ã©r ard
Ġcurrentposition plain
Ġzia uddin
Ġfilmm aker
Ġperman ent
Ġgram my
Ġweightlif ting
Ġxii i
Ġestim ated
Ġsurvey or
Ġtowns end
Ġtreas ury
Ġargu eta
Ġdevon ta
Ġmontene gro
Ġspecializ es
Ġfelic ia
Ġconfir m
Ġneighborhood s
ĠtÄĥrÃ¢ Å£eanu
nai lab
zas he
Å¾ iÄĩ
Ġsnap per
Ġcit ta
Ġcim bal
Ġpack ers
Ġfresh men
Ġmap le
Ġmull igan
Ġmater ial
Ġmitch ell
Ġtheod ore
Ġhug o
Ġholl endorfer
Ġdorn er
Ġdoll ar
Ġgag non
Ġlia bility
Ġdeck ers
Ġkah lbaum
Ġkann ada
Ġkush chyenko
Ġreplace ment
Ġeto undi
Ġchid id
Ġchallen ge
Ġbey ond
shav n
Ġapoll onius
Ġpoly techn
Ġzap ata
Ġperfe ct
Ġdistinc tion
Ġruss ell
Ġqual ific
Ġconsecu tive
Ġsky lab
Ġberk shire
ÃŃost Ã³ir
Ġslim ane
Ġincor por
Ġdoming uez
Ġtreat ment
Ġappoint ment
Ġtransport ation
suff ix
Ġakh ilesh
Ġqi uhong
Ġjuven al
Ġvasily ev
Ġpractic ing
ĠÅł pirelja
Ġbirken head
Ġcerem ony
Ġtouchdown s
Ġmanufact urer
bah Ã§e
geral d
gib son
subl oss
sains bury
tunk hwa
wes tern
wom an
zine i
Ġauth ors
Ġaval anche
iniem i
onid zashe
ĠsÃ¡ enz
Ġslo an
Ġslav ia
tirb u
Ġbold en
Ġbless ed
Ġbicy cle
arthe id
Ġcial ente
Ġcates by
Ġpiss eri
Ġpomer oy
Ġfab isiak
Ġfuk uoka
Ġfener bahÃ§e
ĠmÃ¤ kelÃ¤
Ġtheore tical
Ġoma ha
Ġoko chi
Ġhund red
Ġhsb c
Ġhinch cliffe
Ġdil er
Ġdah er
Ġdron ey
Ġdlam ini
ĠdÃº rÃ³
ĠdÆ°Æ¡ ng
Ġnoc era
Ġnip pon
Ġintel lect
Ġanug erah
Ġjard ine
Ġjum per
ĠgÃ¼ ler
ĠlÃ¡ tÃ³
Ġljubl jana
Ġdetec tive
Ġkup arinen
Ġkhy ber
Ġkedd ell
Ġrist iniemi
ĠrÃ¡k ospalot
adab ida
siys k
sibil ities
Ġstans field
Ġyosh ika
Ġegger t
Ġasunci Ã³n
Ġvav iÄĩ
Ġseah awks
Ġcoyo tes
Ġbeaud in
Ġnego tiations
Ġnejme h
Ġpoign ant
Ġconclus ion
Ġcombin ation
Ġmemo ir
Ġrecurr ing
Ġmanito ba
Ġmanhat tan
Ġparamo unt
Ġengeld inger
Ġtiras pol
Ġschuen ing
ĠzÃ¡ leskÃ¡
Ġzabr ze
Ġzvez da
Ġexchan ge
Ġacost a
Ġtwisel ton
ĠgrÃ¶n hagen
Ġgrims by
Ġgrgure viÄĩ
Ġoverturn ed
Ġseneg al
Ġbuccane ers
Ġpatena ude
Ġsaifudd ien
Ġphilanth rop
noÅ¡ t
Ġbertr and
Ġespec ially
Ġnovoros siysk
Ġkarnat aka
Ġslouk as
Ġmurdo ch
Ġbenedic t
Ġmadhop ur
Ġfiggeme ier
Ġtaurang a
Ġpastteams note
Ġnguy en
Ġsargs yan
Ġhoggid y
Ġbailhach e
Ġgyalts en
Ġpotgie ter
Ġmuvun yi
Ä±ldÄ± ray
Ġkerdegh ly
Ġmutobo la
Ġhajdarhod Å¾iÄĩ
ĠchiÈĻ inÄĥu
napolÃ© on
Ġcharlottes ville
Ġhulkk onen
Ġintroduc ed
ĠquÃ©bÃ© cois
Ġmatteucc i
ĠÄĲÆ¡ n
Ġheerenve en
Ġpolytechn ic
ĠrÃ¡kospalot ai
1 10
3 2
3 9
4 8
5 2
5 00
9 5
b v
b en
b es
b ay
b ow
b est
b ach
b ik
b ati
b lo
b Ã¼
b eg
c la
c ri
c ard
c end
c les
c amp
c ock
c ron
c reen
c ribed
d al
d uch
d istance
e holder
f in
f on
f ar
f ir
f it
f st
f ey
f ts
f ort
f ix
f inal
f ldrafted
g art
g ov
g ham
g uk
h k
h it
h ame
h igh
h ay
h ov
h ik
h ugh
h ys
h ttp
h urst
i ber
i Ãº
i yes
i Ã¨re
j m
j v
j or
j ul
j ac
j ak
j Åį
k ol
k ell
k uba
l ce
l ast
l Ã©
l enn
l ings
l incoln
l ength
m u
m es
m ir
m et
m ath
m art
m ie
m od
n k
n en
n us
n im
n ia
n ath
n odar
o il
o ster
o unt
o tica
p d
p ul
p od
p enc
p ose
p ace
p oss
p apan
p ij
p ression
p ierre
p earce
p arty
p tian
p iece
q ed
r c
r h
r ats
r ays
s ed
s ol
s se
s den
s aint
t re
t la
t si
t ter
t ut
t ting
t aya
t Ã¼r
t endorf
t wo
t rane
u a
u ation
u ff
u ania
v ic
v ig
v ian
v ity
v inc
v ind
v enty
v iously
w ol
w ig
w os
w eb
w ai
w arm
w ondo
x s
y ol
z y
z ar
z ap
z burg
z hi
z Åį
z zo
¡ æĸĩ
§ ÙĦØ
¨ ì
¹ Į
¿ Ĺ
Ã ª
Ã ł
Ä «
Å ĳ
Î ±
Î ½
Ï Ĥ
Ï Ħ
Ð ´
× ķ
Û Į
à ¹Į
å ¤
å ħ
å Ń
å ¿Ĺ
æ ķ
æ ĺ
í Ľ
Ġ Î
Ġ ë
Ġ tic
Ġ ears
Ġ ion
Ġ vers
Ġ ip
Ġ ult
Ġ ordin
ļ jp
Ġa a
Ġa ce
Ġa ia
Ġa way
Ġa aa
er k
er ran
er ton
th ir
th ood
th wine
in y
in ah
on n
on ar
on ounced
an o
an es
an other
an Ã§
Ġs ig
Ġs ag
Ġs ter
Ġs ut
Ġs os
Ġs ust
Ġs iv
Ġs ok
Ġs urr
Ġs we
Ġs sp
Ġs ka
Ġs Ã¼
Ġs ony
Ġs ays
Ġs essions
or o
or ted
or ific
ti t
Ġ1 19
Ġb ing
Ġb un
Ġb ce
Ġb um
Ġb Ã©
Ġb ure
Ġb br
Ġb uck
Ġb agh
Ġb iath
Ġb rennan
ar is
ar ing
ar sh
ar thur
Ġc rb
Ġc ul
Ġc os
Ġc ric
Ġc af
Ġc rum
Ġc uba
en ed
en go
en worth
en thal
Ġth in
Ġth ing
Ġth un
Ġth ous
Ġth Ã¼r
Ġth ail
Ġth resh
Ġp b
Ġp and
Ġp ie
Ġp eer
Ġp lo
Ġp inc
Ġp ors
Ġp adu
Ġp ellow
Ġp urs
Ġp asi
Ġp aula
Ġf ear
Ġf ey
Ġf led
Ġf ender
Ġf ais
Ġf unk
Ġf umb
Ġf alse
Ġf otb
Ġf umble
al b
al t
al om
al ou
al aj
al ani
al bers
le vel
le utn
Ġm ic
Ġm it
Ġm all
Ġm ie
Ġm ord
Ġm ell
Ġm ong
Ġm ine
Ġm aw
Ġm ersey
Ġm iro
Ġm be
Ġm umb
Ġw c
Ġw an
Ġw ad
Ġw av
Ġw fan
Ġw itch
Ġw ange
Ġw qed
Ġthe ologian
is ation
is tic
is tics
is leton
Ġo u
Ġo w
Ġo le
Ġo ce
Ġo ct
Ġo ath
Ġo sh
Ġo leg
Ġh k
Ġh il
Ġh ut
Ġh ary
Ġh ack
Ġh ands
Ġh anna
Ġh owell
Ġh ordy
re te
re es
re ts
re lig
re mo
re ady
Ġ2 19
Ġd re
Ġd ame
Ġd od
Ġd ix
Ġd ors
Ġd har
Ġd rib
Ġd alian
Ġd uel
Ġd ata
Ġd umon
Ġd Ã³ra
Ġn ay
Ġn ath
Ġn ab
Ġn uc
Ġn ure
Ġn urse
Ġn lex
Ġn acional
Ġn fldrafted
as ing
as ub
as ide
as ium
as bourg
Ġin g
Ġin for
Ġin qu
Ġin sp
Ġin ten
Ġin side
Ġin Ã¡cio
am ong
am ington
am Äģ
am engo
Ġan a
Ġan ak
Ġan go
Ġan ita
Ġan zhi
es und
es iz
es hi
es posito
la ughter
ic ature
ic ient
ic iary
ed in
ed uc
ed ward
ed gar
ed itor
ed ited
ro e
ro ad
ro mero
ir an
ir ving
Ġ20 6
Ġ20 8
Ġt n
Ġt s
Ġt all
Ġt ah
Ġt ati
Ġt able
Ġt ba
Ġt sar
Ġt adas
Ġand ile
Ġand alou
Ġj en
Ġj ill
Ġj ai
Ġj ena
Ġj ama
Ġj ets
Ġj agu
Ġj urist
un o
un te
un es
un ion
un tain
un ned
Ġg ent
Ġg ive
Ġg ans
Ġg ives
Ġg amma
Ġg omes
Ġg opinath
Ġg iuseppe
Ġg Ã©rard
el an
el ia
el ine
el ck
el off
el ids
el horn
us pe
it in
it ure
it ors
it Ã¤n
it erran
ch em
ch ore
ch ast
ch arm
ch witz
ol ia
ur us
ur ich
ur day
ur aman
ent er
ent ure
at on
at ers
at ov
at ta
Ġl l
Ġl x
Ġl on
Ġl amp
Ġl iam
Ġl umber
Ġl ite
Ġl iane
Ġl enny
Ġl ublin
Ġl unch
Ġl rc
he ath
ber punk
Ġde t
Ġde y
Ġde ep
Ġde andre
ig o
Ġk an
Ġk as
Ġk lub
Ġk ab
Ġk ild
Ġk air
Ġk aw
Ġk yl
Ġk ony
Ġk ual
Ġk asper
Ġk ups
Ġk andace
Ġk ishan
Ġk tla
Ġre l
Ġre t
Ġre y
Ġre is
Ġre ve
Ġre ver
Ġre ward
Ġre ctor
Ġre bo
Ġre tain
Ġre ader
Ġre verse
Ġre loc
Ġar iel
Ġar ica
Ġar ms
Ġar lington
Ġar naud
Ġar noÅ¡t
Ġar vind
st ate
st ra
st ain
st ov
st one
st atus
Ġr r
Ġr ts
Ġr ory
Ġr ens
Ġr ony
Ġr inz
Ġr enzong
Ġfor um
Ġfor bes
ad ition
ad alaj
ag n
ag ara
Ġto ul
Ġto led
Ġto pe
Ġto wer
Ġto wards
Ġto ttenham
si us
si mon
ter i
om ic
om ach
om utov
Ġis le
Ġis ab
Ġis sued
and i
and u
and ed
tle ss
Ġst ur
Ġst ore
Ġst ations
Ġst ands
Ġst aged
Ġst utt
Ġst omach
ul ts
ul na
ul lah
Ġy e
Ġy et
Ġy ak
Ġy em
Ġy ah
Ġy ev
Ġy ury
Ġy ao
pla tz
mber g
Ġe ig
Ġe up
Ġe tz
Ġal ou
Ġal oy
Ġch l
Ġch es
Ġch el
Ġch ak
Ġch ose
Ġch ino
Ġch aud
Ġch aco
Ġch iba
Ġch oudhary
Ġch uraman
Ġch omutov
ac es
ac tion
ac om
Ġas hl
Ġas kalu
Ġas pir
ver a
ian g
ian ts
Ġun re
Ġun its
all i
all urg
all ows
id an
id emi
Ġhe yd
Ġhe inz
Ġhe iden
ap a
ap on
Ġv b
Ġv il
Ġv ia
Ġv ri
Ġv od
Ġv ang
Ġv ib
Ġv ila
Ġv Ã¢
Ġv fa
et on
et ary
ut ation
ut ub
ub in
ub ice
Ġse g
Ġse als
Ġse ctor
Ġse qu
Ġse br
Ġse Ã¡n
Ġse javka
Ġse jm
Ġse venty
Ġse aside
Ġat p
Ġat kins
Ġat omic
Ġle a
Ġle if
Ġle ip
Ġle op
Ġle amington
mer e
mer s
ist a
up h
ri que
ug gen
ug esund
ug elhorn
ra v
ra tive
ra its
ra ving
ra jaya
Ġ18 21
Ġ18 28
um oc
Ġnational com
Ġro ugh
Ġro de
Ġro ster
Ġro ots
Ġro gers
Ġro oster
Ġro stov
Ġro ubin
Ġuni que
os is
os ing
os hi
Ġco y
Ġco al
Ġco ur
Ġco oper
Ġpro ve
Ġpro vision
Ġte mor
Ġbe led
Ġbe ating
Ġbe ograd
Ġim m
Ġim med
Ġne on
Ġne bel
Ġne uch
Ġne gro
oc cal
ue la
Ġpo les
Ġmar x
Ġmar ry
Ġmar ÃŃ
Ġmar gin
Ġmar sden
ie vich
sh ary
sh ine
sh ort
sh ina
sh ane
sh asa
man yam
Ġla jos
Ġla fay
Ġla uder
ou a
Ġsp el
Ġsp end
Ġsp ee
Ġsp elling
Ġsp elled
ud a
ers lau
Ġcon ver
Ġcon qu
Ġcon cep
ord shire
ak s
ak ar
ak lis
Ġcom pla
Ġcom ets
Ġcom bat
ill ers
ill ier
ish er
if ax
Ġnew ly
Ġnew com
Ġnew bridge
Ġnew cas
Ġjo zinei
ov i
Ġsh od
Ġsh op
Ġsh ock
Ġsh aw
Ġsh Åį
Ġcol trane
ick s
end on
end ent
ran k
ran t
Ġcap rice
ous tic
av ing
av io
av ada
av our
Ġfoot notes
Ġme h
Ġme asure
Ġby u
ry an
ab bre
ab hivamsa
ip ato
Ġjan ne
Ġjan itor
Ġamerican s
so hn
ach e
ach er
ach ipato
Ġ6 2
Ġ4 802
Ġbo y
Ġbo om
Ġbo urn
Ġbo bru
Ġbo got
uc ted
iv an
iv tsi
ik papan
und o
und es
Ġsc r
Ġsc ri
Ġsc atter
Ġunivers al
Ġcar s
Ġcar ried
Ġcar riac
Ġcar icature
ec ted
Ġhas an
Ġpre d
Ġpre ston
Ġno ah
Ġen th
Ġen emy
Ġen force
Ġmo ve
Ġmo iz
Ġmo lec
em ar
em outh
les field
own er
og ical
Ġpol ins
ok o
ok er
ok ast
ok esa
ok alani
son ian
Ġjun ÃŃpero
Ġaug sburg
ff d
ff en
Ġman ga
Ġher b
Ġher ald
ren ee
ctor s
Ġ7 1
Ġ7 55
Ġu an
Ġu til
Ġu tica
ass ic
ass el
ass embly
ass por
Ġind rani
Ġpar ram
Ġpar akar
Ġeng raving
ang es
sid ent
Ġti mo
Ġti debut
Ġed itors
ment ation
iz ing
Ġbr ing
Ġbr no
Ġbr Ã¸
Ġteam a
Ġsch edu
Ġag atha
Ġag ustina
ld a
Ġcan hoteiro
Ġpr onounced
se a
se ven
se quently
ated ly
Ġcolle t
Ġcolle ctor
Ġ10 7
Ġ10 45
Ġ10 23
Ġfin d
urn alist
Ġcomp ens
Ġ12 6
Ġ17 24
Ġ17 88
ma tic
Ġ15 20
Ġmin es
Ġass igned
Ġrep orted
Ġsu it
Ġsu zana
Ġsu icide
Ġsu labha
Ġgen eration
Ġgen zÅį
Ġz andon
Ġz dravko
Ġz urich
19 83
19 30
19 35
19 76
19 77
19 72
19 28
19 41
bo x
bo er
bo ot
Ġad air
amp ol
Ġfran co
Ġthat cher
ral tar
Ġ16 0
Ġ16 8
Ġ16 73
Ġ16 06
Ġ16 43
Ġ16 94
Ġwe imar
the less
to zap
Ġfull erton
club e
Ġformer chore
ric ted
Ġex c
Ġex amp
Ġex act
Ġex cep
ph p
ph il
Ġaf c
Ġaf ldra
ild ings
Ġbro s
Ġac ted
Ġac tions
Ġac oustic
ree k
Ġit f
Ġsouth ampton
Ġsouth east
Ġtw isleton
Ġbas el
Ġ11 6
Ġ11 8
go od
Ġcal i
ke vin
Ġus l
Ġus es
Ġter ror
Ġnor anda
Ġnor ihiro
Ġnor ayr
Ġbar ack
Ġbar ris
Ġge ffen
aj ah
az ulu
Ġgu ar
Ġgu ild
Ġgu adalaj
Ġbat t
Ġbat on
Ġmed iterran
Ġcomm em
Ġcomm anding
Ã¡ ti
Ġste van
mar c
mar e
mar shall
mar low
we ek
Ġmid field
Ġmid lands
Ġmid sum
Ġband mates
his ar
Ġchar ged
Ġchar gers
Ġchar ges
Ġ28 0
Ġ28 6
Ġstat league
lo th
lo ad
Ġgr as
Ġgr ays
Ġterm inal
vis ed
Ġall man
Ġall ied
Ġall round
Ġlo ok
Ġsec ured
Ġsec rets
sp ur
sp ira
Ġab a
Ġab u
Ġab il
Ġab use
Ġab ortion
Ġcr u
Ġcr ist
Ġcr ÃŃostÃ³ir
Ġir ina
Ġir aklis
Ġha il
Ġha ugesund
Ġhar riers
Ġel ena
Ġel vin
Ġdav ide
by lu
Ġso le
Ġso ap
Ġso ft
Ġ21 8
Ġear n
anc ed
anc ayo
Ġtr acy
Ġtr ampol
Ġsan remo
Ġpe i
Ġpe ach
Ġpe king
ker k
Ġbl oc
Ġbl og
Ġbl ank
br ig
br ad
br uck
br uce
br uno
Ġking pin
Ġcl im
Ġcl ip
Ġcl erk
Ġdist ribution
Ġmon roe
Ġmon etary
pe tition
cap tion
Ġintern al
Ġyear aend
Ġyear astart
Ġ26 0
Ġ26 9
Ġmich aÃ«l
Ġnot re
Ġnot ably
val er
Ġcro p
Ġcro ck
Ġhigh lands
Ġdes ire
Ġproduc ers
Ġdire cting
Ġam ir
Ġam os
Ġam her
Ġsm t
Ġsm oke
igin ovi
ile o
Ġqu ite
Ġyo hei
Ġyo utub
Ġda ily
Ġda uph
Ġgro ve
hl al
Ġru le
Ġinternational s
Ġalb io
Ġalb ania
Ġminister s
ino jÅį
Ġreg ina
Ġreg ga
Ġreg ained
ron ics
Ġnd our
Ġsw ing
Ġsw allows
ender s
Ġfl amengo
Ġfl ugelhorn
Ġdis band
Ġdis miss
Ġvic enz
ger ed
iti mate
Ġmil itant
Ġmil sami
Ġho f
Ġho ve
Ġho bart
Ġho oker
Ġres ort
Ġmaj ors
Ġsy riac
Ġolymp ians
Ġolymp iak
Ġunder standing
Ġunder world
Ġ186 6
de acon
Ġmc doug
Ġje anne
Ġleg ion
Ġrock ford
au x
Ã¼ sey
Ġother wins
Ġother party
Ġup s
yl ie
yl okast
Ġbu ch
Ġpat r
Ġpat taya
Ġalex ei
Ġcas es
Ġcas ey
Ġresid es
Ġscot sman
pen alty
Ġbow ery
Ġcor p
Ġcor ps
Ġcor rup
Ġfre etown
Ġfre quent
Ġmet res
Ġmet allurg
Ġcons umer
Ġnorth ampton
Ġnorth fle
Ġsal oon
Ġsal zburg
Ġfe et
jo urnalist
Ġoffic ers
Ġoffic ially
Ġoffic ials
Ġze iss
Ġze phy
Ġtour ist
Ġtour ism
Ġval ent
Ġval ue
ks creen
lin ear
Ġbet ty
Ġmor eno
Ġrece ive
Ġtri bec
Ġrank ings
po st
sch neider
sch werin
Ġsil ent
Ġsil kscreen
Ġsim ona
cis ion
Ġx ama
Ġx ylokast
Ġinv itation
Ġinv entor
Ġinter active
Ġinter cep
Ġinter clube
Ġinstitu tion
Ġinstitu tional
no j
Ġsam i
Ġsam aj
Ġbel mont
Ġbel shina
Ġcla ude
enti ty
Ġpain s
Ġmart y
Ġtest cap
fo x
ĠÃ ģ
ĠÃ ļjp
Ġcup s
Ġhead er
Ġhead ed
Ġhead shot
Ġes cap
Ġes teg
lab le
site it
Ġindian s
Ġsmith sonian
gar h
Ġarch du
Ġarch duch
Ġarch deacon
har ajah
Ġav ant
Ġav tozap
Ġem ma
Ġer ik
Ġer ica
Ġer win
Ġer ika
Ġer rol
Ġcy cle
Ġmat ters
Ġhol lett
pro st
Ġtra vel
Ġemp hys
Ġfrancis can
Ġut recht
Ġnov gor
Ġkar en
Ġkar oli
Ġrela ted
Ġrela tiv
mon th
int endent
Ġjud iciary
Ġep idemi
Ġprev ent
Ġsl ot
Ġsur real
Ġsur rey
Ġsur pris
Ġinc ub
Ġinc ident
Ġtown ship
Ġjourn als
Ġacc ident
Ġele ments
Ġ181 1
Ġflor ian
ek ing
ek wondo
Ġmak hach
Ġprog ress
Ġpublic ation
Ġpublic ations
ho st
ho unds
ula ting
Ġmod der
Ġder ry
Ġdom enico
Ġtre es
Ġshar eholder
Ġalexander platz
Ġver a
Ġsix ty
Ġ180 1
Ġ180 3
Ġ180 8
Ġprov inc
Ġca used
Ġca ucas
Ġod ds
Ġod icap
Ġoper ations
Ġblack hawks
nd by
ob i
Ġair ways
Ġmad ge
Ġwood land
Ġwood ford
Ġwood ville
Ġinflu ence
Ġang lo
Ġcourt ney
Ġorgan isation
Ġsub otica
Ġbal asub
Ġbal ikpapan
Ġpan zer
Ġmer eng
201 2
off ic
arm ac
arm stad
Ġham mer
Ġham idi
Ġnick names
Ġtran mere
Ġry der
Ġvo te
Ġvo jv
Ġgeorg ios
Ġlar s
Ġreturn ing
Ġ185 7
bec k
li u
Ġiv i
Ġiv ka
Ġiv idel
Ġmal aw
Ġtak ayuki
Ġlife time
Ġ183 8
Ġpoet s
tro wer
Ġak hisar
Ġbor ough
Ġmy th
Ġmy ron
Ġmy ster
Ġdev ices
Ġtrad ers
Ġpeter borough
wor tley
Ġpl us
Ġhal ifax
Ġconstitu tional
18 7
ci als
Ġmac mill
Ġkenn eth
Ġrap ed
Ġrap id
Ġspe aking
Ġlegisla tor
Ġsuper ior
car on
Ġta ekwondo
Ġju ho
Ġspec ific
ht wine
urs es
urs ing
Ġstart up
Ġset tle
Ġfellow ships
Ġtheat ers
Ġnom uken
Ġcommit tees
ste fan
uz h
uz on
iss ance
Ġnat Ã¡n
Ġnat west
bal led
lam bert
war e
Ġball ot
Ġpet ya
tel bruck
Ġob ama
Ġob last
Ġanth rop
Ġturn ing
Ġgra ce
Ġkh ulna
Ġko uba
Ġray yan
Ġstr asbourg
Ġmex borough
Ġbron x
Ġfreder ic
Ġsilver head
yo ung
Ġsav annah
Ġpast o
Ġlor enz
Ġke vis
Ġchrist en
Ġchrist ine
Ġcommun ist
Ġmiddle weight
Ġif a
Ġpres byterian
Ġreal ity
Ġ184 4
Ġ184 7
Ġabd el
Ġprogram me
ĠjosÃ© e
Ġfer enc
Ġhold ings
Ġdri ving
Ġdec ided
Ġform ation
Ġtrans cend
Ġsat urn
Ġsat urday
Ġng onidzashe
Ġtal es
Ġtal ents
Ġgar rison
Ġstre ak
Ġstre ets
Ġvol ume
Ġvol unte
Ġexp ress
Ġpainting s
Ġmartin ique
Ã¢ tel
Ġsar atov
Ġcle m
Ġcle mente
Ġfif ty
Ġfif teen
Ġwrit ings
Ġhand el
Ġnik itin
Ġra il
Ġra unk
Ġappearances a
Ġdoctor s
Ġdoctor ate
Ġinvol vement
Ġachie ve
Ġsas aki
Ġsher borne
Ġscreen ed
Ġoxford shire
Ġstatis tician
mor rison
pa ik
Ġcred it
Ġhill s
Ġrecogn ize
Ġrecogn ise
Ġhighest singlesranking
Ġmagaz ines
Ġargent inian
Ġgy m
Ġash ley
Ġvas ile
Ġ179 9
Ġadd ress
Ġadv entures
Ġdesc rib
Ġliber ia
Ġliber ties
Ġparticip ate
cas ter
cas ts
Ġsi wan
Ġsi adabida
Ġbang u
Ġmach ico
Ġthem es
Ġdown load
Ġeast enders
Ġconfer ences
Ġcaptain s
Ġbrian ne
Ġsingles record
Ġsingles titles
Ġcontin ue
Ġsask ato
13 67
lor enzo
tr adition
Ġpot che
Ġpot tendorf
Ġhu achipato
Ġhu ancayo
Ġhear ts
Ġjak e
Ġren ato
Ġren owned
Ġever ly
Ġserge ant
Ġmovement s
Ġelect ric
Ġelect ronics
Ġdefense man
can hoteiro
do ubles
tan imoto
Ġic tr
Ġic onic
Ġaut om
Ġaut op
Ġpir Ã¡ti
Ġron ald
Ġron nie
Ġconserv ation
Ġhalf back
nik ola
Ġpers polis
Ġfern s
Ġmain ly
Ġgib raltar
Ġluc y
Ġluc iano
Ġkim ber
vet te
Ġbreak ing
Ġatlan te
Ġatlan tics
pos ed
à¸ ±
ĠÅ ŀ
ĠÐ Ĳ
ĠÐ ĳ
Ġsug ar
Ġmi les
Ġkw azulu
Ġsele ctors
Ġcoul son
Ġcommand ant
Ġquarter ed
Ġmiddles ex
Ġangel o
fran cis
rid ers
Ġbudd ha
Ġfund ed
Ġfund ing
Ġflo yd
Ġfair mont
Ġhuman ities
Ġnar rated
Ġnar row
Ġanal og
Ġgal way
Ġgal rani
Ġkill ian
Ġvac ancy
Ġ06 8
Ġpod okesa
Ġindones ian
Ġext ra
Ġext ant
Ġbroad casts
Ġpioneer ing
29 7
33 1
zi ad
à´ ¿
Ġsus anna
Ġsus pect
Ġpur ley
Ġpur ple
Ġpur suit
Ġpur pose
Ġfron tier
Ġmend ota
Ġmend els
Ġmold avian
Ġhor se
Ġhor ror
Ġhur ling
Ġnet works
Ġcham plain
Ġven katalakshamma
Ġlet ter
Ġmarc os
Ġconc ent
Ġconc rete
Ġcommer cials
Ġjoh anna
Ġjung le
Ġcorpor al
Ġcorpor ate
Ġturned pro
Ġresting place
Ġglobal ization
Ġell en
Ġfel ix
Ġfac ed
Ġfant astic
Ġwild cats
Ġold est
amal abhivamsa
char lie
Ġdeal ing
Ġeff ort
Ġles ly
Ġles sons
Ġcond itions
Ġstefan o
Ġstefan ie
Ġira qi
Ġcamer oon
Ġachievement s
Ġmotor ing
Ġorthodox y
gi ovanna
gro up
ĠØ §ÙĦØ
Ġid elphonse
Ġpra ised
Ġpos th
Ġpick ed
Ġos wald
Ġhang ed
Ġtu omas
Ġton i
Ġton ight
Ġton etti
Ġtam per
Ġstaff ordshire
Ġvinc enzo
Ġattemp t
Ġspr int
Ġmee gan
Ġcompan ion
lar rousse
nat al
pre viously
Ġess ay
Ġess endon
Ġsad ie
Ġsang ita
origin ally
Ġpap er
Ġpay an
Ġpay ne
Ġmir anda
Ġdro pped
Ġdat u
Ġanc ram
Ġjes us
Ġjes sie
Ġlord s
ande z
Ġeug eniu
Ġvie ux
Ġshir t
open result
Ġpartner ship
Ġpho ebe
ĠÃĸ dÃ¶n
Ġmake up
Ġspeed way
Ġdoubles record
Ġdoubles titles
Ġbanglad eshi
Ġsed ita
Ġbot any
Ġwinn ers
Ġarag on
Ġegy ptian
Ġroll ing
Ġshary l
Ġqualif ier
Ġvocalist s
Ġmagn ate
Ġsurv ived
Ġsurv iving
ĠandrÃ© ia
nel son
par ents
Ã± a
Ġsab ha
Ġbai ley
Ġcur tis
Ġpakh tunkhwa
Ġfurn iture
Ġfurn aces
Ġwa ve
Ġhot spur
Ġni all
Ġni agara
Ġinj ury
Ġinj uries
Ġanti qu
Ġtenn is
Ġtrum an
Ġtrum pet
Ġtrum bull
ĠgÃ¶ tting
Ġkame hame
Ġplayoff s
Ġcous ins
Ġmob b
Ġtill man
Ġsuff ering
Ġcharl ton
Ġcharl otte
Ġclar ke
Ġclar rie
Ġmonarch y
Ġregard ing
Ġadvoc acy
Ġpsychiat rist
Ġfriend s
Ġinvestig ative
Ġinvestig ating
through out
Ġparaguay an
cious ness
hon neur
hon orific
sub sequently
Ġå ħ
Ġè ĥ
Ġsit com
ĠsÃ© tif
Ġput rajaya
Ġfitz gerald
Ġhaz el
Ġhaz lett
Ġnav ar
Ġnav al
Ġnav ig
Ġins warm
law rence
Ġget ashen
Ġkee per
Ġarm ory
Ġstak e
Ġstran ge
Ġstran ger
Ġchern o
Ġsex ually
Ġlev y
Ġlev ski
Ġproper ties
Ġmarket ing
Ġexhib itions
Ġbests elling
Ġmcne ill
Ġholy oke
Ġcommunic ation
Ġbroadcast ing
Ġtrinidad ian
Ġlokomotiv a
cm g
now iec
Ġbes sie
Ġbes anÃ§
Ġthongk hosiem
Ġfrick ley
ĠmÃ¼ n
Ġhi atus
Ġdur ham
Ġdest royer
Ġlith uania
Ġrw andan
Ġleon id
Ġleav enworth
Ġexten sive
Ġperu vian
Ġterrit ory
Ġterrit ories
atern al
Ġmacc lesfield
Ġkras nodar
Ġmuney oshi
Ġrespon sibilities
ĠÃĸz tÃ¼r
author ed
anth ony
Ġbry n
Ġbab e
Ġbah onar
Ġfun ction
Ġmv v
Ġwrest ling
Ġopp onent
Ġhul se
Ġduch y
Ġduch ess
Ġtac tics
Ġground s
christ opher
Ġkap pa
Ġrib bon
Ġuns uspe
Ġvilla in
Ġuniver siteit
Ġcov entry
Ġprom ising
Ġcollab orated
Ġcolomb ian
Ġenco un
Ġrecover ies
Ġbrig ade
Ġbrig adier
Ġzar gham
195 4
Ġeven ing
Ġpeak ed
ĠquÃ© bec
Ġqueens land
Ġbelie ve
Ġbelie ved
Ġportray al
Ġmatte o
Ġsloven ian
Ġsurge on
Ġturnt abl
Ġremain ing
Ġepiscop alian
Ġemploy ee
Ġblood stain
Ġwitness ed
Ġsynth esiz
Ġpentath lon
Ġzimbabwe an
bu ildings
ect s
jim my
mc manus
writ ers
Ġcow boys
Ġcly de
eno ord
Ġpard ee
Ġpard ubice
Ġpeng iran
Ġmash up
Ġols en
Ġnico laus
Ġandre j
Ġkad una
Ġkick ed
Ġkais er
Ġkais erslau
omm un
Ġstor m
Ġstay ed
Ġet telbruck
Ġech l
Ġalc azar
Ġvital ie
Ġcop ies
Ġprote ction
Ġlah ore
Ġspokes man
Ġcomment ator
Ġmans laughter
Ġmanif esto
Ġkne w
Ġexcell ence
Ġevol ved
Ġmonte go
Ġlegend ary
Ġbelong ed
Ġarchae ology
Ġpanel ist
Ġveter an
Ġveter ans
Ġdiscip lines
Ġfaith ful
Ġinnoc ence
Ġinnoc enzo
Ġmaxim ilian
Ġidenti fied
Ġpunj abi
Ġarnold o
bed abrata
hung ary
lou is
may assa
Ġiz et
Ġsind hu
Ġbak san
Ġbell mare
Ġclo ugh
Ġther avada
Ġmald ives
Ġwu han
Ġwol ves
Ġdak ota
Ġnand amalabhivamsa
Ġlump ur
Ġlomb ard
igg ins
Ġkin shasa
Ġrefor med
Ġarsen al
Ġrah imi
Ġforec los
Ġsty led
Ġsting rays
Ġviet nam
Ġwhar f
Ġtem per
Ġpoem s
Ġapost le
Ġorator io
Ġtit ans
Ġedm unds
Ġadap tation
Ġwarri ors
Ġharris burg
Ġswitch backs
Ġcorinth ians
Ġsaud i
project s
Ġaccoun ts
Ġglou cester
Ġcaus es
Ġrevolution ary
Ġstrate gies
Ġfrederik shavn
Ġconcern ed
Ġultim ately
Ġbotan ical
Ġjohannes burg
Ġdinos aur
Ġtaiwan ese
Ġsymbol ism
Ġhurrican es
ĠÅģÄĻcz na
249 5
kow in
vik tor
àµ ģ
Ġaus chwitz
Ġski ing
Ġsib lings
Ġcust om
Ġthre at
Ġpne umoc
Ġfigh ter
Ġfra ud
Ġfion nbar
Ġfried rich
Ġmou illier
Ġmati lda
Ġmainst ream
Ġhers elf
Ġhend rik
Ġjav in
Ġjamal ul
Ġgabri el
Ġlund ahl
Ġllo yd
Ġkig ali
Ġark ansas
Ġrar ely
Ġric ardo
Ġyr jÃ¶
Ġalum nus
Ġalph a
Ġleaf s
rah manyam
Ġroch dale
Ġrosen borg
Ġimpro vis
Ġlad ies
Ġlaunch ed
Ġsha un
Ġprec urs
opendoubles juniorresult
Ġtil ley
sela er
Ġrepe atedly
Ġappl ied
Ġexam iner
Ġpersi ba
Ġelis abeth
Ġtriath lete
Ġamass ed
Ġgrow th
Ġscotts dale
Ġerick son
Ġtraff ord
Ġbeng als
Ġryd berg
Ġmyr tle
Ġcongre gation
Ġsett ler
Ġgarner ed
Ġstockhol m
Ġokina wa
Ġconvic ted
Ġintegr ity
appear ances
Ġcinemat ographer
Ġwheel chair
Ġsemif inals
Ġmotorcy cle
Ġmahar ash
Ġnizhn y
Ġgrenad ines
Ġprosecut ors
Ġbhai ya
Ġensemb le
Ġwinds or
Ġuniversid ad
Ġencour aged
Ġconfirm ation
Ġqualific ation
Ġintellect ual
Ġphilanthrop ist
bati llus
blo om
cron jÃ©
fst room
iÃº ma
iyes por
kol oss
lce a
met al
pod ium
penc il
poss ner
tre vor
Ġtic ket
Ġster ling
Ġsos nowiec
Ġsust ain
Ġsiv asspor
Ġsok ol
ĠsÃ¼ per
Ġbure au
Ġbiath lon
Ġcric iÃºma
Ġcrum lin
ĠthÃ¼r inger
Ġthail and
Ġthresh old
Ġpors che
Ġpadu a
Ġpurs ue
Ġfey enoord
Ġfais al
Ġfumb les
Ġfotb oll
leutn ant
Ġmong olia
Ġmaw r
Ġmersey side
Ġmumb ai
Ġwange chi
Ġoce an
Ġosh rat
Ġhary ana
Ġdhar ma
Ġdumon t
Ġnuc le
Ġnure mberg
Ġango la
Ġtati ana
Ġjagu ars
Ġgans u
elck e
charm ian
Ġklub i
Ġkab ylie
Ġkair at
Ġkyl wos
Ġkual a
Ġretain er
Ġrens selaer
Ġrinz ai
Ġtoled o
Ġtope ka
Ġisab ella
Ġstutt gart
Ġyah oo
Ġyev na
Ġetz ella
Ġalou ettes
Ġaloy sius
Ġchaud hary
Ġashl ie
Ġheiden heim
Ġvri je
Ġvang uard
ĠvÃ¢ lcea
Ġsebr ing
Ġleip zig
Ġleop old
Ġnationalcom petition
Ġrough riders
Ġtemor a
Ġbeled iyespor
Ġimmed i
Ġnebel horn
Ġneuch Ã¢tel
Ġlafay ette
Ġlauder dale
Ġnewcas tle
abbre v
Ġbourn emouth
Ġbobru isk
Ġbogot Ã¡
Ġcarriac ou
Ġenforce ment
Ġmoiz an
Ġmolec ular
Ġpolins ki
Ġparram atta
ĠbrÃ¸ ndby
Ġzandon adi
Ġformerchore ographer
Ġexact ly
Ġafldra ft
Ġbarris ter
Ġguadalaj ara
Ġmediterran ean
Ġmidsum mer
bylu iginovi
Ġamher st
Ġyoutub e
Ġregga e
Ġdisband ed
Ġdismiss ed
Ġvicenz a
Ġolympiak os
Ã¼sey in
Ġnorthampton shire
Ġnorthfle et
Ġzephy rs
Ġtribec a
Ġxama x
Ġxylokast ro
Ġintercep tions
ĠÃļjp est
Ġesteg hlal
Ġarchdu ke
Ġarchduch ess
Ġavtozap chast
Ġemphys ema
Ġnovgor od
Ġkaroli ina
Ġrelativ ity
Ġsurreal ism
Ġbalasub rahmanyam
Ġmereng ue
armstad t
Ġvojv odina
Ġividel iza
Ġmacmill an
Ġtranscend ence
Ġsaskato on
Ġpotche fstroom
doubles ranking
Ġpodokesa urus
Ġmendels sohn
ĠgÃ¶tting en
Ġkamehame ha
ĠbesanÃ§ on
ĠÃĸztÃ¼r k
Ġunsuspe cting
Ġzargham i
Ġsynthesiz ers
Ġkaiserslau tern
Ġpneumoc occal
Ġmouillier at
/ ]
/ ~
0 13
2 20
2 67
2 89
2 86
3 4
3 6
3 76
4 00
4 33
4 40
5 7
5 35
6 1
6 2
8 87
9 1
9 9
a on
a us
a ire
a ism
a tics
a urs
a xel
a Ð½
a Ã±a
b i
b ol
b ig
b ad
b ear
b ap
b age
b ry
b ins
b az
b ling
b ula
b akh
b une
b ovich
b hivamsa
c in
c ot
c ut
c ly
c art
c ie
c ip
c ore
c start
c ents
c ador
c amer
c row
c ott
c aine
c lay
c esto
d h
d n
d q
d as
d ad
d ou
d est
d if
d eb
d ress
d ance
d na
d ien
d house
d oria
d ingen
d voÅĻÃ¡k
d armstadt
e u
e z
e on
e ti
e le
e ch
e ge
e ers
e qu
e ira
e astern
e lect
e ÑĤ
e edd
f g
f i
f ed
f ur
f ac
f ri
f ly
f ell
f ok
f ast
f ron
f uk
f are
f eld
f unded
f isher
g p
g ir
g ame
g om
g ard
g ue
g ion
g ency
g li
g dr
g uer
g ordon
g ressive
g non
g illian
g arde
h or
h ed
h us
h il
h ad
h ut
h ard
h ra
h art
h ai
h ans
h ari
h enz
h ima
h ovo
h room
h alse
h ampton
h aving
h reek
h iggins
i ard
i ers
i vers
i hl
i Ã³
i ova
i har
i Ã£o
i ott
j j
j n
j on
j us
j om
j uc
j aw
j ones
j no
j its
j azz
j asper
j evac
k g
k m
k r
k ate
k ent
k ap
k ia
k ut
k ers
k eb
k ok
k ies
k ara
k laus
k opp
k onstantin
k illers
l f
l m
l r
l la
l ut
l ist
l og
l isa
l udw
l enny
l cb
l assic
m i
m is
m ol
m il
m and
m ick
m ik
m io
m ma
m ory
m ina
m ys
m ons
m ese
m ike
m ony
m sk
m acy
m umon
m aking
m ills
n t
n ear
n ord
n ov
n Ã©
n Ã¡
n ica
n elle
n olan
n adeem
n ielsen
o z
o an
o en
o ch
o ire
o und
o qu
o ons
o que
o tee
o tis
o urne
o ise
o ja
o zen
o este
o aks
p m
p es
p ad
p ers
p ain
p av
p ts
p ubl
p rac
p yle
p akist
p ret
p worth
p df
p athi
p enter
q bloom
r ar
r un
r and
r ong
r ina
r ors
r int
r andy
r imin
s l
s un
s il
s ur
s ity
s up
s ud
s ec
s ung
s ley
s ington
s lav
s worth
s ucceed
s wick
s ardar
s elling
s vetlana
s myth
t un
t at
t ag
t ou
t land
t rick
t uddenham
u le
u rb
u tle
u ous
u ell
u tist
u que
u Äĩ
u ila
u ji
u jan
u wal
u aries
v c
v l
v ol
v ia
v oc
v iz
v ina
v ide
v ira
v iew
v ii
w p
w en
w is
w he
w inger
w olf
w ata
x y
x ic
x im
x ington
x ual
y ed
y us
y ag
y si
y ev
y ca
y ards
y rd
y assin
y Ä±ldÄ±ray
z ed
z ia
z ers
z ran
z ell
z ze
z ani
z hu
z ni
z iana
z anne
z anotti
z uy
z uh
z wol
¢ å¿Ĺ
£ ķ
¤ ì
¥ Õ
¦ Ļ
§ ¿
§ Ħ
° ¢å¿Ĺ
± ç
² ł
¸ ã
» ĥ
½ el
Ã ¬
Ã ī
Å ı
Å ĵ
Å ł
È ĺ
È Ľ
É Ļ
Ê ĥ
Ê Ĵ
Ë Ĳ
Î ¿
Ï ĥ
Ñ Ĩ
Õ «
Õ ¥Õ
Ö Ģ
× ĳ
Ø ¯
Ù ģ
Ù Ī
å °
å Ł
æ ¸
æ Ľ
æ ľ
ì Ĺ
ì ²ł
Ġ >
Ġ Õ
Ġ ä
Ġ ê
Ġ ik
Ġ ign
Ġ à¸
Ġ à´
Ġ à®
Ġ Ùħ
Ġ Èĺ
Ģ ¸ã
Ĥ ¨ì
ĥ İ
ħ sa
Ĩ lf
İ le
ı ¯
Ĳ è
ķ à®
ĺ à¸
ĺ ¤ì
ĺ ì²ł
Ļ à¸
ļ Ï
Ŀ ´
Ŀ Ĵ
Ŀ ĺì²ł
Ń Ø³
Ġa j
Ġa u
Ġa y
Ġa ti
Ġa rb
Ġa id
Ġa hn
Ġa mp
Ġa qu
Ġa vis
Ġa ene
Ġa ired
Ġa uf
Ġa zer
Ġa head
Ġa yr
Ġa lain
er l
er or
er ic
er ra
er ich
er ous
er ik
er ne
er ved
er tis
th or
th at
th ri
th ames
th uen
in v
in as
in ate
in os
in the
in ics
in iti
in tin
in kov
in xs
on j
on te
on ing
on ce
on el
on ly
on Ã©
on na
on cesto
an ch
an ey
an ov
Ġs ti
Ġs tic
Ġs ue
Ġs cc
Ġs ich
Ġs ort
Ġs ass
Ġs ull
Ġs ah
Ġs tern
Ġs ile
Ġs no
Ġs ween
Ġs ize
Ġs earch
Ġs vin
Ġs Åĵ
or er
or is
or ed
or ow
or ial
or ative
or row
or lar
or ovna
or lÃ©
ti le
ti se
ti fied
ti bha
Ġb k
Ġb ear
Ġb ath
Ġb ust
Ġb rom
Ġb if
Ġb od
Ġb ere
Ġb ild
Ġb Ã¼
Ġb ene
Ġb ij
Ġb ott
Ġb acon
Ġb ible
Ġb aman
Ġb oca
Ġb undes
Ġb fg
ar es
ar it
ar ol
ar io
ar ph
ar tist
ar ical
ar eg
ar ning
ar afat
ar tie
ar thy
Ġc ac
Ġc um
Ġc res
Ġc ry
Ġc ash
Ġc ory
Ġc Ã¡
Ġc ind
Ġc urt
Ġc iting
Ġc pac
Ġc umberland
Ġc urses
en r
en tion
en ary
en ie
en ens
en ough
en uri
en asa
en adi
en thood
en kap
Ġth om
Ġth orn
Ġth ames
Ġp or
Ġp si
Ġp ul
Ġp ub
Ġp ly
Ġp ill
Ġp ry
Ġp ah
Ġp to
Ġp ier
Ġp az
Ġp anc
Ġp ba
Ġp emb
Ġp ais
Ġp ays
Ġp owell
Ġp app
Ġp iece
Ġp ortion
Ġp upp
Ġp pd
Ġp vc
Ġf is
Ġf ears
Ġf res
Ġf ine
Ġf ah
Ġf ann
Ġf aw
Ġf ans
Ġf inger
Ġf ior
Ġf uel
Ġf lav
Ġf sa
Ġf idel
Ġf uen
Ġf encer
Ġf avour
al an
al la
al up
al ers
al ore
al go
al ford
al wins
al encar
le um
le ge
le ased
le berg
le web
Ġm f
Ġm x
Ġm es
Ġm ight
Ġm iz
Ġm az
Ġm af
Ġm ile
Ġm ace
Ġm oss
Ġm ba
Ġm ude
Ġm ondo
Ġm iche
Ġm aternal
Ġw ed
Ġw ig
Ġw ear
Ġw ick
Ġw end
Ġw ine
Ġw ant
Ġw cl
Ġw ah
Ġw ade
Ġw aj
Ġw oll
Ġw rist
Ġw ahl
Ġw ives
Ġw ÅĤ
Ġw acker
Ġw upper
Ġw ants
Ġw rong
te t
te v
te se
te min
te lsb
Ġthe ms
Ġthe ories
Ġthe ological
is ch
is ka
is po
is rael
is matic
Ġo c
Ġo t
Ġo ber
Ġo um
Ġo ud
Ġo ire
Ġo ss
Ġo ll
Ġo uz
Ġo mb
Ġo este
Ġo onj
Ġh m
Ġh ath
Ġh ain
Ġh ach
Ġh ai
Ġh af
Ġh ood
Ġh ailed
Ġh app
Ġh uge
Ġh nk
Ġh rh
Ġh Ã¼seyin
re a
re g
re l
re m
re ve
re uth
re alist
re iche
Ġd v
Ġd y
Ġd al
Ġd as
Ġd ot
Ġd up
Ġd ts
Ġd ik
Ġd Ã©
Ġd ang
Ġd ated
Ġd enn
Ġd iam
Ġd af
Ġd ons
Ġd ale
Ġd rew
Ġd rey
Ġd ush
Ġd usty
Ġd ileo
Ġn k
Ġn r
Ġn er
Ġn an
Ġn ess
Ġn ak
Ġn ach
Ġn ah
Ġn aw
Ġn ite
Ġn ij
Ġn wide
Ġn inth
Ġn asser
Ġn ero
Ġn iece
Ġn ursing
Ġn wp
Ġn enadi
as in
as ar
as si
as px
as ota
as tical
as avy
as aki
Ġin ou
Ġin ts
Ġin sti
Ġin val
Ġin fielder
Ġin ning
Ġin ste
Ġin fan
Ġin fr
Ġin line
Ġin ches
Ġin cheon
am y
am or
am ing
am ie
am end
am ateur
Ġan at
Ġan ger
Ġan ya
Ġan war
Ġan ja
Ġan tan
Ġan kar
es i
es tion
es ian
es ki
es chi
es heim
la ce
la iv
la va
la ura
la kov
la oise
ic i
ic u
ic ed
ic ation
ic ist
ic les
ic ies
ic ting
ed ers
ro a
ro si
ro ok
ro ger
ro ws
ro kes
ro ÃŁ
ir y
ir Åį
ir ense
Ġ20 4
Ġ20 7
Ġt c
Ġt p
Ġt x
Ġt un
Ġt ag
Ġt ver
Ġt ut
Ġt ain
Ġt rom
Ġt ab
Ġt ys
Ġt aw
Ġt uf
Ġt Ã¼r
Ġt utor
Ġt Ã¶l
ing ue
ing ham
ing akash
Ġand ree
Ġj c
Ġj s
Ġj as
Ġj ol
Ġj ub
Ġj ong
Ġj ina
Ġj ive
Ġj Ã³
Ġj ays
Ġj esse
Ġj Ãº
Ġj mg
Ġj Å«
Ġj alis
Ġj inah
Ġj alom
Ġj icks
un i
un ting
un ited
un ya
un esse
un thor
Ġg orn
Ġg ap
Ġg ly
Ġg ers
Ġg ain
Ġg ich
Ġg ov
Ġg ma
Ġg az
Ġg one
Ġg au
Ġg lyn
Ġg lee
Ġg wang
Ġg uggen
Ġg oua
ce ased
ce pt
ce leste
el o
el ic
el ig
el ton
el ong
el les
el ves
el odi
el blue
us on
us ar
us han
us ual
us li
it as
it ter
it ted
it ational
it ated
it ania
it rea
ch ed
ch os
ch uk
ch eng
ch estnut
ch ika
ch oeller
ch Ã©ri
ch uzh
ol s
ol ent
ol od
ol lo
ol tz
ol itan
ol yevich
il le
il is
il ong
il yn
ur l
ur ation
ur ra
ur red
ur ance
ur ini
ent on
ent an
at l
at lan
Ġl k
Ġl t
Ġl is
Ġl ic
Ġl ow
Ġl if
Ġl Ã©
Ġl ies
Ġl ied
Ġl ans
Ġl inger
Ġl Ã¼
Ġl su
Ġl anding
Ġl una
Ġl enin
Ġl ingu
Ġl Ã©r
he e
he inz
he jiang
ber ra
ber ok
ber fl
ber well
Ġde ed
Ġde em
Ġde mp
Ġde leg
Ġde acon
Ġde cision
Ġde ceased
ig e
ig s
ig ore
ig rap
ig gered
Ġk c
Ġk il
Ġk ub
Ġk ly
Ġk ak
Ġk av
Ġk ry
Ġk ell
Ġk ael
Ġk ix
Ġk hl
Ġk ind
Ġk ep
Ġk yn
Ġk ari
Ġk rist
Ġk ids
Ġk app
Ġk orne
Ġk urd
Ġk Ä«
Ġk rav
Ġk assel
Ġk cmg
Ġre per
Ġre qu
Ġre ason
Ġre vis
Ġre gan
Ġre ev
Ġre be
Ġre lie
Ġre form
Ġre tained
Ġre elected
Ġre illy
Ġre asin
ame y
ame less
Ġar c
Ġar ia
Ġar ra
Ġar ray
Ġar kh
Ġar till
Ġar anz
st and
st ock
st uart
Ġr c
Ġr g
Ġr at
Ġr all
Ġr ab
Ġr ip
Ġr ong
Ġr Ã©
Ġr ated
Ġr az
Ġr ating
Ġr ani
Ġr ays
Ġr uck
Ġr za
Ġr ural
Ġr ise
Ġr pa
Ġr igor
Ġr are
Ġr head
Ġr ii
Ġr kv
Ġr amey
Ġwas ser
Ġfor a
Ġfor k
Ġfor der
Ġfor rest
ad ir
ad im
ad man
ad ys
ad ult
ad Ã³
ad lin
ad ho
ad hy
ad ise
ag ena
Ġto pped
Ġto bak
Ġto gli
Ġto xic
si x
si tive
si ph
ter y
ter ey
ter son
ter off
om on
om ar
om ba
om berok
im g
im ran
im ens
Ġis is
Ġis les
Ġis ma
Ġis bn
ear cher
ear head
and h
and us
and ers
and ona
Ġst al
Ġst ork
Ġst ab
Ġst ok
Ġst amp
Ġst ade
Ġst ood
Ġst able
Ġst int
Ġst ints
Ġst our
Ġst ÄĻ
Ġst roke
Ġst unned
Ġst rokes
ul o
ul er
ul in
ul ted
ul ary
Ġy ard
Ġy ue
Ġy ang
Ġy ael
Ġy asu
Ġy assin
Ġy east
Ġy von
Ġy adav
Ġy Ä±ldÄ±ray
Ġy oko
Ġy uzon
Ġy ertis
pla za
pla tens
Ġe u
Ġe cc
Ġe if
Ġe bel
Ġe ile
Ġe ury
Ġe worth
Ġe uf
Ġe wart
Ġe instein
Ġe ihl
Ġal m
Ġal ly
Ġal to
Ġal one
Ġal amed
Ġal don
Ġal igned
Ġal gi
Ġal ois
Ġal ready
Ġch r
Ġch oc
Ġch rom
Ġch ore
Ġch ant
Ġch uck
Ġch eng
Ġch Ã¢
Ġch ronic
Ġch alwins
ve u
ve er
ve mber
ve tt
ac al
ac le
ac ity
ac io
ac esh
Ġas c
Ġas ch
Ġas ador
Ġas cen
ver ly
ver tis
ver hampton
ot ar
ot til
Ġun b
Ġun d
Ġun op
Ġun con
Ġun rest
Ġun usual
Ġun teroff
orn o
all star
id ar
id ay
id jan
id ental
Ġhe m
Ġhe av
Ġhe aly
Ġhe gel
Ġhe ilong
ap o
ap as
ap at
ap pen
ap eta
ap artheid
Ġon wards
igh ted
igh bors
ia o
ia er
ia bÃ¡
Ġv c
Ġv ag
Ġv iz
Ġv amp
Ġv aul
Ġv ander
Ġv ÃŃ
Ġv ij
Ġv Ã¤
Ġv idu
Ġv ault
Ġv entures
Ġv rats
Ġv inkov
Ġv adim
ay an
et alli
ut o
ut ter
ut ros
ut ality
ub i
ub ine
ub io
ow o
ow es
ow ed
ow ers
Ġse mar
Ġse af
Ġse ki
Ġse ance
Ġse vo
Ġse bas
Ġse bovich
Ġat kv
Ġat mos
Ġpla te
Ġpla ger
Ġpla tin
Ġle th
Ġle igh
Ġle ss
Ġle sk
Ġle cture
Ġle xington
Ġle otar
ath e
ath cly
mer li
Ġwh ig
Ġwh alers
ist encia
up on
up ort
up pen
up ret
ri enne
ard ari
ra ch
ra hi
Ġ18 2
Ġ18 00
Ġ18 24
Ġplay back
Ġplay boys
um o
um al
um ously
Ġnational ism
Ġro ma
Ġro sk
Ġro ds
Ġro shi
Ġro uge
Ġro tter
Ġro elcke
os omes
os vÃ¡
os cope
art a
ith ness
Ġfo ul
Ġfo ley
Ġfo yle
Ġfo untain
Ġ3 21
Ġco b
Ġco x
Ġco up
Ġco vers
Ġco ff
Ġco ck
Ġco inc
Ġco de
Ġco ordin
Ġco tia
Ġco caine
Ġco temin
Ġpro p
Ġpro ton
Ġpro mp
Ġpro test
Ġpro ble
res o
res Ã¶
Ġte ys
Ġte ix
Ġte hreek
ge e
ge i
ge off
ust end
Ġbe th
Ġbe all
Ġbe ats
Ġbe ira
Ġbe ek
Ġbe gin
Ġbe ef
Ġbe juc
Ġbe zuh
Ġbe verly
Ġim g
Ġim it
Ġim ple
Ġim itation
Ġne i
Ġne al
Ġne at
Ġne ath
Ġne oc
Ġne uro
Ġne eds
Ġne bula
oc ation
oc rin
ue va
ue Ã±
der s
der ek
der minster
der kerk
Ġpo sitive
Ġmar l
Ġmar sh
Ġmar ina
Ġmar ek
Ġmar vell
Ġmar inko
Ġmar tha
Ġmar harajah
Ġmar guer
Ġmar ilyn
ie u
sh in
sh on
sh ar
sh man
sh ore
sh ao
sh anes
Ġla g
Ġla y
Ġla ur
Ġla ge
Ġla ck
Ġla test
Ġla da
Ġla bs
Ġla ude
Ġla cro
Ġla pworth
Ġsp y
Ġsp it
Ġsp ot
Ġsp ell
Ġsp ons
Ġsp ino
Ġsp are
Ġsp atter
Ġsp irelja
Ġsp has
Ġsp earhead
Ġsp acesh
ud as
ud ad
ud ok
ud io
ball er
ess o
ess es
ess ed
Ġcon fl
Ġcon vention
ord recht
ion e
rom eo
Ġcom edic
est s
est own
est one
ich i
ich y
ill on
ill or
ill iard
ish in
if er
if ts
if eng
Ġnew est
Ġnew ry
Ġnew bury
Ġjo el
Ġjo ond
Ġjo anne
Ġsh am
Ġsh el
Ġsh ur
Ġsh ia
Ġsh ip
Ġsh antz
Ġsh ips
Ġsh onan
Ġsh reve
Ġsh udok
Ġcol d
Ġcol chester
ick y
ick le
end an
end ar
end it
end um
ran ton
Ġcap p
Ġcap t
Ġcap elle
Ġcap tured
Ġcap acity
Ġap artheid
Ġap ache
als o
Ġme com
Ġme ans
Ġme itan
Ġme zzo
Ġme mory
Ġme thuen
od ica
od orovna
Ġby ung
ry Åį
ab led
ab akh
ab outs
ab ala
ab ility
ab ulary
eb el
eb uy
eb ourne
eb rook
vers ity
ts ville
ip a
ip e
ip as
ip ur
ip pe
so on
so ph
ach ed
ach ita
Ġ6 30
Ġser e
Ġser Ã©
Ġser ial
Ġser ena
Ġser eg
Ġ4 000
Ġbo h
Ġbo p
Ġbo ing
Ġbo bo
Ġbo yle
Ġbo hem
Ġbo tev
Ġbo utros
Ġwho le
ire ct
uc ed
uc atu
iv ar
iv ia
iv iÃ¨re
iv oire
Ġ5 6
Ġ5 74
ton e
ton i
ton y
Ġor an
Ġor ek
Ġor li
Ġor ient
Ġor ange
Ġor anges
ik ov
ik ker
ik ka
und ing
ell o
Ġsc en
Ġsc unthor
Ġsc ranton
ong we
ong lo
ong sil
Ġcar lo
Ġcar ib
Ġcar na
Ġcar entan
Ġcar acal
ec a
ec k
ec ac
ec onn
Ġhas s
Ġhas hem
Ġhas him
ze era
Ġpre p
Ġpre par
Ġpre vention
Ġpre acher
Ġpre eti
Ġno urie
Ġno zze
Ġen h
Ġen tire
Ġen titled
Ġen rique
Ġmo gu
Ġmo yes
Ġmo hk
Ġmo ordrecht
op op
op ark
em ent
em pe
em aker
em ont
Ġstate d
Ġgo a
Ġgo og
les tial
les wig
Ġclub update
Ġrec all
Ġrec order
sion s
own a
own s
Ġocc urred
Ġposition ing
Ġjul io
og y
og ue
og ah
Ġpol icies
ok en
ok ens
ok ka
ok uz
00 00
ast ru
ast ronaut
Ġaugust a
ant o
ff er
ff ner
ff rey
Ġman or
Ġman mo
Ġman ual
Ġman ville
Ġman oe
Ġman uell
Ġher e
Ġher ms
Ġher rn
Ġher pet
Ġher ingen
ren i
ren owned
ctor ate
Ã© n
Ã© ah
Ġ7 00
Ġ7 27
ugh borough
Ġu a
Ġu hl
Ġu fc
Ġind y
Ġind iv
Ġind ict
Ġind irect
Ġpar al
Ġpar am
Ġpar ticle
Ġpar ach
Ġpar ade
Ġpar amil
Ġpar ks
Ġpar aÃ±a
Ġpar enthood
Ġpar adise
Ġeng rac
ang o
ang ard
ang ai
Ġkn ock
sid af
sid iary
sid econn
Ġti mber
Ġti pp
Ġti zi
Ġti bet
Ġti ziana
Ġti shman
Ġed en
Ġed ith
Ġed ge
Ġed ited
Ġed berg
Ġed di
iz u
iz ier
iz lis
iz hik
Ġbr u
Ġbr utality
Ġbr endan
Ġteam mate
Ġsch oo
Ġsch eme
Ġsch oen
Ġsch winger
Ġsch leswig
Ġnove let
Ġag encies
Ġag gressive
Ġag arical
Ġmus ik
Ġmus cat
Ġmus hroom
Ġph elan
Ġph armac
Ġph ysi
ld om
ld Äģ
Ġsing s
Ġcan ton
Ġcan ons
Ġcan nes
Ġcan oe
Ġcan vas
Ġcan berra
Ġpr ide
Ġpr int
Ġpr inter
se x
cl inton
cl endenin
Ġsep ar
Ġcolle agues
Ġ10 2
Ġfin ally
Ġcomp ila
Ġcomp lic
Ġcomp aris
Ġ12 2
Ġ12 3
Ġ12 4
Ġ12 68
Ġ17 2
Ġ17 7
Ġ17 8
Ġ17 00
Ġ17 49
Ġ17 83
Ġ17 13
Ġ17 35
Ġ17 22
Ġ17 03
Ġ17 73
Ġ17 06
Ġ17 63
Ġ17 84
Ġ17 38
Ġ17 66
Ġ17 60
ma jor
Ġ15 3
Ġ15 4
Ġ15 7
Ġ15 8
Ġ15 83
Ġ15 67
Ġ15 35
Ġ15 45
Ġ15 72
Ġmin us
Ġmin im
Ġmin ens
Ġmin ors
Ġmin del
qu ency
qu ered
qu ipa
Ġass ign
Ġass aul
Ġass umed
Ġass ault
Ġass assin
Ġass andh
Ġ9 87
Ġrep ris
Ġrep uted
Ġrep utation
ah o
Ġgen es
Ġgen us
Ġi bane
Ġi wo
Ġi wata
Ġfil ial
Ġz est
Ġz sa
Ġz nam
Ġz hem
Ġz ouk
Ġz noj
Ġz hejiang
Ġz andona
Ġz ubi
Ġz ardari
Ġz ueva
Ġz abala
she im
Ġaust ro
Ġshe a
Ġyork town
19 18
19 26
19 33
19 22
19 40
19 88
19 85
19 59
19 43
19 47
19 02
bo b
bo y
bo th
bo yd
bo fey
Ġwork er
Ġwork ers
Ġwork ington
Ġwork sop
Ġad s
Ġad op
Ġad kins
Ġad mitted
Ġad mira
Ġad mission
Ġad ults
Ġad vertis
Ġad rienne
amp f
Ġdebut for
Ġdebut against
Ġdra w
ck er
ral to
ral iga
Ġ16 2
Ġ16 6
Ġ16 7
Ġ16 9
Ġ16 20
Ġ16 89
Ġ16 05
Ġ16 42
Ġ16 31
Ġwe a
Ġwe ier
Ġwe ather
Ġwe ep
Ġwe ho
Ġwe cht
Ġwe apon
the tic
Ġfilm ing
to ur
Ġformer training
ade e
Ġapp s
Ġapp end
Ġoff sh
Ġprofession nelle
Ġex or
Ġex tern
Ġex clud
Ġex ile
Ġex pen
Ġex po
Ġex cer
Ġex position
Ġex ists
Ġex tour
enn er
enn ale
Ġper j
Ġper kins
Ġper sik
Ġper leberg
Ġper sidaf
Ġcollege team
Ġbro ward
Ġbro ken
Ġac orn
Ġac tively
Ġac cep
Ġheight s
Ġit v
Ġsouth am
Ġsouth eastern
Ġtw in
Ġtw its
ann i
ann fÃ¼hrer
Ġ11 2
Ġ11 4
Ġ11 5
Ġ11 7
Ġ11 55
go ing
go vern
ins af
Ġcal c
Ġcal e
Ġcal das
Ġcal endar
ke la
ke ating
ke gee
Ġus c
Ġus k
Ġus ter
Ġus hima
Ġ13 0
Ġ13 1
Ġ13 4
ier i
Ġnor ton
Ġnor the
Ġnor wich
Ġnor oeste
Ġbar a
Ġbar r
Ġbar res
Ġbar ons
Ġbar ron
Ġbar rac
Ġbar row
Ġbar rie
Ġbar hap
Ġbar riers
Ġbar kell
Ġbar oque
Ġbar rel
Ġge oph
Ġge ography
Ġge elong
aj a
aj ic
az al
Ġwar p
Ġgu ine
Ġgu erra
atch es
Ġbat ang
Ġbat uque
Ġmed all
Ġmed ley
Ġger ry
Ġ14 4
Ġ14 04
Ġ14 70
Ġ14 64
Ġ14 50
Ġste yr
Ġste lla
Ġaustral asia
enc iano
Ġev an
Ġev olution
co ordin
mar u
mar ine
mar ried
mar cel
we iser
Ġ24 7
Ġmid get
Ġband camp
his m
Ġ25 5
Ġchar ter
Ġchar ted
Ġchar ities
Ġchar tered
Ġchar ismatic
Ġ28 8
Ġstat year
Ġstat ute
Ġstat utes
ati le
Ġback ed
Ġback up
Ġback field
Ġback hand
Ġwill ing
ys icist
Ġgr uff
Ġgr Ãª
Ġgr igore
Ġact uaries
Ġbri htwine
Ġall an
Ġall iance
Ġall bla
Ġlo y
Ġlo z
Ġlo bn
Ġlo ughborough
ner ini
Ġpresent s
Ġpresent ation
Ġpresent ly
ham a
ham bridge
led ged
sp or
sp ec
sp okes
Ġab c
Ġab l
Ġab us
Ġab andon
Ġab sol
Ġab road
Ġab idjan
Ġdef lec
Ġdef ending
Ġdef ensor
Ġcr uc
Ġir ty
Ġir kut
Ġha Åł
Ġha unting
Ġhar e
Ġhar um
Ġhar land
Ġhar ada
Ġhar rach
ne ath
ne xt
ne ighbors
Ġel o
Ġel le
Ġel am
Ġel ham
Ġel ise
Ġel mira
Ġel imin
Ġel Åĳ
Ġel dest
Ġel vira
ank er
ank hu
Ġso o
Ġso ught
Ġso unders
Ġso ongsil
Ġ21 0
Ġ21 2
Ġ21 5
Ġgoals a
Ġgerman ia
Ġ29 1
Ġ29 5
Ġcoach years
Ġcoach clubs
Ġlaw s
Ġlaw son
goals c
uth enthal
Ġear th
Ġear ldom
Ġactor s
Ġtr ent
Ġtr uda
Ġtr iggered
Ġpolitician s
air i
Ġsan s
Ġsan fl
Ġpe gas
Ġpe oria
Ġpe uge
Ġbl ame
Ġbl ast
Ġbl ends
Ġbl anty
Ġbut ter
tt y
Ġking fisher
Ġcl os
Ġcl ash
Ġcl ose
Ġcl inics
Ġcl assi
Ġdist ant
Ġmon ument
Ġmon onym
Ġmon key
Ġmon terey
aul ipas
ford shire
Ġrus hed
pe e
pe ople
inn ings
inn orow
Ġpresid io
cap es
ki yo
inc y
ens us
ens ack
Ġintern acional
Ġyear d
Ġyear start
Ġbra tis
Ġbra iner
Ġ26 1
Ġ26 6
olog ies
Ġmich elin
aw ak
Ġmade ira
ons oro
Ġcro yd
Ġcro pped
Ġcro sse
Ġhigh l
Ġhigh er
Ġover c
Ġproduc tive
ka epernick
vel la
Ġmis cond
Ġdire ction
Ġam n
Ġam bro
Ġam bient
Ġam andus
Ġam boy
Ġsm town
Ġdo or
Ġdo es
Ġdo ing
Ġdo om
Ġdo ors
Ġdo yle
Ġjames on
Ġstar gate
Ġcont ent
Ġcont racted
Ġcont ralto
ale ks
Ġpresident s
ile ged
Ġqu it
Ġqu estion
Ġqu incy
ern ie
Ġlast date
Ġlast for
Ġlast year
Ġlast against
ven ess
ven tional
ven katalakshamma
Ġafter wards
Ġda ud
Ġda eg
Ġda oud
Ġgro wn
field s
Ġru iz
Ġinternational ist
Ġalb any
Ġalb ions
Ġwhere as
Ġ31 7
com ing
com mit
ib ility
ib ebuy
Ġbus an
Ġbus ker
Ġreg his
Ġreg ister
Ġreg gio
Ġreg ime
Ġatt ained
Ġatt ribu
Ġatt ention
Ġatt ached
ron y
ron ed
ron age
ron tation
Ġale gre
Ġrele asing
mo en
mo hammad
Ġann ually
Ġann emar
Ġann ebrook
Ġlead s
Ġauthor ed
Ġauthor ised
ind on
Ġsw an
Ġsw ord
Ġsw inton
Ġsw adlin
Ġsw ifts
Ġsw indon
Ġsen iors
Ġsen eca
ender ed
Ġfl in
Ġfl on
Ġfl ight
Ġfl ick
Ġfl anker
Ġwal k
Ġwal t
Ġwal ks
Ġwal lab
Ġdistric ts
Ġdis till
Ġdis char
ha as
Ġmil ton
Ġho le
Ġho henz
Ġres c
Ġres earcher
Ġres ulted
Ġres istencia
Ġmaj estic
oll ern
ev ren
Ġsy ed
Ġsy zran
Ġthro at
Ġlou der
Ġolymp i
ram iah
ram ajic
Ġunder stud
Ġunder tak
ult ural
Ġlater work
Ġmanag es
her bert
Ġwell s
Ġ186 3
de an
de en
de cember
de ford
Ġpri est
Ġmc donald
Ġpop pen
Ġpop ulation
Ġje unesse
Ġleg uizamon
Ġleg iÃ£o
Ġ187 1
Ġrock ers
Ã³ d
Ã³ ria
Ã³ fok
Ã¼ tz
Ġother names
Ġcompe te
med ia
med ium
Ġup rising
Ġpit t
Ġout field
Ġout right
Ġnumber s
Ġlouis a
Ġbu xton
Ġbu cheon
Ġpat erson
Ġpat ronage
ald o
Ġalex andr
je ka
je annette
je zni
je ffrey
port al
port raits
Ġcas ino
Ġcas ual
Ġcas tell
Ġhel en
Ġresid ent
Ġbow er
Ġbow ral
Ġbow led
Ġbow ls
Ġcor Ã¡
Ġwest ford
Ġdem on
Ġdem os
na Ê»
Ġ? ?
Ġcons ul
Ġcons isted
Ġcons ciousness
Ġbase man
Ġnorth west
Ġnorth umberland
Ġnorth cote
Ġnorth western
Ġsa o
Ġsa vet
Ġsa iling
Ġsa eco
Ġsa enuri
Ġsk ill
Ġsk yl
Ġsk arph
Ġsal le
Ġsal ter
Ġsal uz
Ġfe odorovna
jo e
jo han
jo anna
jo sip
jo vetiÄĩ
Ġsup reme
Ġsup pression
Ġsong writers
Ġbusiness person
ep apa
rap hael
Ġdep aul
Ġval id
Ġval ues
Ġval ery
Ġunion ist
Ġgroup s
han ja
lin ary
ony ms
ual ity
Ġtitle holder
Ġmor avian
Ġrece ives
leg s
leg uizamon
Ġtri p
Ġtri be
Ġtri esa
Ġtri kala
Ġtri bune
Ġrank ing
ko laiv
sch warz
sch oeller
sch ulzer
sch oltz
Ġsho ul
Ġsil keb
Ġsim i
Ġsim one
Ġsim ple
Ġdan zig
Ġdan ubio
Ġden izlis
ba ud
cis m
Ġlong er
Ġx v
Ġx xx
Ġx iang
Ġcam den
Ġcam berwell
Ġma e
Ã¶ s
Ã¶ te
Ġinv as
Ġinv itational
Ġinter war
Ġinter pret
Ġinter view
Ġorder ing
Ġeduc ational
Ġprim era
Ġprim rose
con shire
no st
no vember
rac es
rac tion
Ġend ured
Ġend ocrin
Ġare quipa
Ġsam aria
Ġsam guk
Ġsam sung
Ġber be
Ġber mud
Ġbel la
Ġbel gr
Ġbel gi
Ġbel inda
Ġbel enens
Ġcla ire
enti ally
enti eth
Ġlu Äį
Ġtex ark
Ġtex tured
Ġtex tile
ari um
ari os
Ġcre w
Ġcre ation
Ġcre ole
Ġgold man
Ġgold stein
Ġguitar s
tain ing
ĠÃ ħsa
ĠÃ Ĩlf
ĠÃ İle
Ġsum o
Ġsum mit
Ġbre t
Ġbre men
Ġbre conshire
Ġdel la
Ġdel ta
Ġdel isted
Ġtor rance
Ġtor gnon
Ġhead s
Ġhead qu
cer y
cer es
Ġes te
Ġes mer
Ġes pn
any a
Ġport laoise
Ġjim a
Ġred s
Ġred ist
Ġred car
Ġred legs
Ġson ic
ira of
Ġjose f
Ġarch ive
Ġarch ery
Ġarch di
Ġstri p
Ġstri pped
Ġstri kes
Ġfrank en
Ġfrank fur
Ġdesign ate
har ry
har old
har rison
Ġav angard
Ġaver aged
Ġbla zers
Ġmel ios
Ġmel odica
Ġem men
Ġem bar
Ġem ily
Ġem ilia
Ġshow ed
Ġshow ing
Ġbrown s
ten ham
Ġer furt
Ġer itrea
Ġcy ma
Ġcy ril
Ġcy berpunk
Ġmat ti
Ġmat ter
Ġhol by
Ġhol oca
Ġdon caster
Ġnon linear
pro duc
Ġsome time
Ġhon ey
Ġhon ors
Ġtra in
Ġtra ce
Ġtra il
Ġemp ress
Ġmiss ed
Ġmiss ing
Ġmiss iss
Ġill ness
Ġill bient
Ġthir teenth
Ġfar ris
Ġfar ense
Ġnov Ã¡k
Ġnov ikov
Ġnov okuz
Ġkar ol
Ġrela tively
Ġrela tivis
Ġvir gil
Ġvir ilis
Ġroman ce
Ġfrench openresult
sk y
sk ulls
ÃŃ a
int osh
ined rum
Ġmag uana
Ġmag dal
Ġown s
Ġjud d
Ġjud icial
Ġjud aism
Ġrich ie
Ġrich tel
Ġep s
Ġchurch es
eth ics
uch ko
uch boot
Ġsl am
Ġsl ud
Ġsl ikker
Ġsur name
Ġsur fac
Ġsur realist
Ġmur al
Ġtom orrow
Ġgrand e
Ġgrand da
Ġgrand parents
eg a
Ġacc ord
Ġacc ount
Ġ181 5
Ġ181 8
Ġcross ing
Ġflor ence
Ġmak er
Ġprog reso
Ġcolumb ian
ee te
ho f
ula te
ula yev
Ġtre ason
Ġtre bin
Ġtre vig
Ġtre week
Ġtre ffner
Ġver d
Ġsix teen
Ġgl ory
Ġgl itch
Ġgl entor
Ġrad er
Ġrad ical
Ġrad nik
Ġ180 6
udd y
Ġsuccess es
ring en
Ġben gal
Ġca a
Ġca ve
Ġca ithness
Ġoper ate
Ġoper ating
Ġoper ates
Ġoper ators
Ġcounc illor
Ġblack s
nd ebourne
ob ree
Ġair port
Ġair play
Ġbill s
Ġbill eric
Ġwood s
Ġwood bury
Ġwood row
Ġang us
Ġjer ramiah
Ġeuro league
Ġeuro pa
Ġorgan isms
bor o
bor is
Ġsub sidiary
Ġsub commit
Ġbal lad
Ġbal let
Ġbal oncesto
Ġce la
Ġce lestial
Ġthis tle
league project
Ġmer ingue
Ġinstrument s
Ġarg yle
Ġarg ument
Ġroy als
Ġroy alist
201 5
Ġphilip pe
Ġcouncil man
of skulls
off ice
Ġtran e
Ġvo ter
Ġvo ters
Ġtechn ological
Ġbay ly
Ġbay lor
Ġbay reuth
Ġmas sive
Ġlar kin
Ġlar amie
Ġlar iviÃ¨re
Ġreturn s
Ġ185 1
Ġ185 9
Ġassist ance
Ġappoin tee
Ġathle tes
ga eto
work ers
Ġmal avan
Ġmal prac
Ġmal tese
Ġmos m
Ġmos es
isla v
Ġ183 4
Ġ183 9
Ġsports man
Ġsports net
Ġpartic k
be an
Ġbor romeo
Ġmy kolaiv
Ġga il
Ġdev i
Ġdev oted
Ġdev aney
Ġtrad chinesename
bro ck
arch iv
Ġpl anning
Ġpal ma
Ġpal ms
Ġpal ermo
Ġpal mol
Ġmen u
Ġhal le
Ġange la
Ġjac inthe
Ġisland s
Ġconstitu tion
Ġdrafted pick
18 1
18 90
hen ia
hen ri
ij a
ray mond
Ġfed or
Ġmac lean
Ġmac donald
Ġmac lenn
Ġmac oris
Ġtur ki
Ġka usar
Ġka apo
Ġka ifeng
Ġrap tors
Ġspe ct
Ġmont ana
Ġmont gom
Ġlegisla tures
Ġsuper vis
Ġsuper intendent
Ġsuper group
car e
cons ort
va al
Ġabo ard
Ġfig aro
Ġmass Ã©
Ġdun stan
Ġta iga
Ġju iz
Ġju illiard
Ġken yan
Ġken ora
Ġrev ie
Ġrev ived
Ġrev ues
Ġspec ie
Ġspec ulation
Ġspec imens
ht adee
Ġve er
Ġve ga
Ġve ikka
Ġbur gas
Ġbur leigh
Ġbur mese
Ġol ivia
Ġdar lington
Ġdar nell
Ġcivil ian
nes day
wer ner
Ġset s
eng lish
Ġnom inee
Ġlang enburg
Ġcommit ted
ste elblue
uz ione
Ġsom nath
Ġdu ane
Ġiss f
Ġeth ics
Ġadam ik
Ġadam ski
Ġorganiz ed
Ġorganiz ational
bal le
ola te
Ġpet ti
Ġpet ty
Ġpet tis
Ġpet reni
Ġob enasa
Ġob ispo
Ġdrum cond
Ġanth ologies
Ġturn s
Ġandrew s
Ġgra in
Ġgra ves
Ġgra bs
Ġkh asavy
Ġko os
Ġko hat
Ġko otee
Ġko zani
Ġkey s
Ġstr at
Ġstr athcly
Ġbob s
Ġindust ries
Ġsmall er
Ġsilver io
Ġsilver chair
Ġsilver backs
Ġturk u
wa ve
wa ver
wa iting
yo chika
Ġsav es
Ġdid o
Ġlight blue
Ġlight steelblue
Ġrem ix
Ġvar sity
Ġlee ch
Ġmark ed
Ġmark ov
Ġphot os
Ġcommun ities
Ġcommun ists
Ġenter pris
Ã¤ ki
Ġche v
Ġche onan
Ġche quered
Ġpres ence
Ġpres ets
Ġpres cott
Ġpress ing
Ġwil kins
Ġwil cock
Ġhit ch
Ġhit ter
Ġhit ting
Ġhit ters
Ġhit ler
Ġhav re
Ġrh yl
Ġriver side
Ġriver hounds
Ġstan ley
Ġstan ford
Ġvi areg
Ġ184 6
Ġ184 8
less is
Ġdisc uss
Ġdisc rimin
bar ros
bar ioz
col in
col umb
col onel
col lege
don nelly
fe i
fe ated
Ġach ozen
Ġsoci ologist
Ġfer r
Ġfer ro
Ġox on
Ġdri ven
Ġty ne
Ġty pic
Ġty pes
Ġty resÃ¶
Ġdec oration
Ġram on
Ġram os
Ġseven teen
Ġpoints a
john son
Ġhonor able
Ġhonor ific
Ġtrans vaal
17 3
17 4
sen ate
Ġdi versity
Ġng ati
Ġng bakoto
Ġtal king
Ġgar r
Ġgar age
Ġgar land
Ġgar field
Ġgar sington
Ġstre am
Ġstock ings
Ġstati qbloom
Ġselec tions
oph one
Ġexp os
Ġexp lor
Ġexp elled
Ġexp anded
Ġmcg hee
Ġcompeti tor
Ġchristian ity
Ġeconom ist
12 8
Ġsar asota
Ġsar awak
Ġpa xt
Ġpa xton
Ġpa urini
Ġhand baller
Ġnik i
Ġkr agu
Ġrest oration
Ġrest ored
Ġpost war
Ġpost do
ired o
Ġcontribu tion
Ġmetal ac
Ġmetal workers
Ġbooks eller
Ġspecial ized
Ġspecial ising
Ġspecial ises
names e
ple x
Äį ki
Ġbi ograph
Ġbi ological
Ġbank ing
Ġgran ted
Ġgran ge
Ġgran ts
Ġdeg rees
Ġvik ing
Ġrob bins
Ġsher idan
Ġtig re
Ġtig ner
Ġsour ire
Ġsour ces
Ġdepart ure
Ġgriff ins
à¤ ¦
à¤ ®
à¤ °
à¤ ¶
à¤ ¹
à¤ ¼
à¤ ¾
Ġba xter
Ġcall igrap
Ġthan apat
Ġpen et
Ġpen alty
Ġhay dn
Ġhill er
Ġhealth care
Ġgood year
Ġgood enough
Ġhighest doublesranking
Ġdomin ica
Ġdomin ique
30 128
sc ott
sc orer
Ãº jo
Ġcri tics
Ġthere fore
Ġthere after
Ġmun ster
Ġwis mar
Ġgh ana
Ġgy ula
Ġlin z
Ġlin ares
Ġku wai
Ġ179 6
Ġadv enture
Ġadv anced
Ġcommission ed
Ġliber ation
Ġparticip ating
Ġjacob us
10 59
cas id
Ġast ra
Ġast ron
Ġast ara
Ġsi Ã³fok
Ġbang alore
Ġcir ca
Ġcir cus
Ġmach inedrum
Ġhugh es
Ġdown es
Ġdog ged
Ġdanc ing
Ġreach ing
Ġwhit tle
Ġwhit more
Ġ36 0
Ġnever theless
Ġconv ent
Ġconv oy
Ġinduc tion
Ġinduc tee
Ġcrim son
Ġfeat ures
Ġestablish ing
Ġpremier ed
13 5
13 6
lor raine
xt annone
Ã§ ois
Ġur du
Ġpot ros
Ġfr ameless
Ġfred dy
Ġhu hne
Ġhear d
Ġhod der
Ġjak arta
Ġlim ited
Ġlim inal
Ġlim oil
Ġran ch
Ġren aming
Ġserge yevich
Ġgreg or
Ġsimp chinesename
Ġprovid ing
Ġprovid ence
idate d
Ġic c
Ġic t
Ġic icles
Ġaut ograph
Ġaut obi
Ġbil lah
Ġbil Ãº
Ġbud get
Ġbud uÄĩ
Ġbud weiser
Ġcra ft
Ġcra fts
Ġcra zy
Ġcra iova
Ġpir mas
Ġpir ibebuy
Ġhop e
Ġdram as
Ġdram ati
Ġjon ny
Ġglo bus
Ġron an
35 193
bl ues
lit udes
mich elin
Ġbol ivar
aro und
Ġpers ita
Ġpers pec
Ġpion eers
Ġfem in
Ġfolk estone
Ġwat ers
Ġwat kins
che berg
Ġluc erne
Ġcoast al
Ġimp rison
Ġimp lic
Ġlady killers
Ġconsider able
Ġcontro l
Ġsax ony
16 9
bab e
will ie
ÅĤ ÄĻ
ĠÅ ½el
ĠÐ Ĵ
ĠÐ ľ
ĠÐ Ł
this y
Ġsug gest
Ġsug ges
Ġbon nie
Ġbad y
Ġbad en
Ġps is
Ġpad ma
Ġpad ova
Ġpad dy
Ġful ly
Ġmi ha
Ġsele ct
Ġlevel s
Ġwhite hawks
Ġ38 1
Ġagric ol
Ġactiv ities
Ġcommand o
Ġcommand ed
Ġmonth ly
Ġhost s
Ġmax well
Ġangel s
Ġentertain er
Ġengineer ing
fran Ã§ois
gr in
hol land
hol stein
Ġsamp le
Ġsamp doria
Ġbull pen
Ġbull dog
Ġbudd hism
Ġfair field
Ġhuman ist
Ġdol ly
Ġdol phy
Ġdance hall
Ġkill ings
Ġpromo te
Ġpromo ter
Ġpod gor
Ġconst ance
Ġconst abulary
Ġbrun swick
Ġadvis er
Ġext raliga
Ġbroad way
prof ile
Ġmalay an
Ġcharacter ized
gre g
gre gory
jos h
jos hua
pt writer
Å¡ ys
Å¡ evac
Ð¸ Ð½
Ð¸ Ð»
à´ ¯
à´ °
à´ µ
Ġ* *
Ġil an
Ġil hwa
Ġsus pen
Ġsus pic
Ġpur cell
Ġhor izon
Ġdipl oma
Ġbeau fay
Ġconc essions
Ġconc ubine
Ġcommer ce
Ġjoh or
Ġcolon els
Ġbrent ford
196 1
196 2
196 4
Ġowner ship
Ġviktor ovich
Ġcritic ized
40 3
75 3
77 1
Ġuc i
Ġell ison
Ġell iot
Ġell iott
Ġai as
Ġfel t
Ġfel ipe
Ġfac ing
Ġfall s
Ġfly weight
Ġfant ome
Ġfaul dhouse
Ġmut oscope
Ġwhe eler
Ġold ham
Ġhind i
Ġhind s
Ġinf amous
char ley
Ġrefer endum
Ġemer son
Ġemer gency
Ġeff ectively
Ġeff ective
Ġeff ects
Ġbeh alf
Ġcond ucted
Ġconf essions
Ġconf rontation
Ġpreced ing
Ġsingapore an
Ġstefan ov
Ġgoalt ending
Ġtradition ally
bat tles
gas light
mb annfÃ¼hrer
à® ¿
à® ķà®
ĠØ ³
Ġid aho
Ġah q
Ġahl uwal
ink ampf
Ġsin ivtsi
Ġsin upret
Ġci udad
Ġpra ha
Ġpra tibha
Ġpos ted
Ġface book
Ġmlad i
Ġos lo
Ġos sian
Ġhom er
Ġhom po
Ġdam ir
Ġdam it
Ġdam ien
Ġdam ayo
Ġtu ell
Ġtu enti
Ġtu va
Ġtam ara
Ġtam aulipas
Ġtay n
Ġgren ada
Ġgren fell
Ġlam balle
Ġlut on
heim er
Ġref ers
Ġref used
andr ade
Ġlabor atory
Ġmee was
Ġbrit ten
Ġcompu ters
Ġgerald ini
Ġallow s
Ġsalvador an
Ġphilosop her
Ġmorris burg
Ġnikola us
Ġheart bre
Ġcandidate s
Ġdiplom ats
aug a
aug ust
bon ta
bass ist
cr im
lia ble
pre fix
pre sident
Ġé §¿
Ġé »ĥ
Ġé Ģ¸ã
Ġess en
Ġess ays
Ġess entially
Ġsad at
Ġsad af
Ġsul bha
Ġcer ro
Ġcer tain
Ġcer vera
Ġpap eete
Ġpay master
Ġpav lakov
Ġfile m
Ġmir iam
Ġmir rors
Ġmix ture
Ġhaj i
Ġdro ve
Ġnag orno
Ġnord ic
Ġnord hausen
Ġtat long
Ġlip s
Ġlip Å¡ys
Ġdeb ate
Ġdeb bie
Ġdeb utle
Ġfort une
Ġeis enh
Ġeug en
Ġalt ankhu
Ġvie ira
Ġros well
Ġfoo ted
Ġshir izhik
open juniorresult
Ġpetro vich
Ġpetro leum
cal ero
cup result
gh ulam
gra ham
pr ince
pr ints
uan ian
Ã¦ k
Ġump ires
Ġsun shine
Ġbot ucatu
Ġpace man
Ġwit telsb
Ġwinn ings
Ġop tion
Ġny k
Ġgun shot
Ġkid derminster
Ġrid derkerk
Ġrio platens
Ġchi apas
Ġ34 2
Ġbeg un
Ġbeg innings
Ġ61 41
Ġ175 6
Ġgener als
Ġlove ch
Ġsound track
Ġtrin ity
Ġgreen back
Ġqualif y
Ġmaur itania
ĠmartÃŃ n
Ġmagn us
Ġsurv iv
Ġsurv ive
steph anie
Ġwilhelm ina
Ġintellig ent
Ġnewspap ers
68 47
fa x
fa ustino
jer ry
kar l
kar abakh
light s
pn iak
inth os
Ġsol omon
Ġbid deford
Ġpakh ale
Ġmcc a
Ġmcc arthy
Ġwa it
Ġwa fl
Ġwater bury
Ġhus kies
Ġhot test
Ġdoc um
Ġiniti ative
Ġanti oqu
Ġanim al
Ġanim ation
Ġanton io
Ġtus kegee
Ġjam estown
Ġgas ket
Ġcomed ies
Ġshim er
Ġshim mer
Ġshim shon
Ġshim izu
Ġmechan isms
sop rano
Ġhern andez
Ġsuff ered
Ġsuff icient
Ã¡z ar
Ġclar ion
Ġgrey bull
Ġregard less
Ġacademic ian
Ġinvest ment
Ġdrug s
Ġgymn asium
Ġhospital ity
Ġpsychiat ric
Ġfriend ship
Ġinvestig ation
Ġinvestig ations
07 12
fic ation
hon our
net sk
pan tiÄĩ
sin ara
Ð° Ð²
Ġè £ķ
Ġè °¢å¿Ĺ
Ġide a
Ġide as
Ġide olog
Ġsla te
Ġsla ve
Ġsla ted
Ġsla by
Ġsit ting
Ġsit uation
ĠsÃ© rie
ĠsÃ© mina
Ġburn ing
Ġcu iabÃ¡
ĠcÃ´ te
Ġpon te
lett a
Ġmack intosh
Ġmiguel ense
Ġdone gal
Ġins urance
Ġji u
Ġjar vis
Ġjenn ifer
Ġkum ar
Ġkum aon
Ġarm str
Ġrub ber
Ġstran orlar
Ġcho jn
Ġbeat rice
Ġmarket s
Ġcapital ism
acht as
Ġ155 7
Ġfilip ina
Ġswim mer
Ġpriv ately
Ġava ÃŃ
Ġholy okens
Ġtake over
Ġstrong ly
Ġpastor alist
Ð¸Ñ ĩ
Ġnagy bÃ¡
27 1
kis cher
lang don
sal vador
Ð² Ð¸Ñĩ
å® ĩ
Ġum ist
Ġbh ushan
Ġbap tiz
Ġcub e
Ġcamp bell
Ġpf dj
Ġmam elodi
Ġwer der
Ġwri tes
Ġhum or
Ġhild esheim
Ġdur an
Ġdur ston
Ġdub ber
Ġdest roy
Ġinaug uration
Ġtul sa
Ġgod spe
Ġly in
Ġlith ography
Ġlith uanian
Ġliving ston
Ġrav enna
Ġrena issance
Ġequ al
Ġprobab ility
Ġshav arsh
Ġcapit als
Ġens ueÃ±
Ġschulzer ia
193 9
Ġterrit orial
Ġbarn ard
Ġbarn aul
Ġevangel ism
marsh al
Ġmission s
Ġreser ves
def ence
def ense
Ġjew el
Ġhelp ing
Ġcorrespond ed
Ġdepor ted
ĠÃī dou
Ġaffili ated
Ġtransla tor
Ġtransfer ring
Ġliga en
Ġalderman ic
daniel s
Ġnichol sen
des cribed
gil les
gil bert
hist or
jack iem
jav ad
loc ation
loc ations
oh or
ole on
ser gei
Ð» Ðµ
ÙĦ ÙĬ
Ġich inojÅį
Ġich ihar
Ġich innorow
Ġaz ul
Ġaer ial
Ġaud i
anat yam
Ġbah am
Ġbah ujan
arn old
Ġcel tic
Ġthr ash
Ġfun eral
Ġwind mills
isel da
Ġopp osed
Ġhan ja
Ġhat ters
Ġhat rick
Ġhud son
Ġhud ock
Ġhors ens
Ġintro d
Ġtac oma
Ġtai bach
Ġgey dar
Ġgang sta
Ġgarden ing
christ en
Ġloc ated
Ġlock out
Ġlock jaw
Ġkel owna
Ġkap osvÃ¡
Ġkash mir
Ġyous endit
Ġvilla ge
Ġlef tist
Ġcov ent
Ġcover ed
Ġprom oting
Ġbea uport
Ġmarqu is
Ġmarqu ess
Ġmarqu ette
shop per
abd ulaziz
abd ullah
Ġrecover ed
Ġpoll ard
Ġzh uk
Ġappro xim
Ġusopen result
Ġloth ians
Ġdemonst rated
Ġsalam anders
Ġcyr us
Ġpalest ine
Ġexperi enced
Ġbernard ino
Ġcfb hof
Ġcfldrafted year
Ġcfldrafted round
Ġcfldrafted pick
Ġchamber lain
Ġemploy ed
Ġemploy ment
Ġsorok ina
Ġtasman ian
Ġwitness ing
ĠkukÃ« s
Ġpseud onyms
@@ @@
bu ijs
dor f
dor zhu
hod ge
jim ori
mus ic
mat thew
sar ah
writ ten
ÈĻ ti
Õ¡ ÖĢ
Ø§ ÙĨ
ĠÄ Į
Ġted eschi
Ġbou cher
Ġbou zar
Ġbord j
Ġbio chem
Ġcow les
Ġcly deb
Ġcart oonist
Ġcart agena
Ġcoss ack
Ġcampaign s
ener be
Ġpeng uins
Ġmand olin
Ġmand opop
Ġwy zwol
ref ere
ref eree
Ġtav ros
Ġandre i
Ġlov ely
Ġki yochika
Ġkor vett
Ġkor inthos
Ġkad ur
Ġkick ing
Ġara Ãºjo
andre j
Ġech opark
Ġalc Ã¡zar
Ġchang es
Ġchang won
Ġvital i
Ġsemin al
Ġsemin ars
Ġleicester shire
Ġnep veu
Ġlah ti
Ġspokes person
Ġcontest ant
Ġjob bik
Ġcoll ins
Ġcoll ier
Ġscar ing
Ġscar borough
Ġnoble man
Ġoccas ion
Ġoccas ions
Ġoccas ional
Ġmanif est
Ġkne es
Ġbrand enburg
Ġ103 2
Ġreport ing
Ġgene tics
Ġzah ar
Ġzah ir
Ġzah aria
Ġzhu o
Ġwealth y
Ġfilmm akers
Ġexcell ent
Ġperman ently
Ġacqu ired
Ġacqu itted
Ġevol uzione
Ġgram mar
Ġweightlif ter
Ġlegend a
Ġbelong s
Ġarchae ologist
Ġtreas urer
Ġwesley an
Ġargu ably
Ġmontene grin
Ġphoto journalist
Ġchef s
Ġdiscip le
Ġdrift ing
Ġspecializ ing
Ġmaxim ishin
Ġconfir med
Ġidenti ty
Ġpunj ungan
Ġvillar real
Ġpratap garh
ĠtÄĥrÃ¢ ÈĽ
Ġstreng th
Ġstreng berg
Ġstreng then
bas an
bra ica
dem oc
him Ã¤ki
hung arian
lou ise
vÃ¡ rosi
wal ter
wak e
Ê» okalani
×¨ ×Ļ
à¥ Ģ
à¥ į
Ġì ĺ¤ì
Ġiz umo
Ġà¤ ¸
Ġsund ay
Ġsund owns
Ġsind h
Ġbt b
Ġbac teri
Ġbac olod
Ġbart ender
Ġbak u
Ġbomb ay
Ġbomb ings
Ġclo thing
Ġthunder bir
Ġpas cal
Ġpel Ã©
Ġfu j
Ġfu jimori
Ġwol verhampton
Ġost ro
Ġhir st
rev iew
Ġdw ight
Ġdak ar
Ġdial ogue
Ġnand amÄģ
Ġnap ier
Ġnap oleon
Ġtin ker
Ġandrey evich
Ġja zeera
Ġlil ongwe
Ġlump kin
Ġlomb ardo
Ġky ustend
Ġkin to
Ġrefor mer
Ġarsen i
Ġriv als
Ġriv adav
Ġrah man
Ġsty les
Ġsting ray
Ġstra ight
Ġey elids
Ġheir s
Ġviet namese
Ġwhar epapa
Ġspar owes
Ġapart adÃ³
Ġapost les
Ġscand al
Ġscand urra
Ġcarmel o
Ġparish es
Ġedm und
Ġmineral ogical
Ġsheikh ulayev
Ġfranz iska
Ġwarri or
Ġevgen i
Ġevgen ievich
Ġharmon ica
pect s
Ġbrace let
Ġbrace lets
Ġcrow d
Ġhotel ier
Ġmartine z
Ġluther an
Ġaccoun ting
Ġglou cestershire
Ġcaus ing
draft pick
Ġstrate gy
Ġchet umal
Ġdogg ett
254 35
Ġilleg als
Ġilleg itimate
Ġconcern s
Ġpsych ology
Ġfisher man
Ġultim ate
Ġancest ry
Ġbotan ist
Ġdinos aurs
Ġapproach ed
Ġcelebr ations
Ġwimbledon result
Ġhurrican e
Ġencompass ing
ĠÅģÄĻcz yca
bir ds
bri thwine
bill ig
bai jan
bai ynd
dis cip
fred o
face book
pac ific
tens tein
Ð¾ ÑĢ
à¯ ĭ
à¯ į
ä» ģ
ĠæĿ İ
Ġsie ge
tivis m
timo thy
Ġbally bofey
Ġcw hl
Ġpd c
Ġpd p
Ġple ven
Ġple aded
Ġpes cador
Ġpath ologist
Ġpork rock
Ġpip er
Ġpip eline
Ġfas test
Ġfide id
Ġfoss ils
Ġfoss ano
lesi astical
Ġmol onglo
Ġwag ner
Ġwish aw
Ġoverse as
Ġoverse es
Ġhid algo
rela tion
rela ted
Ġdum a
Ġint ended
Ġanci ent
Ġanci enne
Ġgif ted
Ġgather ing
Ġlich tenstein
bern ardo
Ġdevil s
Ġkle in
Ġkle inkampf
Ġarri val
Ġarri ved
Ġri jeka
Ġrend sburg
Ġrenn ais
Ġeigh th
Ġeigh teenth
Ġemin ent
Ġemin ence
Ġchor us
Ġchor ley
Ġchun ma
Ġchun nam
Ġunde adman
Ġunde feated
Ġondar roa
Ġvit Ã³ria
Ġvog lia
Ġseong nam
Ġseong dong
Ġcook ing
Ġtelec ast
Ġneg ative
Ġshut out
Ġshak es
Ġshank bone
Ġmoz art
Ġmoz ah
Ġ165 6
Ġbarbar ians
Ġguang gu
Ġguang dong
Ġguerre a
spe aking
Ġclark son
Ġregional ism
Ġwald heim
Ġolympiad s
Ġmetrop olis
Ġmetrop olitan
Ġconsec ration
Ġconsec rated
Ġfeel good
Ġdentist ry
atsu ka
Ġlibert y
Ġlibert ad
Ġsomewh at
Ġsomewh ere
Ġrelation ship
Ġdrag ons
Ġivor ra
Ġmyc ologist
Ġpalat ka
Ġpalat inate
Ġfigue irense
Ġfigue iredo
Ġstrugg le
Ġkeep ing
Ġrestaur ant
Ġrestaur ants
Ġinnov ative
Ġadvance ment
Ġimpression ism
frances a
Ġhindu ism
andrÃ© ia
Ġaccomplish ed
Ġaccomplish ments
Ġbharat pur
Ġbharat anatyam
Ġfleet wood
Ġdetermin ed
Ġcollabor ates
Ġplanet as
Ġincorpor ated
Ġincorpor ating
Ġhundred s
Ġmemoir s
Ġmemoir ist
ben jamin
bow ring
bÃ¼ ll
beg inning
cla ude
cri tics
fin ally
fon tein
fir st
hay den
jac ob
jak ovich
mu htadee
mart in
vic tor
vinc enzo
Î± ÏĤ
å¤ §
æķ ı
æĺ Ł
íĽ ¤
ĠÎ ļÏ
Ġë Ĥ¨ì
Ġip ecac
Ġult ramajic
Ġordin ation
thir d
Ġsag a
tit udes
Ġbing eman
Ġbun ker
Ġbum s
ĠbÃ© thisy
Ġbagh dad
Ġcaf Ã©
Ġthin adho
Ġthous ands
alb um
Ġmie p
Ġmord elles
Ġmell ophone
Ġmine ola
Ġmiro slav
Ġwan ted
Ġwav es
Ġwitch es
Ġou achita
Ġow ens
Ġhut ton
Ġhack ensack
relig ion
Ġdod gers
Ġdors et
Ġdrib bling
Ġnay arit
Ġnab ire
Ġing ram
Ġinqu iry
Ġinsp ired
Ġinten sive
educ ated
Ġtah iti
Ġtsar ina
Ġjen kins
Ġgent le
Ġlx i
Ġlon ely
Ġlite x
Ġlunch box
Ġdet ailed
Ġkas ai
Ġkild a
Ġkaw asaki
Ġkony aspor
Ġrel ief
Ġreis sued
Ġreve al
Ġrever end
agn osed
Ġtoul on
Ġstur mbannfÃ¼hrer
Ġyak ult
Ġyury evich
Ġeig sti
Ġeup henia
Ġches ney
Ġchel tenham
Ġchak ra
Ġchino ok
Ġaspir ations
Ġunre liable
Ġheyd ar
Ġvod acom
Ġvib org
Ġvila yat
Ġseg undo
Ġlea ve
Ġcoal ition
Ġimm igrated
ĠmarÃŃ timo
short ly
Ġspel t
Ġspee ch
Ġconver ted
Ġconqu eror
Ġconcep tual
Ġcompla ints
Ġnewcom ers
Ġshod o
ĠshÅį nen
Ġmeasure ments
Ġscr atch
Ġscri ptwriter
Ġscatter ing
Ġpred ators
Ġenth roned
Ġherb alist
Ġutil ity
Ġtimo thy
Ġschedu led
Ġcompens ation
Ġexamp le
Ġexcep tional
Ġterror ist
Ġbatt avio
Ġcommem orative
loth ringen
Ġgras shopper
Ġabil ene
Ġcru iser
Ġsole bury
Ġtrampol ine
Ġblog ger
brig adier
Ġclim ate
valer ie
Ġcrock ett
Ġdauph in
Ġmcdoug ald
Ġbuch tel
Ġpatr ons
Ġcorrup tion
entity name
Ġheader color
Ġescap ed
Ġtravel ing
Ġepidemi ology
Ġsurpris ed
Ġincub ator
Ġmakhach kala
Ġprovinc ial
Ġcaucas us
Ġodds et
offic er
Ġmalaw i
Ġmyth ology
Ġmyster y
187 173
caron keating
Ġanthrop ology
Ġlorenz en
Ġferenc vÃ¡rosi
Ġsaturn ettes
Ġvolunte er
Ġclem son
Ġrail ways
Ġraunk iaer
Ġdescrib e
1367 403
Ġautop ort
Ġkimber ley
ĠÅŀ tirbu
Ġnarrow ly
Ġconcent ration
Ġposth umously
Ġtamper ing
Ġessay ist
Ġantiqu arian
Ġcharlotte town
Ġèĥ ¡æĸĩ
Ġnavar ra
ĠmÃ¼n cheberg
Ġfunction al
Ġencoun tered
Ġturntabl ist
Ġlombard i
Ġforeclos ure
Ġimprovis ation
Ġprecurs or
Ġmaharash tra
podium s
Ġnucle us
charmian carr
Ġimmedi ately
267 46
440 21
bol and
cart oonist
camer on
crow ds
fron t
hil al
jits u
lassic ism
mik ec
mys ti
nt update
near ly
nord ahl
pav el
sup er
succeed ing
vol ume
voc alist
vide o
whe ater
wolf gang
yus hi
zuy evo
Åı n
Ïĥ ÏĦ
åŁ İ
ĠÈĺ tirbu
ĥİ åŁİ
Ġati to
Ġahn enerbe
Ġamp litudes
Ġaqu atics
Ġavis pa
Ġaene as
Ġazer baijan
initi ally
onÃ© siph
Ġstic ks
Ġsich uan
Ġsort key
Ġsass e
Ġsull ivan
Ġsah el
Ġsile sia
Ġsvin in
ĠsÅĵ ur
orlÃ© ans
Ġbrom wich
Ġbif fo
ĠbÃ¼ dingen
Ġbene fit
Ġbij nor
Ġbaman was
Ġbundes archiv
Ġcres cents
Ġcry in
ĠcÃ¡ ceres
Ġcind y
Ġcurt ain
enkap itÃ¤n
Ġthorn ton
Ġply mouth
Ġpry ce
Ġpemb roke
Ġpays andu
Ġfres no
Ġfann y
Ġfidel io
Ġfuen tes
Ġfavour ite
Ġmes calero
Ġmiz rahi
Ġmaf eking
Ġmace iÃ³
Ġmude ka
Ġwed nesday
Ġwend over
ĠwÅĤ adys
Ġwupper tal
Ġthems elves
Ġober leutnant
Ġoum ar
Ġoire achtas
Ġoss ett
Ġoll ie
Ġouz ou
Ġhath ras
Ġhach irÅį
Ġhapp y
Ġdup lessis
Ġdang erous
Ġdenn is
Ġdiam ond
Ġdaf onsoro
Ġdrey fus
Ġdush kov
Ġnaw az
Ġnij ni
Ġnwide wins
Ġinou ye
Ġinste ad
Ġinfan te
Ġinfr astru
amend i
Ġanat olyevich
Ġantan as
Ġtrom bone
Ġtys cot
Ġtaw ili
ĠtÃ¼r kischer
ĠtÃ¶l Ã¶
ingakash akashvili
Ġandree v
Ġjol la
ĠjÅ« ryÅį
Ġjalis co
Ġjalom etalli
Ġgly ndebourne
Ġgers ch
Ġgich uru
Ġgau chos
Ġglyn neath
Ġgwang gaeto
Ġguggen heim
elig ible
usli iga
chuzh ina
atlan tic
Ġlied er
Ġlans dale
Ġlinger ie
ĠlÃ¼ cheng
Ġlingu istics
ĠlÃ©r ins
Ġdeem ed
Ġdemp sey
Ġkub an
Ġkly uchko
Ġkell iston
Ġkix x
Ġkep t
Ġkyn eton
Ġkari yushi
Ġkorne ev
Ġkurd ish
ĠkÄ« naÊ»
Ġreev es
Ġrebe cca
Ġrelie ve
Ġarra bal
Ġarkh angai
Ġartill ery
Ġaranz amendi
Ġrall ies
Ġrip ple
Ġrii himÃ¤ki
Ġrkv vl
Ġwasser billig
adhy ula
Ġtogli atti
Ġtoxic ologist
Ġstok owski
Ġstour port
ĠstÄĻ pniak
Ġyasu kiyo
Ġyvon ne
Ġyoko hama
Ġecc lesiastical
Ġeile en
Ġeuf aula
Ġalamed a
Ġaldon za
Ġalgi ers
Ġchoc olate
Ġchrom osomes
Ġcheng du
Ġasador a
ottil le
Ġunop posed
Ġunrest ricted
Ġunteroff izier
Ġheav ily
Ġheilong jiang
Ġvamp ire
Ġvaul ter
Ġvij ay
Ġvidu Å¡evac
Ġvrats a
Ġvinkov ci
Ġvadim ovna
Ġsemar ang
Ġseaf ord
Ġseki wake
Ġsevo jno
Ġplatin um
Ġlesk ovac
uppen fÃ¼hrer
Ġrosk ilde
Ġrotter dam
Ġcoordin ator
Ġcotemin as
Ġprotest ant
Ġteix eira
Ġbejuc al
Ġbezuh hov
Ġimple mentation
Ġneoc lassicism
Ġmarvell ous
Ġmarguer ite
shanes choeller
Ġlacro ix
Ġspino ff
Ġspacesh ips
Ġjoond alup
Ġshreve port
Ġshudok an
Ġsereg no
Ġorek hovo
Ġscunthor pe
Ġcarib bean
Ġcarna tic
Ġmogu Äįi
Ġmohk am
Ġgoog le
Ġmanmo han
Ġmanoe u
Ġherms dorf
Ġherrn hut
Ġindict ment
Ġparamil itary
ĠparaÃ±a que
Ġengrac ia
Ġknock out
sideconn ection
Ġschoo led
Ġnovelet te
Ġagarical es
Ġpharmac ist
Ġphysi ology
ldÄģ bhivamsa
Ġcanons burg
Ġcompila tion
Ġcomparis ons
Ġminens uchboot
Ġmindel o
Ġassaul ting
Ġibane z
Ġznam ya
Ġzhem chuzhina
Ġznoj mo
Ġzandona ide
Ġadmission s
Ġadvertis ing
Ġweep in
Ġformertraining locations
Ġexpen sive
Ġpersik ota
Ġpersidaf on
Ġaccep ted
Ġ1155 0
Ġbarrac udas
Ġbarhap ur
Ġgeoph ysicist
coordin ates
ĠgrÃª mio
Ġgrigore vich
Ġallbla ck
Ġlobn ya
spokes person
Ġabsol ute
Ġirty sh
Ġirkut sk
ĠhaÅł k
Ġelimin ated
ĠelÅĳ d
Ġpeuge ot
Ġblanty re
Ġbratis lava
Ġbrainer d
Ġcroyd on
Ġmiscond uct
Ġdaeg u
Ġattribu tes
Ġannemar ie
Ġswadlin cote
Ġwallab ies
Ġdistill ers
Ġdischar ged
Ġhohenz ollern
Ġundertak en
Ġpoppen bÃ¼ll
Ġalexandr ine
jezni Äįar
Ġcasual ty
Ġcastell Ã³n
Ġsavet nick
Ġskarph edin
Ġsaluz zo
Ġvalery evich
Ġsilkeb org
Ġdenizlis por
Ġinterpret ation
Ġberbe ÈĻti
Ġbermud a
Ġbelgr ade
Ġbelgi que
Ġbelenens es
ĠluÄį ani
Ġtexark ana
iraof icial
Ġarchdi ocese
Ġfrankfur ter
Ġholoca ust
produc er
Ġmississ auga
Ġnovokuz netsk
Ġrelativis tic
Ġslikker veer
Ġsurfac ed
Ġgrandda ughter
Ġtrebin je
Ġtrevig lio
Ġglentor an
Ġbilleric ay
Ġsubcommit tee
Ġargument ation
Ġmalprac tice
Ġpalmol ive
Ġmaclenn an
Ġmontgom ery
Ġveikka usliiga
Ġdrumcond ra
Ġkhasavy urt
Ġkootee pee
Ġstrathcly de
Ġenterpris e
Ġwilkins burg
Ġwilcock s
Ġviareg gio
columb ia
Ġtypic ally
Ġexplor ing
Ġpaxt ang
Ġkragu jevac
Ġpostdo ctoral
Ġkuwai ti
Ġlimoil ou
Ġautobi ography
ĠbuduÄĩ nost
Ġpirmas ens
ĠÅ½el jezniÄįar
Ġbulldog s
Ġpodgor ica
Ġhorizon tal
Ġahluwal ia
Ġmeewas in
Ġheartbre akers
Ġé»ĥ åŃ
ĠéĢ¸ã ĥİåŁİ
Ġpavlakov ic
Ġtatlong hari
Ġdebutle ague
Ġeisenh ower
Ġaltankhu yag
Ġwittelsb ach
Ġrioplatens es
Ġantioqu ia
Ġè°¢å¿Ĺ å®ĩ
ĠsÃ©mina ire
Ġarmstr ong
Ġholyokens is
ĠnagybÃ¡ tony
Ġbaptiz ed
Ġgodspe ed
ĠensueÃ± os
ĠÃīdou ard
Ġichihar a
ĠkaposvÃ¡ r
Ġapproxim ately
Õ¡ÖĢ Õ
Ġbouzar Ã©ah
Ġbiochem istry
Ġclydeb ank
Ġwyzwol enie
Ġkorvett enkapitÃ¤n
ĠtÄĥrÃ¢ÈĽ eanu
Ġbacteri ologist
Ġthunderbir d
Ġkyustend il
Ġrivadav ia
discip linary
Ġpescador es
ĠëĤ¨ì Ŀĺì²ł
Ġthinadho o
onÃ©siph ore
ĠwÅĤadys ÅĤaw
Ġinfrastru cture
ĠkÄ«naÊ» u
! /
# !/
' d
' re
. -
0 21
0 49
0 12
0 10
0 25
0 16
0 70
0 802
1 00
1 21
1 49
1 44
2 21
2 30
2 87
3 7
3 00
3 20
3 21
3 18
3 12
3 70
3 64
4 30
4 45
4 77
4 74
4 15
4 135
5 3
5 8
5 83
5 76
5 24
5 77
5 74
5 63
5 71
6 00
6 80
6 10
6 89
6 59
6 03
7 00
7 13
7 11
7 55
8 00
8 18
8 67
9 8
9 25
9 67
9 35
9 87
9 59
= &
= -
= @@@@
? #!/
a an
a ig
a ust
a emb
a Ãº
a ids
a qme
a illon
b p
b t
b Ã
b ing
b ac
b ard
b ly
b os
b ud
b av
b od
b les
b ore
b ant
b ren
b io
b ated
b red
b ash
b ons
b ike
b ari
b alth
b be
b ado
b ody
b bs
b asa
b ush
b inda
b mg
b kow
b itant
b rance
b rennan
b Ã¤n
b undes
b bi
b hai
b uddy
b Ã¦k
c ate
c it
c il
c ur
c orn
c ia
c ath
c ong
c ft
c ort
c red
c ne
c ale
c ased
c amil
c ino
c Ã¼
c ular
c ena
c rist
c ase
c ros
c rest
c ini
c ode
c Ã´
c ÅŁ
c rell
c azar
c atherine
c urd
c ensor
c nica
c atches
c ultural
c aldo
c ÃŃa
d c
d g
d k
d m
d ol
d at
d im
d ap
d ia
d ub
d ri
d ard
d ge
d ust
d land
d ip
d iv
d ell
d ice
d Ã©
d ang
d Ã¡
d led
d anc
d ley
d ka
d ington
d ev
d ram
d au
d ene
d ling
d iction
d ahl
d vor
d utch
d amon
d leton
d enny
d mowski
d ungan
d brown
d zhemal
d hanammal
d mitri
d Ã¸rge
d Ã³ra
d ileo
d lr
d ÊĴ
d owo
d enner
e j
e en
e ed
e un
e ce
e il
e ug
e ze
e em
e ff
e go
e bert
e ham
e ker
e ka
e gan
e au
e amon
e won
e Ã±
e ichengreen
e Ð²
e Ðº
e idus
e akin
e tless
e kerk
f m
f y
f al
f te
f as
f am
f orn
f et
f ath
f res
f ion
f ry
f ice
f son
f ren
f urn
f air
f ki
f ael
f ried
f lav
f ml
f sr
f oto
f ries
f aye
f Ã¦
f abri
f ires
f iques
f joart
f abrizio
f polis
f avour
f elic
f ledged
g g
g n
g am
g un
g ol
g ent
g ia
g ay
g ri
g ain
g if
g ry
g ok
g ren
g Ã©
g ment
g ated
g ral
g old
g ier
g az
g lo
g by
g ens
g one
g ven
g her
g ations
g rap
g ling
g Ã¶
g ages
g dom
g ely
g ural
g ross
g ression
g endall
g idi
g abri
g oria
g ulation
g amble
g ograd
g heorghe
g opinath
g iuseppe
g Ã©rard
g lenn
g lr
g iselda
g fry
h d
h f
h h
h m
h al
h ce
h om
h id
h ub
h um
h os
h ud
h ak
h ill
h ack
h ick
h end
h ous
h og
h Ã©
h ere
h ah
h old
h ann
h ier
h az
h Ã¡
h one
h aw
h ors
h ern
h ind
h oll
h ander
h out
h olic
h ula
h unt
h anna
h Ã£o
h owell
h way
h Ã¤
h esse
h uss
h eld
h uddin
h df
h osted
h risto
h Ã¥
h lets
h annah
h bay
h alt
h Ã¼seyin
h rem
h enner
i q
i u
i in
i ar
i ate
i it
i ol
i at
i oc
i rom
i est
i ere
i ated
i ress
i we
i olo
i ents
i ara
i ature
i ota
i owa
i ye
i qi
i enne
i Ã¡s
i yam
i huddin
j d
j u
j in
j ar
j al
j es
j ol
j ay
j ra
j ust
j ud
j ord
j ec
j ah
j ason
j old
j ina
j ung
j ne
j apan
j anna
j une
j ahl
j andro
j amal
j avier
j anne
j endra
j utor
j avan
j ovÃ¡
j Ã¼rgen
j vÃ¡
j ordy
j ection
j inah
j andi
j ected
j cie
j sur
k l
k z
k on
k an
k am
k ame
k id
k ub
k os
k ick
k iv
k op
k hn
k se
k ash
k enn
k az
k ai
k ael
k ings
k amil
k ind
k han
k ira
k wan
k ely
k va
k uz
k ona
k less
k alo
k dale
k asper
k eld
k owski
k amal
k eli
k endall
k avan
k ras
k icker
k uruvilla
k illian
k mus
k omm
k atherine
k Ã¶nig
k onen
k lem
k atie
k andace
k ishan
k stra
k ulo
k empe
l v
l en
l ch
l ot
l ican
l ers
l ick
l ip
l und
l ore
l ock
l by
l ose
l ka
l ors
l ane
l Ã³
l je
l uk
l ene
l ondon
l its
l iet
l Ã¤
l iano
l ute
l odes
l iane
l ilian
l Äģ
l asty
l assnig
l inda
l iffe
l jina
l kam
m m
m r
m w
m am
m un
m ur
m im
m ac
m ut
m ug
m age
m oc
m ess
m end
m ach
m und
m ass
m ade
m ile
m lin
m ator
m ats
m no
m ful
m ena
m uch
m ca
m ico
m aker
m use
m Ã¤
m ni
m anda
m asa
m ignon
m aya
m oud
m ikha
m ayer
m iguel
m andy
m arty
m iser
m atches
m Ã¼tz
n c
n j
n v
n al
n is
n as
n ian
n ight
n if
n em
n own
n ier
n fl
n au
n ÃŃ
n ico
n berg
n adu
n ci
n iss
n une
n amo
n app
n athan
n ival
n istan
n sworth
n Êĥ
n ichy
n dean
o er
o ir
o at
o ve
o ot
o ist
o ie
o sition
o og
o ull
o ley
o lad
o eter
o thers
o ura
o tional
o tees
p i
p k
p y
p al
p ing
p el
p us
p il
p he
p tic
p ear
p ub
p ra
p ly
p res
p ie
p ion
p rom
p ak
p end
p enn
p ress
p ins
p aw
p au
p uk
p any
p ages
p orts
p akh
p ellow
p ray
p ota
p rich
p ona
p owell
p ets
p inal
p ired
p iano
p Åį
p ark
p asi
p ias
p tures
p asha
p ayan
p spor
p idated
q q
q v
q ud
q ee
q eem
r k
r t
r im
r all
r ug
r age
r uc
r ass
r ory
r fl
r ne
r uth
r one
r ased
r ington
r ations
r ating
r ase
r ands
r uss
r ending
r Ã¨
r ero
r hic
r ighteous
r aghuraj
r shavn
r gry
r pi
s m
s w
s z
s as
s at
s ad
s om
s and
s ay
s et
s ri
s ou
s land
s eb
s urr
s ession
s ign
s ome
s ka
s ind
s lin
s berg
s ays
s wer
s iss
s day
s bury
s da
s erv
s lim
s dale
s igned
s otto
s pero
s ynd
s lik
s zÃ¡
s sim
s adr
s atu
s emi
s andu
s ickle
s marine
s capes
s dc
s fsr
t m
t w
t ti
t am
t ol
t ot
t ue
t als
t od
t ry
t red
t to
t af
t ome
t able
t aly
t ations
t yn
t ling
t ating
t rian
t Ã¤
t orney
t chen
t kov
t ugu
t ude
t ries
t ayer
t adas
t ables
t owers
t fordshire
t gens
u i
u as
u ing
u ate
u us
u it
u il
u et
u age
u ak
u ze
u les
u ctor
u Ã©
u qu
u we
u tions
u ka
u alist
u ha
u its
u uch
u tical
u tico
u omo
u illet
u jeraye
u ÃŁ
u atu
u aded
u jol
v y
v at
v ary
v um
v res
v ue
v ie
v ill
v ice
v ang
v io
v ated
v ens
v lad
v ita
v ital
v ika
v iot
v oo
v ars
v iviane
v ÃŃn
v entures
v uila
v ileged
v gamble
w l
w il
w ent
w at
w ag
w ear
w all
w ish
w if
w ach
w ong
w ant
w ash
w old
w atch
w ater
w inn
w icket
w hl
w po
w ari
w ara
w mor
w itney
w ainer
w adi
w iki
w rote
w itt
w este
w estervelt
w ilson
w enlan
w ilde
w aters
w Åın
x a
x q
x ie
x iv
x ide
x ley
x bury
x da
x avier
x tual
y in
y on
y re
y ra
y age
y ess
y ak
y ork
y ous
y ma
y ild
y ann
y ss
y ris
y ner
y pe
y aw
y ram
y ves
y uri
y va
y gen
y less
y Åį
y eni
y endra
y asu
y enne
y gaard
y uzon
y vette
y gfry
z z
z ing
z ad
z man
z ess
z eb
z og
z hn
z ah
z to
z ai
z ys
z one
z ale
z yl
z ova
z sch
z any
z ita
z wa
z kin
z awa
z yr
z inzendorf
z dravko
z hik
z uela
z omberok
z dowo
z hah
z tyn
¡ °
¡ à¸
¡ å®
£ Î
¤ é
¤ à®
¤ Õ¡Õ
¥ í
¥ Ĭ
¥ ļ
¥ å®
¥ æĿ
¦ ®
¦ ĥ
¦ ĸ
¦ æĽ
§ Ģ
§ Ĵ
§ à¸
§ Ð°
¨ ÙĨ
© ©
© ×¨
© ×Ļ
ª å
ª è
ª ×ĳ
« ĺ
« ł
« æľ
¬ ç
¬ à¤
¬ æĸĩ
¬ íĽ¤
® mes
® Õ«
® ÙĪ
¯ è
¯ é
¯ Ĺ
¯ Î½
° à¸
± lÃ©
± ±ç
² »
² æĺŁ
² ¡å®
² ¬íĽ¤
³ °
³ è
³ å¿Ĺ
³ Õ¥Õ
´ Ø±
µ Õ¡Õ
µ åŃ
¶ Ø±
¶ Õ«
¶ å°
· Õ¥Õ
¸ å
¸ é
¸ Ń
¸ íĽ
¹ i
¹ Ģ
¹ Ħ
¹ ĭ
º º
º »
º ĥ
º Į
º Ø§
º Ø³
º Î±ÏĤ
» Õ
» ä»
» Î¿
» ej
¼ ī
¼ ļ
¼ µåŃ
½ Ĳè
¾ ·
¾ å
¾ Į
¾ İ
¾ Õ¡ÖĢÕ
¿ ç
¿ à¤
¿ Ð¼
¿ Õ¡Õ
Â °
Ã ½
Ã ĵ
Ã ĸ
Ã ľmit
Ã ĩÄ±nar
Ã ®mes
Å ¥
Å Ī
Å Ľ
Å ±lÃ©
Ç Ĳ
É ª
É Ĵ
É Ķ
É Ľ
Ë Ī
Î ¯Î½
Î ºÎ±ÏĤ
Ï į
Ð ¹
Ð ¿Ð¼
Ñ ģ
Ñ Ī
Ñ Į
Ñ İ
Ñ ĸ
Ô ³Õ¥Õ
Õ ¾
Õ ¤Õ¡Õ
× ª
× Ĺ
× Ľ
× ľ
× ŀ
× ©×¨
Ø ¨
Ø ª
Ø Ń
Ø ºØ§
Ù Ĥ
Ù ĩ
ä ¹ĭ
ä ºº
ä ¼ļ
å Ĥ
å Ī
å Į
å ²¡å®
å ºĥ
å ¾·
æ ĩ
æ Ń
æ ¥Ĭ
æ ¦®
æ ²»
æ ³°
ç ħ
ç Ķ
ç ¥ļ
ç ºĮ
è ī
è Ĳ
è ĺ
è ¦ĸ
è ©©
é ģ
é ĿĴ
é º»
ì ķ
ì ł
ì §Ħ
ì Ŀ´
í Ķ
í Ļ
ï ¼ī
Ġ =
Ġ ^
Ġ orn
Ġ ug
Ġ ust
Ġ ue
Ġ ud
Ġ ull
Ġ ike
Ġ uri
Ġ ural
Ġ urs
Ġ ugg
Ġ orne
Ġ ÙĬ
Ġ ä»
Ġ æķ
Ġ Ã¶te
Ġ Õ¡ÖĢÕ
Ġ Â°
Ġ ËĪ
Ġ Ô³Õ¥Õ
Ġ ï¼ī
Ĥ Ðµ
Ħ ¡æĸĩ
Ħ ¸íĽ
Ħ èĲ
Ħ éĿĴ
ħ åħ
Ĩ áĢ
Ĩ æ²»
ĩ Ī
ĩ æĸĩ
ĩ Õ¡Õ
ĩ å¤
Ī «
Ī Ĵ
Ī æ¸
ī Î½
ī æľ
ī å¤§
Ĭ à¸
Ĭ ä¼ļ
ĭ ħ
ĭ å®
ĭ ¥æĿ
ĭ æ¥Ĭ
ĭ ĦéĿĴ
Į dom
į £
İ Ł
İ ÏĥÏĦ
İ ĭå®
ı Ð½
Ĳ İ
Ĳ ×ķ
Ĳ ³å¿Ĺ
Ĳ æ¦®
Ĳ ìĿ´
ĳ ×Ľ
ĳ éº»
Ĵ áĢ
ĵ Ð°Ð²
Ķ °
Ķ Ĳ
Ķ áĢ
Ķ Ð°
Ķ ×¨
Ķ ĦèĲ
ķ Ð¼
ķ ìĹ
ķ Õ¤Õ¡Õ
Ĺ ľ
Ĺ Ð´
Ĺ ¤é
Ĺ æ³°
Ļ ¢
Ļ ×ķ
Ļ åºĥ
ļ ¨ì
ļ Ĩæ²»
ļ ĩå¤
Ľ ªè
Ŀ åĤ
Ŀ ç¥ļ
ŀ ¥í
ł s
ł ×Ĺ
Ġa o
Ġa or
Ġa ar
Ġa al
Ġa is
Ġa ro
Ġa ol
Ġa ber
Ġa im
Ġa tle
Ġa ve
Ġa os
Ġa if
Ġa av
Ġa ma
Ġa mar
Ġa ha
Ġa au
Ġa je
Ġa ston
Ġa yn
Ġa ek
Ġa yd
Ġa uty
Ġa side
Ġa war
Ġa uction
Ġa yers
Ġa udley
Ġa oe
Ġa law
Ġa Ð»
Ġa ucas
Ġa Ã¯d
Ġa wak
Ġa arh
Ġa teg
Ġa ims
Ġa ided
Ġa ware
Ġa ege
Ġa ÑĨ
Ġa elton
Ġa ichi
Ġa wish
er t
er le
er es
er un
er ers
er ts
er tions
er que
er ance
er ica
er ations
er ator
er cis
er ating
er ful
er ico
er mel
er ika
er aine
er ault
er rol
er gies
er eton
er osis
er bated
er dene
th i
th u
th in
th ed
th ong
th ose
th ko
th rop
th wyn
th ompson
th ongk
th osis
in te
in ation
in ag
in ia
in ational
in ct
in ary
in um
in ous
in ik
in op
in em
in Ã©
in ence
in tern
in ves
in ald
in flu
in ets
in ja
in ery
in ians
in lan
in ological
in uddin
in mus
in avian
in teg
in stock
on ian
on ge
on ie
on ore
on ies
on bur
on au
on jo
on aland
on ents
on ta
on ado
on col
on ists
on net
on iki
on eree
on noj
on kers
on arios
an ti
an en
an te
an us
an ut
an ton
an og
an ok
an ke
an tee
an oy
an phy
an oke
an awa
an chard
an has
an jiang
an astasiia
an ovac
an Ãª
an hÃ£o
Ġs n
Ġs le
Ġs is
Ġs rb
Ġs ic
Ġs ate
Ġs ear
Ġs ot
Ġs ow
Ġs ard
Ġs art
Ġs est
Ġs end
Ġs ik
Ġs ke
Ġs ati
Ġs ank
Ġs aul
Ġs ens
Ġs que
Ġs ket
Ġs itar
Ġs oss
Ġs Ã¶
Ġs tim
Ġs its
Ġs under
Ġs ÃŃ
Ġs int
Ġs iet
Ġs ara
Ġs ands
Ġs ned
Ġs ny
Ġs zen
Ġs ogn
Ġs bc
Ġs Åį
Ġs agi
Ġs sv
Ġs zo
Ġs ending
Ġs elling
Ġs iki
Ġs ucker
Ġs ikh
Ġs titt
Ġs jk
Ġs akers
Ġs ledge
Ġs Ã¥
Ġs ensor
Ġs andrÃ©
Ġs bv
Ġs Ä«
Ġs Ã¬
or al
or ing
or ian
or ity
or ious
or ations
or ster
or berg
or za
or chest
or ange
or aries
or sela
or htwine
or mandy
or thosis
ti k
ti te
ti la
ti at
ti mer
ti ers
ti ment
ti eth
ti ya
ti Ã¡n
ti tia
ti enne
ti anno
ti ffany
ti ches
ti veness
ti fication
Ġb b
Ġb s
Ġb is
Ġb am
Ġb ag
Ġb ub
Ġb ie
Ġb ick
Ġb end
Ġb land
Ġb ip
Ġb ong
Ġb ore
Ġb ast
Ġb urr
Ġb iz
Ġb red
Ġb ory
Ġb ins
Ġb af
Ġb sp
Ġb anc
Ġb ons
Ġb com
Ġb ender
Ġb oll
Ġb oss
Ġb han
Ġb urt
Ġb ena
Ġb ester
Ġb ents
Ġb ws
Ġb uri
Ġb ais
Ġb Ã¡n
Ġb unt
Ġb Ã¤
Ġb ise
Ġb umb
Ġb itch
Ġb do
Ġb enny
Ġb ugg
Ġb anned
Ġb ucas
Ġb azar
Ġb jÃ¶
Ġb lex
Ġb leigh
Ġb anning
Ġb anca
Ġb pd
Ġb agn
Ġb aja
Ġb mw
ar p
ar en
ar ag
ar ted
ar ist
ar ov
ar ach
ar ma
ar lo
ar ron
ar na
ar itz
ar ters
ar cer
ar ency
ar ama
ar berg
ar tis
ar ently
ar rie
ar ika
ar ettes
ar naud
ar noÅ¡t
ar tet
ar apeta
ar adhyula
ar bÃ¦k
ar xiv
Ġc t
Ġc z
Ġc ig
Ġc ian
Ġc ord
Ġc ak
Ġc ey
Ġc ork
Ġc ill
Ġc ran
Ġc av
Ġc ec
Ġc ine
Ġc ore
Ġc team
Ġc se
Ġc years
Ġc ree
Ġc ai
Ġc ern
Ġc able
Ġc au
Ġc Ã³
Ġc ats
Ġc ited
Ġc uri
Ġc su
Ġc be
Ġc ahl
Ġc ities
Ġc sr
Ġc Ãº
Ġc ricin
Ġc ato
Ġc Ð¸
Ġc tv
Ġc aine
Ġc rystal
Ġc cm
Ġc nid
Ġc ÑĤ
Ġc umm
Ġc rane
Ġc iko
Ġc ache
Ġc reek
Ġc ensus
Ġc uddy
en ing
en om
en ly
en um
en ess
en ey
en ip
en ong
en em
en ice
en umber
en ger
en ite
en au
en ba
en itor
en ho
en berg
en act
en yi
en fÃ¼hrer
en yat
en istic
en gered
en ango
en fei
en bos
Ġth a
Ġth o
Ġth us
Ġth it
Ġth ig
Ġth ie
Ġth Ã©
Ġth ann
Ġth uring
Ġth ank
Ġth ib
Ġth yss
Ġp k
Ġp m
Ġp rb
Ġp us
Ġp up
Ġp ey
Ġp ire
Ġp iv
Ġp ik
Ġp pg
Ġp em
Ġp ine
Ġp ang
Ġp iz
Ġp ash
Ġp amp
Ġp ina
Ġp Ã¡
Ġp ati
Ġp ens
Ġp ix
Ġp ose
Ġp ale
Ġp au
Ġp na
Ġp ani
Ġp urch
Ġp ages
Ġp enz
Ġp ta
Ġp uri
Ġp unt
Ġp ml
Ġp omp
Ġp bs
Ġp fc
Ġp ink
Ġp ushing
Ġp ugg
Ġp yr
Ġp owder
Ġp ires
Ġp anty
Ġp uken
Ġp iny
Ġp igo
Ġp aks
Ġp aternal
Ġp eck
Ġp nas
Ġp ujol
Ġp whl
Ġp yram
Ġf f
Ġf am
Ġf ing
Ġf ate
Ġf it
Ġf ay
Ġf et
Ġf ug
Ġf land
Ġf cl
Ġf rit
Ġf iam
Ġf old
Ġf ier
Ġf aj
Ġf Ã¡
Ġf ati
Ġf ix
Ġf ats
Ġf ba
Ġf rac
Ġf amed
Ġf uch
Ġf acts
Ġf ru
Ġf Ã¤
Ġf ract
Ġf let
Ġf eyer
Ġf sv
Ġf pr
Ġf anz
Ġf andy
Ġf isk
Ġf Ã¼hrer
Ġf iba
Ġf enton
Ġf dlr
Ġf enem
al k
al er
al id
al ess
al ain
al ov
al ous
al ong
al ph
al led
al ender
al fo
al ism
al gar
al ester
al ta
al lah
al ties
al ized
al cu
al isa
al hab
al onso
al ready
al unya
al casid
al cazar
al uate
al oniki
le l
le o
le p
le en
le ch
le st
le ad
le ter
le sh
le if
le ast
le ma
le lo
le ender
le au
le ston
le ho
le andro
le mont
le hem
le vert
le Ã´nidas
le vi
le aving
le wis
le arning
le orchest
Ġm l
Ġm m
Ġm s
Ġm t
Ġm ch
Ġm ent
Ġm om
Ġm im
Ġm ia
Ġm ish
Ġm ous
Ġm ab
Ġm outh
Ġm ice
Ġm Ã©
Ġm io
Ġm ond
Ġm ere
Ġm ason
Ġm ial
Ġm ild
Ġm Ã¡
Ġm ai
Ġm ens
Ġm ica
Ġm ult
Ġm Ã¶
Ġm urch
Ġm ates
Ġm ÃŃ
Ġm udd
Ġm bour
Ġm bal
Ġm unk
Ġm pa
Ġm bc
Ġm ps
Ġm Ã¶n
Ġm esa
Ġm andr
Ġm vine
Ġm fa
Ġm Äģ
Ġm amma
Ġm andy
Ġm ugg
Ġm afa
Ġm uzi
Ġm ime
Ġm uggen
Ġm undo
Ġm dna
Ġm hra
Ġm Ð¸Ð»
Ġm dm
Ġm nem
Ġw i
Ġw p
Ġw t
Ġw re
Ġw age
Ġw ire
Ġw iz
Ġw ond
Ġw ies
Ġw bo
Ġw ield
Ġw ann
Ġw ool
Ġw lb
Ġw ished
Ġw emb
Ġw ta
Ġw su
Ġw test
Ġw ards
Ġw ise
Ġw pa
Ġw bc
Ġw ien
Ġw odi
Ġw icker
Ġw abd
Ġw dj
Ġw jus
Ġw sdc
te o
te x
te ud
te ctor
te ment
te br
te au
te je
te ase
te xt
te mis
te khn
te arach
Ġthe o
Ġthe ss
Ġthe lon
Ġthe bush
Ġthe gidi
is c
is tle
is ie
is ine
is ance
is port
is ual
is ition
is za
is ius
is cu
is pa
is aki
is cop
is borough
is ades
is mail
is cent
is emaker
is diction
is enyi
rb a
rb q
rb y
rb on
rb ul
rb ana
rb ani
rb urg
Ġo ed
Ġo us
Ġo der
Ġo man
Ġo les
Ġo ph
Ġo ke
Ġo sp
Ġo uth
Ġo ks
Ġo po
Ġo sb
Ġo pa
Ġo ps
Ġo gre
Ġo mn
Ġo uen
Ġo ops
Ġo thman
Ġo gie
Ġo lex
Ġo mitted
Ġo eu
Ġo msk
Ġo ogah
Ġo mni
Ġh d
Ġh s
Ġh ed
Ġh ub
Ġh ight
Ġh ue
Ġh ess
Ġh ak
Ġh ts
Ġh iv
Ġh ell
Ġh ull
Ġh cl
Ġh enn
Ġh atch
Ġh ock
Ġh anc
Ġh ens
Ġh ana
Ġh ester
Ġh azz
Ġh ms
Ġh yd
Ġh uba
Ġh oke
Ġh utor
Ġh Äģ
Ġh yeon
Ġh inter
Ġh orne
Ġh aka
Ġh endel
Ġh kk
Ġh inck
Ġh wang
Ġh iggins
Ġh appen
Ġh okka
Ġh hodge
Ġh hh
Ġh jal
Ġh wÅın
Ġh ÉĴ
re x
re ad
re si
re ich
re ated
re tt
re au
re port
re turn
re ase
re ci
re hen
re gy
re ise
re Å¡
re versi
re eder
re ctly
re leased
re ement
re Éª
Ġd c
Ġd ic
Ġd and
Ġd ap
Ġd ow
Ġd ug
Ġd ish
Ġd ry
Ġd so
Ġd ong
Ġd ast
Ġd urr
Ġd amp
Ġd ress
Ġd ina
Ġd ier
Ġd atch
Ġd ens
Ġd ino
Ġd ans
Ġd uk
Ġd rap
Ġd yer
Ġd Ã¶
Ġd ating
Ġd ari
Ġd ates
Ġd iff
Ġd ila
Ġd ances
Ġd vor
Ġd umb
Ġd sc
Ġd lit
Ġd fc
Ġd rop
Ġd ondo
Ġd hab
Ġd ucks
Ġd assel
Ġd armstadt
Ġd ÊĴ
Ġd okka
Ġd zhah
Ġn v
Ġn ir
Ġn ate
Ġn ac
Ġn ou
Ġn pg
Ġn io
Ġn me
Ġn go
Ġn ina
Ġn ier
Ġn aj
Ġn az
Ġn Ã¡
Ġn af
Ġn ons
Ġn ose
Ġn au
Ġn Ã³
Ġn Ã¼
Ġn ago
Ġn any
Ġn ais
Ġn ya
Ġn ara
Ġn adu
Ġn yd
Ġn era
Ġn igan
Ġn are
Ġn aro
Ġn ude
Ġn fc
Ġn Ã¼r
Ġn np
Ġn pr
Ġn asi
Ġn iche
Ġn cs
Ġn acht
Ġn ils
Ġn anty
Ġn hk
Ġn adir
Ġn ieu
Ġn Ã®mes
Ġn inja
Ġn rbq
as c
as en
as ted
as ts
as ton
as ant
as ite
as ova
as tics
as car
as ily
as cus
as kalu
as tian
as aka
as quez
as wara
Ġin a
Ġin ch
Ġin ad
Ġin ver
Ġin cl
Ġin vis
Ġin ner
Ġin ven
Ġin ters
Ġin fo
Ġin tim
Ġin test
Ġin tent
Ġin forming
Ġin mates
Ġin vention
Ġin suff
Ġin xs
Ġin equ
Ġin eligible
Ġin eff
Ġin moc
am i
am s
am ber
am os
am io
am we
am ati
am ania
am ents
am sk
am mit
am oto
am used
am atsu
am baud
am binda
Ġan tic
Ġan hu
Ġan tig
Ġan tiÄĩ
Ġan imoto
Ġan onymous
Ġan swer
Ġan taly
Ġan orthosis
es o
es an
es ar
es en
es it
es ow
es ity
es ang
es ther
es ters
es tes
es tier
es tley
es pre
es ional
es ky
es yol
es fres
la e
la tion
la ine
la vern
la ev
la uch
la ga
la jos
la gh
la Ã¯d
la gher
ic on
ic ing
ic orn
ic ts
ic ated
ic enc
ic tions
ic ator
ic chi
ic anda
ic ipal
ic urist
ic Ãł
ed a
ed t
ed ed
ed ear
ed ith
ed em
ed iam
ed back
ed za
ed vin
ed die
ed uard
ed ivÃ¢ndio
ed eon
ed elic
ro le
ro ath
ro ly
ro man
ro ong
ro ft
ro hn
ro uth
ro ll
ro ald
ro han
ro ba
ro under
ro ots
ro yce
ro dney
ro berto
ro yers
ro drig
ro ux
ro elcke
ir k
ir t
ir on
ir ce
ir us
ir ay
ir ut
ir les
ir med
ir ene
ir ited
ir Ã£o
ir vine
ir nov
ir spor
ir enyat
Ġ20 9
Ġ20 97
Ġt d
Ġt la
Ġt ate
Ġt ent
Ġt orn
Ġt um
Ġt end
Ġt uc
Ġt ward
Ġt Ã©
Ġt ere
Ġt ash
Ġt ree
Ġt af
Ġt sp
Ġt ank
Ġt uth
Ġt ens
Ġt one
Ġt ings
Ġt ale
Ġt ender
Ġt Ã³
Ġt azz
Ġt sk
Ġt va
Ġt une
Ġt bs
Ġt bl
Ġt shi
Ġt ondo
Ġt inch
Ġt umble
Ġt atsu
Ġt armac
Ġt tm
ing a
ing it
ing ly
ing ale
ing ual
ing ning
ing don
ing ala
ing roÃŁ
Ġand or
Ġand ers
Ġand ika
Ġand erle
Ġj in
Ġj ed
Ġj ur
Ġj et
Ġj ug
Ġj em
Ġj ere
Ġj ier
Ġj sp
Ġj ls
Ġj ace
Ġj han
Ġj ida
Ġj sk
Ġj ury
Ġj Ã¡n
Ġj ugoslav
Ġj omo
Ġj iang
Ġj jj
Ġj igs
Ġj iao
Ġj ebel
Ġj yva
Ġj ingning
tion ist
un as
un ate
un ity
un ct
un ge
un ice
un til
un ty
un ita
un cle
un ners
un like
un ashen
un cles
un fort
Ġg q
Ġg in
Ġg ate
Ġg and
Ġg up
Ġg ard
Ġg ust
Ġg ord
Ġg ork
Ġg ill
Ġg av
Ġg ong
Ġg Ã©
Ġg io
Ġg ai
Ġg ks
Ġg hand
Ġg azi
Ġg da
Ġg tr
Ġg anda
Ġg omb
Ġg ett
Ġg ps
Ġg cb
Ġg ullo
Ġg aman
Ġg ifford
Ġg mg
Ġg entry
Ġg igg
Ġg arde
Ġg urd
Ġg atti
Ġg nk
Ġg igo
Ġg cmg
Ġg wen
Ġg itter
Ġg igs
Ġg uler
Ġg iselda
Ġg nistan
Ġg wmor
Ġg isenyi
Ġg icanda
Ġg edeon
ce o
ce la
ce ived
ce lyn
ce cil
ce utical
el am
el ing
el ow
el ight
el ik
el se
el ance
el yn
el sk
el be
el da
el vin
el wood
el ode
el iza
el oid
el mers
el ohor
el basan
ate a
ate gy
ate urs
us te
us ko
us anne
us ias
us places
us ole
us chenko
us asz
us Ã²
us cri
us dal
us sions
it ti
it am
it ra
it age
it uary
it ers
it Ã©
it ment
it ai
it ner
it one
it alist
it able
it ama
it ru
it less
it rated
it gift
it enh
ch ul
ch ia
ch ell
ch op
ch ang
ch ina
ch ris
ch inn
ch ron
ch ance
ch ev
ch ese
ch able
ch aly
ch sch
ch icago
ch urch
ch ief
ch aud
ch owski
ch Ã¡z
ch andler
ch rystal
ch ampaign
ch ingen
ch oudhary
ch anges
ch bear
ch ige
ch openjuniorresult
ch bren
ch lkam
ch amber
ol t
ol or
ol ar
ol en
ol ve
ol ith
ol der
ol ence
ol ics
ol iver
ol lab
ol sk
ol ios
ol ving
ol tan
ol iko
ol idated
ol park
ol erance
il o
il or
il as
il ig
il st
il ow
il ight
il tern
il ula
il lah
il worth
il ities
il tr
il room
il itation
il oh
il mes
il ua
il itated
ur on
ur ion
ur sion
ur ice
ur she
ur akh
ent a
ent re
ent um
ent ant
ent ina
ent ati
ent ual
ent ured
at an
at en
at ut
at ri
at ton
at one
at ari
at tar
at ural
at pa
at torney
at zsch
at thi
Ġl p
Ġl ent
Ġl ot
Ġl ud
Ġl od
Ġl land
Ġl iv
Ġl ik
Ġl iz
Ġl ure
Ġl inn
Ġl one
Ġl ons
Ġl ib
Ġl lb
Ġl ena
Ġl ÃŃ
Ġl uck
Ġl owell
Ġl Ã¤
Ġl ivid
Ġl otti
Ġl ott
Ġl anie
Ġl ucky
Ġl odi
Ġl ift
Ġl Ã¡z
Ġl orne
Ġl otb
Ġl Ã¥
Ġl ength
Ġl vii
Ġl ingala
he y
he it
he id
he mer
he art
he ment
he ha
he ars
he werdine
he tti
he chingen
ber te
ber shop
ber force
ber jaya
Ġde i
Ġde ar
Ġde et
Ġde ut
Ġde me
Ġde bo
Ġde af
Ġde cap
Ġde com
Ġde au
Ġde ta
Ġde ek
Ġde ws
Ġde ci
Ġde wa
Ġde hr
Ġde Ã¡k
Ġde lay
Ġde cca
Ġde aring
Ġde hart
Ġde witt
Ġde lemont
Ġde tector
ig y
ig on
ig ing
ig og
ig ai
ig adu
ig lie
ig well
ig agi
ig gers
ig ours
ig rant
ig lace
ig erator
Ġk om
Ġk ac
Ġk ot
Ġk orn
Ġk ia
Ġk et
Ġk ri
Ġk art
Ġk ue
Ġk she
Ġk amp
Ġk ins
Ġk Ã¡
Ġk af
Ġk ris
Ġk ung
Ġk ham
Ġk inn
Ġk ens
Ġk ane
Ġk aly
Ġk lad
Ġk con
Ġk har
Ġk uch
Ġk ula
Ġk ob
Ġk ays
Ġk olk
Ġk ines
Ġk be
Ġk iss
Ġk ili
Ġk bs
Ġk inz
Ġk otto
Ġk lap
Ġk itt
Ġk ict
Ġk rapp
Ġk asia
Ġk Ã¶l
Ġk oko
Ġk ommun
Ġk lm
Ġk ÉĻ
Ġk eski
Ġk unya
Ġk empe
Ġk dka
Ġk qv
Ġk esar
Ġk rohn
Ġk unita
Ġk uschenko
Ġre ar
Ġre ed
Ġre ag
Ġre id
Ġre ub
Ġre ins
Ġre ven
Ġre mo
Ġre min
Ġre jo
Ġre lin
Ġre tal
Ġre tin
Ġre mark
Ġre xx
Ġre act
Ġre fr
Ġre igned
Ġre els
Ġre burial
Ġre hab
Ġre ared
Ġre thy
Ġre venue
Ġre utov
Ġre union
Ġre united
Ġre married
Ġre jected
Ġre enact
Ġre hears
ation ing
ation aux
ame a
Ġar is
Ġar les
Ġar ies
Ġar tu
Ġar min
Ġar ty
Ġar ief
Ġar ya
Ġar mor
Ġar rÃ©
Ġar ista
Ġar thri
Ġar apeta
Ġar lene
Ġar temis
st en
st at
st ri
st age
st ers
st ok
st ated
st air
st ood
st ance
st able
st ring
st ands
st oy
st rock
st ream
st spec
st reich
tic ul
tic ial
tic ism
Ġr ate
Ġr ul
Ġr um
Ġr age
Ġr ie
Ġr ill
Ġr und
Ġr pg
Ġr iz
Ġr ial
Ġr ai
Ġr sp
Ġr ather
Ġr ind
Ġr ender
Ġr ats
Ġr ates
Ġr Ã¢
Ġr uston
Ġr itch
Ġr ito
Ġr ains
Ġr iot
Ġr ainer
Ġr gh
Ġr iche
Ġr pn
Ġr Äģ
Ġr aging
Ġr igg
Ġr upp
Ġr mi
Ġr Ã³d
Ġr sfsr
Ġr alph
Ġr isborough
Ġr igours
Ġwas te
Ġfor em
Ġfor ma
Ġfor ming
Ġfor tier
Ġfor erun
ad h
ad an
ad ing
ad un
ad ul
ad ian
ad ri
ad res
ad iv
ad Ã©
ad io
ad ai
ad aw
ad ors
ad olf
ad rian
ad alberto
ad mir
ad jutor
ad zwa
Ġbirth day
ag a
ag ro
ag at
ag ian
ag ust
ag ong
ag ma
ag ric
ag ne
ag Ã¼
ag ery
ag uer
ag ments
ag awa
ag ora
ag nieszka
ag ustina
ag oro
ag ogical
ag reg
ag liano
ag ascar
ag hetti
Ġto y
Ġto st
Ġto up
Ġto ward
Ġto mp
Ġto ss
Ġto da
Ġto uge
Ġto wers
Ġto ols
Ġto owo
Ġto bac
Ġto tals
si v
si or
si es
si wan
si fied
si bylle
si adabida
si veness
ter ing
ter ge
ter ry
ter rence
ter esa
om y
om ir
om and
om et
om os
om ou
om ington
om ical
im an
im ir
im ur
im ik
im ore
im ki
im ba
im sb
im ents
im eter
im ages
im eg
im ming
im achus
im ni
im arily
im ilian
im atti
im pij
im pression
im esi
im atl
im lesh
Ġis i
Ġis u
Ġis ot
Ġis id
Ġis os
Ġis ep
Ġis lington
Ġis tv
Ġis lay
Ġis teri
ear es
and am
and um
and ell
and ile
and uncles
tle ff
tle ty
tle sen
tle pool
tle dge
Ġst all
Ġst um
Ġst rom
Ġst av
Ġst op
Ġst ric
Ġst inn
Ġst yl
Ġst je
Ġst Ã¶
Ġst out
Ġst ages
Ġst ring
Ġst unt
Ġst uck
Ġst oy
Ġst oke
Ġst ains
Ġst rait
Ġst ops
Ġst ole
Ġst anno
Ġst och
Ġst oog
Ġst olen
Ġst agliano
ul us
ul id
ul os
ul ner
ul led
ul sch
ul kar
ul oid
ul sed
ul thood
ul fed
Ġy b
Ġy i
Ġy un
Ġy og
Ġy ere
Ġy ash
Ġy ind
Ġy uk
Ġy itz
Ġy ellow
Ġy ush
Ġy adier
Ġy ori
Ġy usa
Ġy vette
Ġy lÃ¤
Ġy mca
Ġy vars
Ġy onkers
Ġy alta
Ġ201 6
Ġ201 8
pla ined
mber ton
Ġe b
Ġe ve
Ġe ith
Ġe man
Ġe ers
Ġe ish
Ġe uc
Ġe ton
Ġe ph
Ġe tt
Ġe ased
Ġe ib
Ġe Ã¶
Ġe ase
Ġe bs
Ġe bane
Ġe ged
Ġe kel
Ġe aling
Ġe aster
Ġe bay
Ġe aton
Ġe aters
Ġe appen
Ġe kstra
Ġe asily
Ġe laine
Ġe unice
Ġe elam
Ġe itam
Ġe imsb
Ġal igh
Ġal ton
Ġal ina
Ġal co
Ġal br
Ġal ix
Ġal ania
Ġal tin
Ġal ta
Ġal ms
Ġal aska
Ġal law
Ġal casid
Ġal titudes
Ġal ert
Ġal levi
Ġch m
Ġch s
Ġch os
Ġch ie
Ġch ich
Ġch av
Ġch ab
Ġch Ã©
Ġch ai
Ġch ood
Ġch ances
Ġch amo
Ġch ute
Ġch ao
Ġch andr
Ġch utes
Ġch rystal
Ġch itt
Ġch ucker
Ġch isel
Ġch alat
Ġch atter
Ġch illon
Ġch azal
Ġch onbur
Ġch ispa
Ġch iltern
Ġch igwell
ve led
ve enai
ve press
ac c
ac u
ac ia
ac os
ac res
ac ting
ac com
ac adem
ac ola
ac ja
ac apa
ac lick
ac erbated
Ġas a
Ġas ph
Ġas oci
Ġas cap
Ġas hi
Ġas ean
Ġas ken
Ġas pin
Ġas cribed
Ġas pects
ver la
ver ie
ver ne
ver ting
ver ty
ver theless
ver bÃ¤n
ian ces
ot as
ot enti
ot ta
Ġun ity
Ġun ice
Ġun aw
Ġun able
Ġun ico
Ġun bro
Ġun cons
Ġun isa
Ġun lim
Ġun rep
Ġun law
Ġun due
Ġun fit
Ġun publ
Ġun tou
Ġun married
Ġun waver
Ġun related
Ġun censor
Ġun favour
Ġun gdom
Ġun isport
Ġun amused
Ġun icorn
Ġun chang
Ġun stable
orn kop
all ing
all ied
all ireland
all ments
all sv
all music
id ing
id ou
id ah
id ai
id ical
id ating
id ents
id iro
id ovich
id leman
id elphonse
id isc
Ġhe ft
Ġhe ide
Ġhe ep
Ġhe ats
Ġhe ya
Ġhe els
Ġhe tty
Ġhe iress
ap s
ap u
ap ut
ap art
ap ain
ap rom
ap ort
ap se
ap ril
ap ons
ap oll
ap ara
ap ura
ap ple
ap ps
ap ego
ap ljina
Ġon o
Ġon ond
Ġon to
Ġon edin
Ġon set
ia in
ia Ã©
ia bly
Ġv j
Ġv v
Ġv st
Ġv ity
Ġv ue
Ġv ry
Ġv ip
Ġv ach
Ġv ok
Ġv ast
Ġv ass
Ġv io
Ġv ince
Ġv olog
Ġv ale
Ġv ans
Ġv ance
Ġv ace
Ġv itor
Ġv ita
Ġv nes
Ġv ahl
Ġv ivid
Ġv chen
Ġv endor
Ġv aud
Ġv ries
Ġv ader
Ġv inson
Ġv edra
Ġv ibe
Ġv ijaya
Ġv enture
Ġv alli
Ġv ista
Ġv aux
Ġv uila
Ġv owed
Ġv icky
Ġv anni
Ġv rba
Ġv esyol
Ġv ediam
Ġv entured
Ġv imlesh
Ġv andell
Ġv ulner
ay ab
ay ton
ay hi
et ze
et ings
et ty
et sk
et ta
et aker
et su
et rol
ut ry
ut able
ut nik
ub o
ub re
ub ino
ow ing
ow el
ow ay
ow itz
ow cro
Ġse o
Ġse al
Ġse es
Ġse ed
Ġse ive
Ġse ung
Ġse que
Ġse ib
Ġse ize
Ġse ek
Ġse yd
Ġse ized
Ġse ider
Ġse well
Ġse gre
Ġse eds
Ġse gel
Ġse eking
Ġse elow
Ġse aport
Ġat ene
Ġat titudes
Ġat yra
Ġat tila
Ġpla ud
Ġpla ins
Ġpla ines
Ġpla za
Ġpla cing
Ġpla vna
Ġpla gue
Ġle cc
Ġle tu
Ġle mar
Ġle ix
Ġle ite
Ġle ica
Ġle je
Ġle sb
Ġle ila
Ġle va
Ġle Ã³n
Ġle ving
Ġle bl
Ġle iden
Ġle thal
Ġle arning
Ġle uka
Ġle titia
Ġle itner
Ġle aguer
ath ist
mer t
mer ing
mer ly
mer sion
mer cial
mer sheim
Ġwh os
Ġwh ang
Ġwh elan
Ġwh dh
Ġwh istle
Ġwh ilst
ist ing
ist ent
ist ries
ist rar
ist adors
up e
up o
ri o
ri er
ri th
ri or
ri ated
ri alist
ri arch
ri bers
ri Äį
ri ott
ri Ã¨re
ri fice
ri tionist
ard rop
ard zhik
ug in
ug ia
ug ars
ug igagi
ra ft
ra ham
ra je
ra tis
ra va
ra ising
ra him
ra bles
ra fael
ra jendra
ly wood
Ġ18 25
Ġplay ground
Ġplay ful
um ing
um sk
um yan
um ika
um alat
um ulating
um komm
um inous
Ġnational e
Ġnational muse
Ġro i
Ġro ar
Ġro cc
Ġro eb
Ġro ok
Ġro bo
Ġro pp
Ġro of
Ġro use
Ġro wer
Ġro dney
Ġro well
Ġro ute
Ġro ark
Ġro Ã«
Ġro sie
Ġro tation
Ġro ttenham
Ġro unders
Ġro hra
Ġro xy
Ġro uson
Ġro tating
Ġro xbury
Ġro thko
Ġro anoke
Ġuni te
Ġuni ons
Ġuni versi
os ot
os ity
os ci
os hr
art in
art oum
art enfÃ¼hrer
ith a
ith aradhyula
Ġfo il
Ġfo uc
Ġfo ib
Ġfo ko
Ġfo cal
Ġfo ols
Ġfo cÅŁ
Ġ3 45
Ġ3 76
Ġco a
Ġco le
Ġco op
Ġco les
Ġco qu
Ġco br
Ġco her
Ġco leg
Ġco uch
Ġco use
Ġco ining
Ġco dr
Ġco star
Ġco hab
Ġco bre
Ġco author
Ġco dis
Ġco sta
Ġco urses
Ġco ursing
Ġco dif
Ġco gn
Ġco adjutor
Ġco etze
Ġco utry
Ġco ugars
Ġpro ud
Ġpro to
Ġpro sp
Ġpro ven
Ġpro mon
Ġpro men
Ġpro of
Ġpro pos
Ġpro tÃ©
Ġpro pon
Ġpro pul
Ġpro posed
Ġpro tag
Ġpro jection
Ġpro tot
Ġpro leter
Ġpro chÃ¡z
Ġ0 30
Ġ0 35
Ġ0 01
Ġ0 11
Ġ0 03
res al
res siveness
Ġte al
Ġte la
Ġte mer
Ġte so
Ġte ens
Ġte mpla
Ġte cnica
Ġte slik
Ġte ardrop
ge m
ge on
ge et
ge yd
ge chi
ge org
ge vity
ge yre
ust ri
ust ration
ust rated
Ġbe f
Ġbe it
Ġbe any
Ġbe eth
Ġbe yo
Ġbe bet
Ġbe ÅŁ
Ġbe thal
Ġbe ech
Ġbe cker
Ġbe kz
Ġbe instock
Ġbe orhtwine
Ġbe irut
Ġbe idleman
Ġim f
Ġim pe
Ġim por
Ġim bal
Ġim position
Ġim pa
Ġim person
Ġim agery
Ġim mersion
Ġne c
Ġne o
Ġne il
Ġne op
Ġne ck
Ġne ather
Ġne pen
Ġne edy
Ġne ved
Ġne cess
Ġne fte
Ġne eded
Ġne olith
oc ate
oc aly
oc enzo
oc aster
oc esan
ue uil
der a
der by
der tÃ¤
Ġpo hl
Ġpo unds
Ġpo gue
Ġpo gg
Ġpo inte
Ġpo verty
Ġmar te
Ġmar io
Ġmar iam
Ġmar vel
Ġmar its
Ġmar sk
Ġmar iet
Ġmar ij
Ġmar ital
Ġmar ise
Ġmar cus
Ġmar ni
Ġmar vin
Ġmar gre
Ġmar iza
Ġmar ÃŃn
Ġmar gie
Ġmar oa
Ġmar atha
Ġmar athi
Ġmar jor
Ġmar oons
Ġmar zell
Ġmar thin
Ġmar anhÃ£o
Ġmar cela
ie v
ie per
ie val
ie wa
ie cr
ie kar
ie ging
ie ffer
sh am
sh ing
sh it
sh ell
sh ann
sh elly
sh imi
sh tein
sh opp
sh aking
sh ades
sh ops
sh orne
sh urst
sh alov
Ġwith draw
man s
man tle
man ish
man ces
man ova
man ila
man uel
man aged
man zullo
man cini
man iye
man tling
Ġla x
Ġla ce
Ġla id
Ġla ff
Ġla ugh
Ġla per
Ġla for
Ġla wn
Ġla co
Ġla ven
Ġla yer
Ġla ek
Ġla iss
Ġla pt
Ġla kat
Ġla ois
Ġla kes
Ġla cros
Ġla fal
Ġla usanne
Ġla verne
Ġla dera
ou f
ou ter
ou ki
ou da
ou fi
Ġdeath scapes
Ġsp al
Ġsp at
Ġsp ous
Ġsp ade
Ġsp ree
Ġsp hl
Ġsp ents
Ġsp yd
Ġsp ark
Ġsp oke
Ġsp amal
Ġsp eyer
Ġsp anned
Ġsp richt
Ġsp anning
Ġsp oons
Ġsp oken
Ġsp lits
Ġsp onge
Ġsp read
Ġsp utnik
cc us
cc ia
cc cc
ud ar
ud ens
ud sman
ud iants
ball ero
ess a
ess in
ess ing
ers al
ers ki
ers dor
ers mith
ers fontein
ain der
ain mc
Ġcon ak
Ġcon ey
Ġcon for
Ġcon co
Ġcon ner
Ġcon ven
Ġcon tes
Ġcon dom
Ġcon ject
Ġcon cord
Ġcon rad
Ġcon cept
ord ed
ord ilig
ion es
ion ist
ion ek
ion aire
rom e
rom Ã¡n
rom ise
rom aine
ak u
ak an
ak ov
ak ka
ak ha
ak ani
ak ura
ak bar
ak ala
ak ela
ak witney
ak enly
ak ami
ak aku
Ġcom a
Ġcom e
Ġcom o
Ġcom in
Ġcom eb
Ġcom bo
Ġcom cast
Ġcom bus
Ġimage wid
ey ed
ey asu
est ro
est aw
est ors
est ablish
ich a
ich inojÅį
ill o
ill er
ill as
ill ia
ill ieu
ill ustrated
ill ionaire
ish ment
ish aj
ish enderson
ish irt
if ton
if ied
if ix
if ica
Ġnew man
Ġnew fo
Ġnew sr
Ġnew hart
Ġnew york
Ġjo o
Ġjo bo
Ġjo dy
Ġjo anie
Ġjo Ð²
Ġjo dh
Ġjo celyn
ov ar
ov il
ov ia
ov ik
ov enko
ov inen
ov esi
ov anni
ov sky
ov div
ov isual
ov irus
ov ayhi
ack a
ack in
ack ers
ack now
ack een
Ġsh ame
Ġsh ri
Ġsh ab
Ġsh ire
Ġsh iv
Ġsh own
Ġsh og
Ġsh ang
Ġsh ade
Ġsh ield
Ġsh ann
Ġsh az
Ġsh ari
Ġsh ots
Ġsh opp
Ġsh ift
Ġsh uttleworth
Ġsh inee
Ġsh uff
Ġsh anes
Ġsh unned
Ġsh elia
Ġsh pil
Ġsh anti
Ġsh aler
Ġsh iloh
Ġsh umsk
Ġcol og
Ġcol wyn
Ġcol gate
Ġcol eraine
ick ing
end ation
end ment
end ale
end ance
end force
end ez
end eau
end ambinda
ran ath
ran agat
Ġcap tive
Ġcap tal
Ġcap ped
Ġcap tors
Ġap g
Ġap res
Ġap ollo
Ġap hrem
Ġap arna
Ġap ocaly
av a
av i
av o
av ir
av ation
av ia
av ade
av ior
av ira
av kaz
av iglie
Ġamer ian
als a
als ki
Ġfoot ing
Ġfoot ste
Ġfoot prints
Ġme al
Ġme at
Ġme ad
Ġme ter
Ġme ath
Ġme hl
Ġme ek
Ġme era
Ġme mb
Ġme uron
Ġme ticul
Ġme etings
od on
od ed
od el
od ation
od apan
od hu
od ius
od adjian
land o
Ġby am
Ġby rd
Ġby rne
ry l
ry ds
ry james
ry lic
ab y
ab es
ab ad
ab ov
ab end
ab ib
ab Ã¡n
ab rat
ab arca
ab reu
ab ilia
ab resi
ab asen
ab ilities
ab abes
eb le
eb rew
eb eg
eb ray
eb ridge
vers en
vers atile
ts ky
ts enter
Ġyears active
ip t
ip le
ip ated
ip her
ip ace
ip ula
ip ela
ip hone
ip stream
Ġjan i
Ġjan ik
Ġjan ice
Ġjan kov
Ġjan cs
Ġjan edear
Ġfootball ers
ach a
ach al
ach ment
ach uth
ach urch
ach aria
Ġ6 000
Ġ6 83
Ġ6 68
Ġ6 82
Ġser es
Ġser ie
Ġser mon
Ġser iously
Ġser puk
Ġ4 21
Ġ4 18
Ġ4 29
Ġ4 33
Ġ4 44
Ġ4 174
Ġbo g
Ġbo at
Ġbo ers
Ġbo und
Ġbo yn
Ġbo ught
Ġbo gra
Ġbo chard
Ġbo iled
Ġbo jang
Ġbo asted
Ġwho op
Ġmay i
Ġmay o
Ġmay s
Ġmay ors
Ġmay hem
uc a
uc es
uc ing
uc us
uc ign
uc tions
uc ros
uc esso
uc ratis
iv ian
iv ore
iv ka
iv ely
iv ici
Ġ5 80
Ġ5 30
Ġ5 67
Ġ5 35
Ġ5 76
Ġ5 16
Ġ5 87
Ġ5 89
Ġ5 27
Ġ5 64
ton es
Ġor o
Ġor u
Ġor ac
Ġor up
Ġor iel
Ġor az
Ġor han
Ġor enburg
Ġor atory
Ġor yol
Ġor oz
Ġor acle
Ġor phe
Ġor szÃ¡
Ġor estes
Ġor imatti
Ġor illia
Ġor lando
ik er
ik en
ik al
ik ta
ik yo
ik ato
ik mm
ik ingit
ik avkaz
und e
und land
und ance
Ġsc g
Ġsc ent
Ġsc ant
Ġsc ale
Ġsc out
Ġsc li
Ġsc ared
Ġsc uder
Ġsc atone
Ġsc apego
Ġsc owcro
ong o
Ġunivers e
Ġcar son
Ġcar ril
Ġcar ne
Ġcar ron
Ġcar inth
Ġcar lesi
Ġcar penter
Ġcar ioc
Ġcar nival
Ġcar roll
Ġcar sten
Ġcar etaker
Ġcar rier
ft aa
ec ar
ec essor
ec tics
ec ja
ec omp
ec rows
ec tiveness
ec olor
ec raft
Ġhas kov
Ġhas kell
Ġhas teje
Ġhas elwood
ze f
ze ley
ze gov
Ġpre qu
Ġpre val
Ġpre tor
Ġpre ta
Ġpre lim
Ġpre fix
Ġpre cision
Ġpre tty
Ġpre jud
Ġpre text
Ġno k
Ġno ir
Ġno bel
Ġno tions
Ġno ise
Ġno ught
Ġno Ã«l
Ġno tif
Ġno ises
Ġno body
Ġen jo
Ġen ya
Ġen su
Ġen velop
Ġen cy
Ġen rol
Ġen vig
Ġen osis
Ġen list
Ġen abled
Ġen cino
Ġen ergies
Ġen acting
Ġmo tive
Ġmo bo
Ġmo ines
Ġmo tel
Ġmo acy
Ġmo hab
Ġmo untain
Ġmo haw
Ġmo inuddin
Ġmo lest
op he
op les
op fl
op olis
op position
op eration
op edic
op sters
op etrol
em es
em ia
em ary
em ned
em elin
em fontein
em ujeraye
em onnoj
em isza
Ġstate ment
Ġgo th
Ġgo key
Ġgo ffman
Ġgo kv
Ġgo bbi
Ġgo gol
Ġgo iÃ¡s
les e
les ly
les lie
les den
les bury
Ġclub e
Ġrec ession
Ġrec onst
Ġrec laim
Ġrec omm
Ġrec itals
Ġrec onte
Ġrec onna
Ġrec kless
Ġrec alled
Ġrec italist
ine id
Ġ; -
ore gression
ore zova
Ġocc am
Ġocc idental
Ġposition ed
og o
og sp
og ood
Ġpol iz
Ġpol yn
Ġpol ling
Ġpol yd
Ġpol ye
Ġpol aris
Ġpol wat
Ġpol ticial
Ġpol terge
ok ah
ok ee
ok wari
Ġjun o
Ġjun io
Ġjun cker
Ġoccup ying
00 6
00 8
00 26
Ġaug mentation
Ġaug uste
ort ais
Ġaugust o
Ġaugust us
ant ly
ff in
ff ness
ff hdf
Ġman i
Ġman x
Ġman son
Ġman li
Ġman ned
Ġman gal
Ġman fred
Ġman zar
Ġman eu
Ġman gion
Ġman ipur
Ġman eka
Ġman icurist
Ġman uscri
Ġman ilow
Ġman iglace
Ġman ipula
Ġman okwari
Ġher on
Ġher me
Ġher ger
Ġher vey
Ġher tfordshire
Ġher zog
Ġher itage
ren a
ren s
ren z
ren Ã©
ren ato
ren jan
ren heit
ctor y
ctor ies
Ġmarch es
hn all
hn ey
hn ell
hn rich
Ã© o
Ã© ry
Ã© ma
Ã© tan
Ã© mont
Ã© non
Ã© alis
Ã© tat
Ã© dÃ©
Ã© kely
Ã© rables
Ġ7 04
Ġ7 87
Ġ7 86
Ġ7 78
ugh ters
Ġu fa
Ġu fam
Ġu weste
Ġu rbana
Ġu itenh
Ġu chaly
Ġpart on
Ġpart ridge
Ġcurrent singlesranking
Ġcurrent rank
Ġcurrent doublesranking
ass ad
ass ans
ass ana
ass isted
ass roots
Ġind ra
Ġind ies
Ġind icator
Ġpar ti
Ġpar ris
Ġpar ana
Ġpar ties
Ġpar ata
Ġpar kins
Ġpar kin
Ġpar ole
Ġpar anor
Ġpar tition
Ġpar tec
Ġpar viz
Ġpar sberg
Ġpar asite
Ġpar irenyat
Ġeng age
Ġeng ulfed
Ġfir po
ang led
ang eld
ang yi
ang eni
ang thong
Ġkn ut
Ġkn oc
Ġkn bc
Ġkn icks
Ġkn ighted
Ġkn ieper
Ġkn opfl
Ġprof ile
Ġprof iled
Ġprof ound
Ġprof essed
Ġprof esional
sid es
sid ed
sid ential
Ġti e
Ġti es
Ġti res
Ġti to
Ġti bur
Ġti de
Ġti des
Ġti kk
Ġti via
Ġti maru
Ġti kva
team a
team b
team c
Ġcoun ts
Ġcoun tless
per er
per ic
per for
per tu
per com
per iment
per anto
per imeter
Ġed u
Ġed el
Ġed gy
Ġed ison
Ġed win
Ġed ged
Ġed gard
iz er
iz es
iz ia
iz et
iz zad
ond e
Ġbr ide
Ġbr inc
Ġbr idge
Ġbr onto
Ġbr ands
Ġbr uck
Ġbr uss
Ġbr ush
Ġbr ande
Ġbr ando
Ġbr andy
Ġbr ampton
Ġbr Ã³d
Ġbr ereton
Ġbr atton
Ġbr aghetti
Ġbr ackeen
Ġteam b
Ġteam c
Ġteam d
Ġteam year
Ġteam mates
Ġteam honour
Ġsch oll
Ġsch lesi
Ġsch werin
Ġsch icchi
Ġsch ieffer
Ġsch emes
ere ed
Ġnove mail
ies ced
Ġ8 30
Ġ8 67
Ġ8 29
Ġ8 92
Ġ8 69
Ġag ra
Ġag ila
Ġag nes
Ġag ility
Ġag adir
Ġag reement
Ġmus a
Ġmus si
Ġmus ial
Ġmus tered
Ġmus idisc
Ġ2011 021
Ġph rased
Ġph arma
Ġph enom
ld s
ld au
ld ffhdf
Ġsing u
Ġcan cel
Ġcan oer
Ġcan isius
Ġpr ice
Ġpr ins
Ġpr ater
Ġpr one
Ġpr inz
Ġpr Ã¦
Ġpr igog
Ġpr agma
se i
se in
se ign
se veral
se Ã¡n
se par
se javka
cl ive
cl erosis
cl arrie
cl opedic
Ġcolle en
Ġcolle ct
Ġcolle tt
Ġcolle ges
Ġcolle cted
Ġcolle cting
Ġ10 4
Ġ10 8
Ġ10 9
Ġ10 76
Ġ10 16
Ġ10 11
Ġfin a
Ġfin er
Ġfin est
Ġfin ley
Ġfin ite
Ġfin cher
Ġfin ely
Ġfin ds
Ġfin ken
Ġfin otto
Ġfin ders
urn ament
Ġ2012 0712
Ġcomp ass
Ġcomp tro
Ġcomp elling
Ġcomp ared
Ġcomp elled
Ġcomp lications
Ġcomp iled
Ġcomp rising
Ġcomp ound
Ġcomp osition
Ġcomp rehen
Ġcomp romise
mp athe
Ġ12 7
Ġ12 8
Ġ12 12
Ġ12 67
Ġ12 55
Ġ12 03
Ġ12 63
Ġ12 46
Ġ12 41
Ġ12 31
red o
red itation
red ible
for et
for um
for ward
for med
for ced
for cen
for cong
for merly
Ġ17 1
Ġ17 3
Ġ17 4
Ġ17 6
Ġ17 21
Ġ17 89
Ġ17 40
Ġ17 75
Ġ17 86
Ġ17 70
Ġ17 59
Ġ17 74
Ġ17 15
Ġ17 69
Ġ17 110
Ġ17 32
Ġ17 36
Ġfebr ero
ma er
ma tics
ma xtannone
ma urice
Ġ15 1
Ġ15 6
Ġ15 16
Ġ15 55
Ġ15 88
Ġ15 70
Ġ15 63
Ġ15 79
Ġ15 90
Ġ15 987
Ġmin d
Ġmin ty
Ġmin sk
Ġmin ds
Ġmin ato
Ġmin ute
Ġmin enr
Ġmin iature
Ġmin kowski
Ġmin amoto
Ġmin istries
ign ia
ign art
qu i
qu ick
qu ade
qu ished
qu oted
qu orum
qu encies
qu eline
qu intin
Ġ2008 11
but trick
Ġass r
Ġass oc
Ġass essor
Ġass ets
Ġass isted
Ġass yris
Ġass ertions
Ġ9 17
Ġ9 11
Ġ9 23
Ġrep ec
Ġrep team
Ġrep years
Ġrep update
Ġrep orts
Ġrep rint
Ġrep atri
Ġrep ulsed
Ġmember ship
Ġmember ships
me z
me er
me kia
me ulin
me egan
me amea
Ġ2014 070
ah a
ah i
ah an
ah al
ah af
ah med
ah iak
ah amwe
Ġsu h
Ġsu ze
Ġsu hl
Ġsu zhou
Ġsu zanne
Ġgen oa
Ġgen ovesi
Ġi x
Ġi er
Ġi it
Ġi om
Ġi les
Ġi was
Ġi vette
Ġi uni
Ġi versen
Ġfil ina
Ġfil led
Ġfil ho
ash in
ash ok
ash iro
ash ala
ash eni
Ġz ant
Ġz az
Ġz inn
Ġz au
Ġz ones
Ġz ola
Ġz agi
Ġz app
Ġz odi
Ġz eta
Ġz erl
Ġz elo
Ġz omba
Ġz ichy
Ġz oeter
Ġz ygfry
Ġz zz
Ġz ÇĲ
Ġz ermel
Ġz anus
Ġz orza
Ġz ammit
Ġz oltan
Ġz acapa
Ġz ionist
Ġz akka
Ġz acharia
Ġz renjan
Ġwor st
Ġwor ms
Ġwor rall
she ila
she ikh
she vik
Ġshe ena
Ġshe fki
Ġshe lagh
Ġshe mekia
19 49
19 80
19 17
19 12
19 67
19 23
19 75
19 86
19 70
19 78
19 15
19 81
19 84
19 79
19 05
19 71
19 48
19 025
bo e
bo at
bo om
bo urn
bo ston
bo oth
bo jan
bo iled
bo ying
bo ogah
bo leho
Ġwork shops
Ġad ore
Ġad ana
Ġad jun
Ġad ilson
Ġad ele
Ġad equ
Ġad jus
Ġad elsk
Ġad ulthood
Ġdebut ing
Ġdebut opp
Ġdebut stad
Ġfran ki
Ġfran tz
Ġdra kes
ck ed
ck man
ck sburg
ck mate
eer n
ral ian
ral ph
Ġ16 3
Ġ16 4
Ġ16 00
Ġ16 49
Ġ16 80
Ġ16 29
Ġ16 75
Ġ16 68
Ġ16 27
Ġ16 47
Ġ16 64
Ġ16 92
Ġ16 93
Ġ16 79
Ġ16 90
Ġ16 50
Ġ16 60
Ġ16 376
Ġwe itz
Ġwe iss
Ġwe apons
the on
the ws
the ologian
Ġmusic als
Ġmusic ologist
Ġfilm i
Ġfilm fare
to lead
to urnament
Ġfull arton
club years
club update
club caps
club points
club angeld
ade v
ade fml
tern oon
Ġapp rop
Ġapp arently
Ġapp reci
Ġoff er
Ġoff style
Ġoff ering
ric iam
ric ism
ric ulation
Ġex it
Ġex ceed
Ġex isted
Ġex iting
Ġex cel
Ġex clus
Ġex cept
Ġex pects
Ġex zess
Ġex ercis
Ġex oneree
Ġex changes
Ġex plained
Ġex acerbated
ph ree
ph ins
ph one
ph ants
ph ail
ph eres
enn es
enn ell
Ġper es
Ġper ru
Ġper Ãº
Ġper sia
Ġper cep
Ġper sip
Ġper du
Ġper sian
Ġper lis
Ġper mian
Ġper mitted
Ġper mission
Ġper fet
Ġper ceived
Ġper verting
Ġper ugia
Ġper shing
Ġper ipher
ubl ican
Ġaf ro
Ġaf ula
Ġaf rique
Ġaf ternoon
Ġparty years
Ġworld wis
Ġbro ker
Ġbro uillet
tu k
tu ins
tu alist
tu omas
Ġac a
Ġac p
Ġac u
Ġac es
Ġac worth
Ġac ute
Ġac rony
Ġac tivism
Ġac iu
Ġac rim
Ġac roba
Ġac adÃ©
Ġac acia
Ġac rylic
ree man
Ġone ida
rit t
Ġit a
Ġit umb
Ġit unes
Ġit erations
Ġstates man
Ġpoli tec
Ġpoli tekhn
wn ed
Ġsouth all
Ġsouth port
Ġsouth western
Ġsouth paw
Ġtw elf
Ġtw ente
Ġtw itter
Ġtw entieth
Ġtw ilight
Ġbas in
Ġbas is
Ġbas ic
Ġbas que
Ġbas tiat
Ġpolitic o
Ġpolitic ker
ann ie
ann agh
ann adh
Ġ11 87
Ġ11 66
Ġcareer high
year start
year aend
year astart
year cstart
go ÅĪ
Ġcount ing
Ġcount back
Ġcount down
ins ardar
Ġcal m
Ġcal eb
Ġcal tech
Ġcal arts
Ġcal vary
Ġcal abresi
ke es
ke ith
ke man
ke vis
ke ep
ke kela
Ġus j
Ġus o
Ġus er
Ġus af
Ġus na
Ġus ova
Ġus ca
Ġus opendoublesjuniorresult
Ġ13 3
Ġ13 5
Ġ13 6
Ġ13 7
Ġ13 8
Ġ13 10
Ġ13 76
Ġ13 26
Ġ13 86
Ġ13 07
Ġ13 81
Ġter re
Ġter ra
Ġter ence
Ġter rero
Ġter gem
ier a
ier to
Ġnor s
Ġnor land
Ġnor star
Ġnor mal
Ġnor gro
Ġnor mand
Ġnor ams
Ġbar s
Ġbar ham
Ġbar bel
Ġbar ney
Ġbar nes
Ġbar low
Ġbar cza
Ġbar fle
Ġbar fly
Ġbar bado
Ġbar cena
Ġbar gain
Ġbar itone
Ġbar bershop
Ġge wer
Ġge ologist
Ġge ographic
Ġge idar
Ġge leen
Ġge omet
Ġge mert
aj oh
az an
az iz
az vin
Ġwar na
Ġwar ring
Ġwar ming
Ġwar hol
Ġwar ships
Ġwar rant
Ġwar ege
Ġwar eham
Ġgu i
Ġgu v
Ġgu ern
Ġgu ards
Ġgu ise
Ġgu idel
Ġgu tian
Ġgu bern
Ġgu imar
Ġgu ayab
Ġgu Ã©non
Ġbat na
Ġbat ters
Ġbat ten
Ġbat umi
Ġmed field
Ġmed ail
Ġmed itation
Ġmed iation
Ġmed eski
Ġmed aillon
Ġmed iated
Ġmed ieval
Ġcomm ented
Ġcomm enced
Ġcomm encing
Ġcomm utation
Ġger d
Ġger da
Ġger ont
Ġger hard
Ġger mersheim
px bri
Ġ14 6
Ġ14 7
Ġ14 8
Ġ14 9
Ġ14 17
Ġ14 10
Ġ14 33
Ġ14 78
Ġ14 63
Ġ14 14
Ġ14 52
Ġ14 61
ss pin
Ã¡ d
Ã¡ l
Ã¡ r
Ã¡ t
Ã¡ nd
Ġste m
Ġste als
Ġste ll
Ġste ep
Ġste yn
Ġste ps
Ġste lle
Ġste pped
Ġste aling
Ġste llar
Ġste ady
Ġste ele
Ġste vens
ai ji
ai lable
Ġev ident
Ġev icting
Ġev arist
Ġev aluate
Ġev elyn
co la
co at
co ley
co urt
co tics
co author
co oley
co unty
mar s
mar ch
mar ian
mar ks
mar ek
mar tel
mar ized
mar cus
mar harajah
mar hum
mar iyam
mar riott
we i
we ill
we ather
we hi
we instein
we eper
we issbecker
tish chi
Ġ24 2
Ġ24 3
Ġ24 6
Ġ24 8
ater mass
Ġdraft team
Ġmid em
Ġmid ler
Ġmid west
Ġmid loth
Ġmid night
Ġmid wif
Ġ22 1
Ġ22 6
Ġ22 8
Ġband ar
Ġband its
Ġband ofskulls
Ġband wag
lec tively
fl in
fl ies
fl ush
fl ottille
fl orian
his ti
Ġ25 3
Ġ25 7
Ġ25 8
Ġ25 9
Ġ25 17
Ġ25 43
Ġ25 50
Ġchar ters
Ġchar ging
Ġchar lem
Ġchar vez
Ġchar leston
Ġchar itable
Ġ28 2
Ġ28 5
start ing
Ġstat ue
Ġstat ure
Ġstat ues
Ġstat week
Ġstat lable
ati us
ati ja
ati vity
ati sm
lo a
lo ok
lo its
Ġback s
af sch
af uji
af uto
af ogo
Ġwill i
Ġwill is
Ġwill icha
bert y
rum my
ys burg
Ġgr ade
Ġgr ind
Ġgr igor
Ġgr ima
Ġgr ades
Ġgr ime
Ġgr ends
Ġgr uppenfÃ¼hrer
Ġgr uha
Ġgr unge
Ġgr upo
Ġgr assroots
Ġact a
Ġact s
Ġact ual
ung en
Ġterm end
Ġterm start
vis o
Ġbri er
Ġbri thwine
Ġbri thwyn
Ġall ies
Ġall mond
Ġall stars
Ġall ocate
Ġall endale
Ġ27 0
Ġ27 3
Ġ27 5
Ġlo is
Ġlo ad
Ġlo ver
Ġlo vers
Ġlo af
Ġlo ader
Ġlo ops
Ġlo aded
Ġlo oked
Ġlo bkow
Ġrun off
Ġright shore
Ġsec tions
Ġsec ular
ner i
ner pl
Ġpresent ations
ham n
ham ton
ham brid
ham zeh
ham anya
led der
sp a
sp an
sp orts
sp ring
sp oken
sp arency
sp ainmc
sp angled
Ġab s
Ġab le
Ġab ject
Ġab used
Ġab ras
Ġab original
Ġab rup
Ġab aren
Ġab reise
Ġab adan
Ġab raham
Ġab undance
Ġab ierto
Ġdef end
Ġdef ine
Ġdef ined
Ġdef ences
Ġdef ended
Ġdef tones
Ġcr ash
Ġcr ven
Ġcr uel
Ġcr acker
Ġcr ackers
Ġir is
Ġir ref
Ġir reversi
Ġha a
Ġha q
Ġha an
Ġha ul
Ġha ider
Ġha utes
Ġha ils
Ġha uÃŁ
Ġhar ian
Ġhar sh
Ġhar man
Ġhar ford
Ġhar med
Ġhar bor
Ġhar are
Ġhar vey
Ġhar bors
Ġhar lem
Ġhar mony
Ġhar mful
Ġhar elbe
Ġhar tlepool
ne ws
ne vertheless
Ġel f
Ġel s
Ġel ie
Ġel ton
Ġel mar
Ġel vis
Ġel ford
Ġel de
Ġel oy
Ġel Ã¤
Ġel isa
Ġel iza
Ġel sheim
Ġel ohor
Ġel basan
ank ind
Ġdav ies
Ġdav ao
Ġdav entry
Ġschool ing
bel ief
bel ungen
Ġhad dington
by leagueproject
by orsela
Ġso y
Ġso ames
Ġso vet
Ġso brance
Ġso odhu
Ġ21 1
Ġ21 4
Ġ21 77
ome ini
Ġgoals c
Ġgoals d
Ġgoals cor
Ġ23 5
Ġ23 8
Ġ23 9
Ġchild less
Ġgerman town
Ġgerman ization
ting a
Ġcoach es
Ġlaw ak
Ġlaw rie
goals a
uth ers
uth upp
Ġear then
Ġtr ust
Ġtr end
Ġtr uck
Ġtr Ã¤
Ġtr ude
Ġtr app
Ġtr ends
Ġtr utn
Ġtr icky
Ġtr aps
ide as
Ġbritish league
air forcen
Ġsan sk
Ġsan jana
Ġsan shin
Ġsan geet
Ġpe w
Ġpe ers
Ġpe per
Ġpe aking
Ġpe Ã±
Ġpe tition
Ġpe tit
Ġpe anut
Ġpe tite
Ġpe asant
Ġpe irce
Ġpe mberton
Ġpe oples
Ġpe ignart
ker ry
ker ispatih
sti ce
sti ll
Ġbl ason
Ġbl ender
Ġbl ended
Ġbl uthenthal
Ġbl anchard
Ġbl owing
Ġbut ch
Ġbut ten
Ġbut cher
Ġbut trick
Ġ30 4
Ġ30 5
Ġ30 8
Ġ30 20
Ġ30 21
Ġprod igy
Ġweight y
br ent
br icker
br zany
tt ning
Ġcl own
Ġcl iff
Ġcl ara
Ġcl position
Ġcl ima
Ġcl imb
Ġcl ergy
Ġcl osed
Ġcl utter
Ġcl ients
Ġcl ifton
Ġdist ract
Ġdist aff
Ġdist ribut
Ġdist ortion
Ġdist urb
my r
my ron
Ġmon tt
Ġmon ica
Ġmon ks
Ġmon tro
Ġmon aster
Ġmon aco
Ġmon och
Ġmon iker
Ġmon ahan
Ġrus sel
Ġrus ichi
Ġrus akov
Ġbec omes
Ġchampion nat
pe ggy
pe leuli
inn ocenzo
Ġpresid e
ki won
inc ed
inc ess
ens ko
ens kan
Ġintern ed
Ġintern ship
Ġintern ationaux
Ġyear end
Ġyear cstart
Ġbra i
Ġbra vo
Ġbra bant
Ġbra wl
Ġgre b
Ġgre ml
Ġgre mlin
Ġgre tchen
Ġcent ers
Ġcent rum
Ġcent au
Ġcent rist
Ġcent uries
Ġcent enary
Ġcent urion
Ġ26 3
Ġ26 4
Ġ26 5
Ġ26 8
Ġ26 09
ll i
ll er
ll ite
Ġmich al
Ġmich aux
Ġmich alski
aw ork
Ġnot ched
Ġfinal league
ons an
Ġassoci ates
que en
que bec
que films
val e
val ier
Ġcro at
Ġcro tone
Ġcro sland
Ġhigh way
Ġhigh lights
Ġdes ai
Ġdes ider
ose i
ose xual
ka ido
ka uak
Ġmis es
Ġmis ke
Ġmis under
Ġmis dem
Ġmis fort
Ġmis iones
Ġmis Ã©rables
Ġdire ct
Ġam ore
Ġam ory
Ġam mar
Ġam ster
Ġam mann
Ġam ending
Ġam ount
Ġam igo
Ġam big
Ġam ateurs
Ġam agoro
Ġam endment
Ġsm s
Ġsm u
Ġsm ile
Ġsm org
Ġsm irnov
Ġdo ull
Ġdo than
Ġdo xa
Ġdo yenne
Ġdo lelo
Ġdo iron
Ġdo ornkop
Ġdo brzany
Ġstar r
Ġstar z
Ġstar way
Ġstar tles
ors er
Ġcont ender
Ġcont rac
Ġcont ained
Ġcont act
ale a
ale u
Ġtime less
stitu ted
stitu tional
ls an
ls ru
ile ge
ile irÃ£o
Ġqu ain
Ġqu est
Ġqu inn
Ġqu oted
Ġqu aint
Ġqu iber
Ġqu intin
Ġqu asar
Ġqu ello
Ġqu inlan
Ġqu artet
Ġqu rbani
Ġqu irk
Ġqu ilmes
Ġqu iller
Ġqu ennell
Ġqu atermass
ern ail
ern atural
Ġlast a
Ġlast ing
Ġlast ly
Ġyo urs
Ġyo thu
ven es
ven katalaksh
Ġafter math
Ġcaliforn ian
Ġcaliforn ias
alist a
Ġda Äį
Ġda Ã±
Ġda esang
Ġda ouda
Ġgro om
Ġgro gu
Ġgro zny
Ġgro omed
Ġgro sse
Ġgro cery
Ġgro ove
Ġgro tto
Ġii hf
field ing
field goalsc
field goalsa
Ġhim chan
Ġhim alay
Ġhim achal
ical ady
Ġru ud
Ġru led
Ġru hol
Ġru Å¾
Ġru zomberok
Ġru tledge
Ġelec ronic
Ġinternational years
Ġinternational ization
Ġinternational role
Ġinternational span
Ġalb a
Ġalb on
Ġalb emar
Ġalb uqu
Ġwhere abouts
Ġ31 1
Ġ31 3
Ġ31 5
Ġ31 8
Ġ31 24
Ġaustralian s
Ġaustralian openresult
Ġaustralian opendoublesjuniorresult
Ġaustralian openjuniorresult
com b
com mon
com mercial
ib i
ib al
ib ald
ib eth
ib ullah
ino les
ino jo
Ġbus k
Ġbus hnell
Ġreg ine
Ġreg ions
Ġreg ressed
Ġreg ulation
Ġreg ulating
Ġreg inald
Ġreg istrar
Ġatt ending
Ġatt ends
Ġatt racted
Ġatt ritionist
Ġatt ainder
Ġatt endance
20 577
ron ica
ron ald
ron je
ron nie
Ġale th
Ġale jandro
Ġale kse
ans k
til la
til ie
til ingual
Ġnd o
Ġjack o
Ġjack als
Ġcolum bo
mo on
mo il
mo hand
mo vement
mo zyr
Ġann um
Ġann chen
Ġann ala
Ġann ivers
Ġann ulled
Ġlead ers
Ġauthor ized
ind ed
ind led
ind ale
ind epend
ind ivid
ind ex
ind iana
ind rani
ind uced
ind ranath
Ġsw ear
Ġsw ap
Ġsw ann
Ġsw ans
Ġsw ift
Ġsw irles
Ġsen timent
Ġsen sei
Ġfl ame
Ġfl ute
Ġfl utist
Ġfl owers
Ġmatch play
Ġwal i
Ġwal sh
Ġwal ki
Ġwal ters
Ġwal den
Ġwal isa
Ġwal kin
Ġwal nut
Ġwal dem
Ġwal lace
Ġdis co
Ġdis ple
Ġdis gra
Ġdis order
Ġdis appear
Ġdis sident
Ġdis abled
Ġdis integ
Ġdis mantling
Ġvic ar
Ġfour s
Ġfour ah
Ġfour ier
Ġfour teen
Ġfour teenth
Ġtele fon
Ġtele vised
Ġtele grap
Ġtele phone
ger ac
ger ard
ger man
ger berg
ha o
ha ud
ha ired
ha ayer
iti an
iti ves
iti ba
iti macy
tor p
ance ment
Ġmil ch
Ġmil ane
Ġmil Ã¡n
Ġmil ita
Ġmil burn
Ġmil haud
Ġho o
Ġho que
Ġho tels
Ġho bbs
Ġho chsch
Ġho verla
Ġho opsters
Ġres erv
Ġres olution
Ġres urg
Ġres ults
Ġres olve
Ġres uming
ane ously
Ġmaj lis
Ġmaj bari
Ġmaj eed
Ġmaj enta
Ġtelevision s
ev idence
ev ille
ev olence
Ġsy r
Ġsy nd
Ġsy cam
Ġsy mpathe
Ġorigin ated
Ġorigin ating
ite s
ite ment
ram any
ram iro
Ġunder ground
Ġunder pri
Ġunder writ
Ġunder going
Ġunder gone
Ġunder went
Ġunder stated
ult urist
ult aneously
Ġlater ality
Ġgovern esses
her o
her ly
her shel
her zegov
de ath
de hn
de ep
de xter
de andre
Ġpri ester
Ġpri estley
Ġmc alester
Ġmc shann
Ġmc quade
Ġpop i
Ġpop s
Ġpop olo
Ġpop pins
Ġsecond ary
ior ate
ves var
Ġje f
Ġje ollab
Ġleg ate
Ġleg ions
Ġleg itimate
Ġleg itimacy
Ġrock in
Ġrock ies
Ġrock umentary
Ġrock ingham
Ã³ t
Ã³ mico
Ã¼ nau
Ã¼ pspor
Ã¼ cksburg
aly pt
Ġhist ories
Ġcompe tes
med als
Ġâ ĪĴ
Ġâ ĭħ
Ġup shaw
Ġup state
Ġup asaka
Ġup keep
Ġpit man
Ġout land
Ġout sider
Ġout law
Ġout going
Ġout rage
Ġnumber ed
Ġmajor wins
yl on
Ġbu res
Ġbu char
Ġbu Ã±
Ġbu jj
Ġbu yin
Ġpat ton
Ġpat ented
Ġpat rice
Ġpat terson
ald a
Ġstud ious
ular ly
Ġevent ual
Ġalex andro
je anne
je ctories
min ister
min ority
port o
port rait
port unity
uk ari
Ġcas a
Ġcas per
Ġcas eern
Ġcas tilla
ene i
ene ws
Ġhel med
Ġhel ene
Ġhel ps
Ġresid e
Ġresid ed
Ġresid ents
Ġresid ential
Ġresid encies
Ġscot s
pen edones
pen itusi
pen heimer
Ġbow el
Ġbow ie
Ġbow tie
Ġcor man
Ġcor ey
Ġcor se
Ġcor ona
Ġcor relation
Ġcor oat
Ġcor omand
Ġcor goÅĪ
Ġcor itiba
Ġfre ed
Ġfre ud
Ġfre ak
Ġfre isch
Ġfre itas
Ġfre quency
Ġfre elance
Ġfre mantle
Ġfre ccia
Ġfre quencies
Ġmet alist
Ġwest land
Ġwest chester
Ġwest sideconnection
Ġdem irspor
iness man
Ġweb ster
Ġweb log
Ġcons ists
Ġcons erved
Ġcons ensus
Ġcons olidated
Ġnorth land
Ġsa ad
Ġsa Ã¯
Ġsa adi
Ġsa unders
Ġsa qq
Ġsa itama
Ġsa ilor
Ġsa emonnoj
Ġsk ate
Ġsk oll
Ġsk rap
Ġsk yn
Ġsk yd
Ġsk illed
Ġsk inny
Ġsk rin
Ġsk aters
Ġsk jold
Ġsk elmers
Ġsk olpark
Ġsal u
Ġsal as
Ġsal es
Ġsal em
Ġsal ma
Ġsal ina
Ġsal azar
Ġsal aries
Ġsal vat
Ġsal atut
Ġsal apu
Ġsal ustri
Ġfe in
Ġfe ver
Ġfe ud
Ġfe ather
Ġfe jÃ©
Ġfe alty
Ġfe edback
Ġfe eble
itar adhyula
Ġphil ly
Ġphil co
Ġphil ida
Ġmichael s
Ġmichael house
Ġmichael kat
jo o
jo Ã£o
jo yce
jo ao
jo zinei
jo hann
jo yner
Ġsup ple
Ġsup ports
Ġsup ernatural
Ġpaul in
Ġpaul ine
Ġpaul ista
Ġyoung ja
Ġyoung stown
Ġbusiness es
Ġbusiness woman
ep ing
ep rod
ep iscop
Ġze ena
Ġze pp
Ġze alous
Ġdep arted
Ġdep ictions
Ġtour ists
Ġval le
Ġval mar
Ġval ga
Ġval ued
Ġval borg
Ġval iants
Ġval enciano
Ġval letta
Ġval Ã©ry
han akaku
ks andr
ks bÃ¼
lin ing
lin ton
Ġque zon
Ġque brad
Ġwin ston
Ġwin throp
Ġoh ad
Ġoh inem
Ġhttp s
ator z
ator ies
ator ial
ston ecraft
Ġwash ed
Ġwash ing
fer t
fer ml
Ġbet a
Ġbet te
Ġbet ten
Ġbet tie
Ġmor al
Ġmor ay
Ġmor se
Ġmor ale
Ġmor rist
Ġmor mon
Ġmor oy
Ġmor Ã³n
Ġmor mons
Ġmor oz
Ġmor timer
Ġmor avia
Ġrece ipt
adem i
yn har
leg iate
Ġtri bal
Ġtri este
Ġtri bun
Ġtri assic
Ġtri ennale
itz a
itz krieg
po o
po x
po ul
po et
po zer
po Ð²
sch e
sch midt
sch ulsch
Ġdied erik
Ġsho e
Ġsho ok
Ġsho yo
Ġsho oto
Ġsho fuk
Ġsho ega
Ġacadem ies
Ġsil sb
Ġsil vio
Ġsil icon
Ġsim iewa
Ġsim ultaneously
Ġdan y
Ġdan te
Ġdan esh
Ġdan zas
Ġden a
Ġden se
Ġden zil
Ġden ounced
Ġden aby
ats ki
ago ons
cis se
ced es
Ġfather hood
Ġlong ford
Ġlong time
Ġlong list
Ġlong acres
Ġlong ueuil
Ġbook er
Ġbook ing
Ġx l
Ġx li
Ġx vi
Ġcam ino
Ġcam rose
aland ia
Ġma an
Ġma ia
Ġma ura
Ġma ude
Ġma imb
Ġma xtannone
Ġma usole
Ġma ilroom
Ġma heha
ty pe
ty sik
Ã¶ ping
Ġsoc on
Ġinv arian
Ġinv oked
Ġinv ocation
Ġinter rac
Ġinter league
Ġinter col
Ġinter pre
Ġinter ested
Ġinter state
Ġinter disciplinary
Ġinter zone
Ġinter ahamwe
Ġorder ed
Ġeduc ate
Ġprim a
con or
con ran
con tin
con sider
con nor
con spir
con fus
con fed
con ventional
con teud
no a
no ted
no isemaker
ough bred
Ġend ings
Ġend less
Ġend ecja
Ġend orser
Ġare g
Ġare zzo
Ġsam my
Ġsam mon
Ġsam ara
Ġsam oan
Ġsam gural
Ġsam tred
Ġber th
Ġber ita
Ġber gen
Ġber wick
Ġber lio
Ġber cy
Ġber kel
Ġber tha
Ġber toni
Ġber liet
Ġber gerac
Ġbel ow
Ġbel mar
Ġbel ief
Ġbel ved
Ġbel fast
Ġcla udio
Ġcla flin
enti an
enti ate
enti als
enti fic
enti mental
Ġpain ts
Ġpenn ed
Ġpenn ant
Ġpenn yless
Ġmart ina
Ġmart yr
Ġmart unashen
Ġmart indale
Ġwom ens
tes co
Ġlu cca
Ġlu vgamble
Ġtex ts
Ġgeneral i
fo ster
fo oted
Ġcre am
Ġcre st
Ġcre mator
Ġcre pus
Ġcre ativity
ism und
Ġgold berg
Ġgold wyn
Ġgold stars
Ġgold smith
tain s
zil ian
ĠÃ ¨
ĠÃ łs
Ġsum mon
Ġsum marized
Ġbre st
Ġbre ese
Ġbre aker
Ġbre vet
Ġbre eders
Ġbre athe
Ġmill ions
Ġmill town
Ġmill haus
Ġmill borne
Ġmill onarios
Ġdel le
Ġdel and
Ġdel bert
Ġdel ors
Ġdel ray
Ġdel ius
Ġdel ving
Ġdel iber
Ġdel ivers
Ġdel anoy
Ġdel illo
Ġdel Ã©mont
Ġtor ment
Ġtor chin
Ġtor rington
Ġtor chbear
Ġtor rens
Ġhead ing
Ġhead line
Ġhead lines
cer a
cer er
cer tified
ful op
Ġes por
Ġes cape
Ġes cort
Ġes pany
Ġes chlkam
Ġes peranto
Ġes poo
tim um
tim illionaire
Ġport als
Ġport raits
Ġport fi
Ġjim mie
Ġli ar
Ġli enz
Ġli uan
Ġli hula
Ġred man
Ġred ress
Ġred one
Ġred ox
Ġred wood
Ġred uction
Ġred bear
Ġred uced
Ġred birds
Ġred ucing
Ġart work
Ġart jom
Ġart review
Ġart siv
Ġindian ola
Ġprofessor ship
Ġrepresent ation
Ġrepresent ations
Ġsmith de
gar linghouse
Ġson ia
Ġson ny
Ġarch ie
Ġarch ana
Ġarch ived
Ġarch ives
Ġarch ambaud
Ġarch ipela
Ġarch ibald
Ġstri fe
Ġstri king
Ġstri kers
Ġstri ebel
ump t
ump tive
Ġgoal kicker
Ġdesign s
Ġdesign ing
Ġdesign ated
har man
har per
har ald
har mon
har ama
har ulid
Ġent rev
Ġent rance
Ġav g
Ġav ian
Ġav id
Ġav ara
Ġav atar
Ġav iation
Ġav ailable
Ġaver y
Ġaver ted
Ġbla ze
Ġmel iss
Ġmel illa
Ġmel anie
Ġmel inda
Ġmel anch
Ġmel oncol
Ġmel anog
Ġhen an
Ġem my
Ġem bed
Ġem bry
Ġem ulate
Ġem bod
Ġvoc ally
Ġatl as
Ġshow time
Ġshow cas
Ġshow down
Ġshow gir
Ġshow cased
ograp hing
ten sive
Ġer i
Ġer ich
Ġer ci
Ġer hu
Ġer da
Ġer ving
Ġer ode
Ġer hard
Ġer rands
Ġcy pr
Ġcy cles
Ġcy tome
Ġcy berjaya
Ġmat ra
Ġmat ane
Ġmat inÃ©
Ġmat riarch
Ġmat thews
Ġmat riculation
Ġhol iness
Ġhol be
Ġhol stein
Ġhol mes
Ġhol beck
Ġhol iday
Ġdon or
Ġdon ated
Ġdon key
Ġdon zell
Ġnon vi
its dien
Ġbattle ship
Ġbattle dress
Ġbattle front
dom enico
dom inik
pro cess
pro yecto
pro spero
syl vester
tin ental
Ġsome one
Ġfren zy
Ġhon ka
Ġhon ky
Ġhon neur
Ġtra ins
Ġtra iling
Ġtra vi
Ġtra iners
Ġtra inee
Ġtra veled
Ġtra jectories
Ġemp ower
Ġemp has
Ġemp angeni
Ġmiss ned
Ġut r
Ġut pal
Ġill ustration
Ġthir teen
Ġthir lby
Ġthir tieth
Ġfar e
Ġfar um
Ġfar ces
Ġfar ming
Ġfar non
Ġfar sley
Ġfar nsworth
Ġnov i
Ġnov es
Ġnov ato
Ġnov ello
Ġkar ate
Ġkar im
Ġkar rid
Ġkar achi
Ġkar rin
Ġkar elia
Ġkar nal
Ġkar afuto
Ġkar lsru
Ġrela tive
Ġrela ys
Ġrela ting
Ġvir ender
Ġvir tual
Ġvir tue
Ġroman o
Ġroman ek
azz o
Ġfrench man
Ġfrench opendoubles
Ġfrench opendoublesjuniorresult
mon ey
mon ies
pp ing
sk is
sk ater
sk ills
sk vernyuk
sk ipworth
ÃŃ lia
ÃŃ cia
ÃŃ regy
Ġmag ic
Ġmag na
Ġmag ersfontein
Ġown ing
Ġjud e
Ġjud o
Ġjud ith
Ġjud ged
Ġjud ges
Ġjud gment
cher yl
cher aud
Ġrich es
Ġrich est
Ġrich land
Ġep ics
Ġep hemer
Ġep shtein
Ġep iphone
Ġchair s
Ġchair men
Ġchurch men
Ġboard room
Ġprev ailed
Ġsummer s
uch on
Ġsl ide
Ġsl ots
Ġsl iven
Ġsl ovan
Ġsl alom
Ġsl uzh
Ġsl ouki
Ġsl ipstream
Ġsur aj
Ġsur face
Ġmur ad
Ġmur iel
Ġmur ali
Ġmur ici
Ġmur atpa
Ġmur iaÃ©
Ġmur akami
Ġmur phree
Ġdiv a
Ġdiv ine
Ġdiv ide
Ġdiv ested
Ġdiv iny
Ġdiv isie
Ġinc ome
Ġinc ogn
Ġinc iting
Ġinc arcer
Ġinc alcu
Ġinc rease
Ġinc idents
Ġinc redible
Ġinc itement
Ġtom sk
Ġtom bs
Ġtom mie
Ġplace ment
Ġgrand s
ca Ð½
ca ucas
eg ov
eg smarine
ta ught
ta Ã¯na
ta arbÃ¦k
Ġest ates
Ġest udio
Ġacc ra
Ġacc omm
Ġacc idental
Ġacc olad
Ġacc entual
Ġacc umulating
Ġacc reditation
Ġfollow s
Ġfollow er
Ġfollow ers
Ġdr s
Ġdr illers
Ġdr uze
Ġdr ayton
Ġdr agoons
Ġlit urg
Ġlit vÃŃn
Ġtotal led
Ġele ctorate
Ġele vated
Ġele onore
Ġele phants
mark en
Ġdefender s
Ġcross road
Ġflor as
Ġflor esfres
ek je
ek amsk
Ġmak a
Ġmak k
Ġmak es
Ġmak ers
Ġmak ush
Ġmak uuch
Ġchief minister
Ġprog rÃ¨
Ġprog enitor
Ġpublic ity
ee ing
ee zah
ho ot
ho fer
ho ffman
ho bart
ula ted
ula tors
Ġcath y
Ġcath olics
Ġmod es
Ġmod us
Ġmod est
Ġmod elling
Ġmod ule
Ġmod ulate
Ġmod ules
Ġmod stands
Ġmod ified
Ġmod ulators
Ġhome less
Ġder ome
Ġder ulo
Ġdom ain
Ġdom ino
Ġdom hnall
Ġtre k
Ġtre acher
Ġtre lka
Ġtre viso
uri as
Ġshar es
Ġshar ing
Ġshar iak
Ġshar ply
Ġprince ly
Ġrepublican s
ais e
ais ley
men u
ya iken
Ġver is
Ġver ve
Ġver ma
Ġver bs
Ġver mont
Ġver di
Ġver edem
Ġver meulin
Ġwicket keeper
Ġten ors
Ġten gok
Ġgl r
Ġgl ider
Ġgl omer
Ġgl amor
Ġgl orious
Ġgl Ã¼cksburg
ster gÃ¶
ster icalady
Ġrad ar
Ġrad ni
Ġrad oslav
Ġrad iation
Ġrad omir
Ġ180 2
Ġ180 9
Ġprov ed
Ġprov ence
Ġprov ide
Ġprov ost
Ġprov oked
udd insardar
udd harama
Ġkingdom s
Ġassociated act
por a
Ġben cher
Ġben etton
Ġben oist
Ġben icÃł
Ġben attar
Ġben evolence
Ġca ac
Ġca ught
Ġca Ã±
Ġca iced
Ġca xide
Ġca ballero
Ġca ucus
Ġfamil ies
Ġfamil iar
Ġmov es
Ġod h
Ġod ra
Ġod ense
Ġod ishirt
Ġoper ator
Ġoper andi
Ġjos ue
Ġjos uÃ©
Ġits elf
Ġgovernment s
Ġblack pool
Ġblack burn
ob ass
ob ile
ob ama
ob icide
Ġair line
Ġair pl
Ġair mail
Ġair asia
Ġmad a
Ġmad ras
Ġmad onna
Ġmad agascar
Ġmike francesa
Ġwood en
Ġwood pec
Ġwood gate
Ġwood stock
Ġhall s
Ġhall owell
Ġhall owed
Ġnamed ata
Ġinflu encing
Ġang ers
Ġang lican
ico fey
Ġjer v
Ġjer ri
Ġjer zman
berg ie
Ġeuro wins
Ġeuro bas
akh stan
Ġshort y
Ġshort wave
Ġorgan ist
Ġorgan ize
Ġorgan ising
Ġorgan iser
Ġcricket ing
Ġsocial ists
21 2
21 603
bor oumand
born emisza
hy un
hy tes
ved ki
Ġsub sc
Ġsub mitted
Ġsub mission
Ġsub mis
Ġsub urb
Ġsub marine
Ġsub dean
Ġsub stance
Ġsub tlety
Ġsub stituted
Ġbal i
Ġbal tic
Ġbal ks
Ġbal estier
Ġbal eares
Ġce es
Ġce zanne
Ġpan ic
Ġpan ama
Ġpan ties
Ġpan els
Ġmer a
Ġmer r
Ġmer am
Ġmer ge
Ġmer ey
Ġmer ry
Ġmer cer
Ġmer its
Ġmer chan
Ġmer cat
Ġmer rell
Ġmer ging
Ġmer leau
Ġmer edith
Ġmer aviglie
Ġmer cedes
Ġnow rap
Ġnow here
ury Å«
Ġarg ued
Ġarg onau
Ġroy ster
Ġscor er
Ġscor pion
Ġassembly man
201 6
Ġphilip s
Ġeducation ist
Ġcouncil or
Ġcouncil member
Ġcouncil woman
of alo
of illed
of pakist
of bav
of hesse
of chicago
off s
arm or
Ġcatch ing
Ġopen ly
Ġopen ings
Ġham as
Ġham sun
Ġham amatsu
Ġnick y
Ġnick elode
Ġtran ce
Ġtran sition
Ġtran sparency
Ġjazz men
Ġry on
Ġry db
Ġry vang
Ġry azan
adu ate
Ġtop s
Ġtop ic
Ġvo iced
Ġvo yage
Ġvo icing
Ġvo stok
Ġedward dbrown
199 0
199 1
199 6
Ġgeorg es
Ġtechn ique
tiv ating
Ġbay stars
Ġbay esian
Ġbay watch
Ġbay onnet
Ġmas i
Ġmas que
Ġmas ood
elly se
Ġlar isa
Ġlar gely
Ġrac ers
Ġrug rats
Ġrug gier
Ġ185 6
Ġassist ing
Ġsuch Ã½
Ã¡n g
Ã¡n yi
bec ause
ga izka
li jne
li berte
li berty
su ing
su therland
su hail
su zana
su labha
wan gechi
work er
work places
Ġiv o
Ġiv ory
Ġiv ica
Ġaff lic
Ġaff ection
Ġaff ected
Ġaff irmed
Ġaff orded
Ġsain te
Ġmal i
Ġmal am
Ġmal ik
Ġmal ice
Ġmal aria
Ġmal kmus
Ġmal ahaf
isla us
Ġtak es
Ġtak et
unt ary
unt ry
Ġ183 7
Ġsports person
Ġsports woman
Ġsports caster
Ġsports illustrated
be ing
be ch
be at
be insti
be itsdien
Ġak ers
Ġak ram
Ġak atsuka
Ġak inmus
Ġak shalov
Ġak ademi
Ġasi aprom
Ġbor o
Ġbor up
Ġbor jom
Ġbass es
Ġbass et
Ġmy ra
Ġmy ung
Ġmy pa
Ġmy Åį
Ġmy order
Ġmy eloid
Ġmy tishchi
Ġmy bergie
Ġga eil
Ġga usdal
Ġga iters
Ġga idai
Ġga ugin
Ġga udens
Ġga Ã©tan
Ġdev ice
Ġdev ries
Ġdev line
Ġdev asthan
Ġdev otees
Ġdev izes
Ġtrad es
Ġrugby leagueproject
bro ok
bro ker
wor anat
Ġsir tuins
arch ana
Ġpl um
Ġpl ans
Ġpl ural
Ġpl astic
Ġpl enary
Ġpl enip
Ġpl ovdiv
Ġpal ate
Ġpal ais
Ġpal mas
Ġpal gra
Ġpal encia
Ġpal acio
Ġpal isades
Ġpal ilula
Ġpal azzo
Ġmen g
Ġmen tion
Ġmen lo
Ġmen uh
Ġmen endez
Ġhal o
Ġhal lett
Ġhal esow
Ġjac lyn
Ġjac queline
Ġdefen sively
Ġgreat ly
Ġchristi e
18 5
18 6
18 80
18 85
18 64
18 81
18 92
18 02
18 65
ci urciu
ci usko
hen rik
ng el
ng onidzashe
Ġq une
Ġq pm
Ġq ango
Ġq jahl
Ġq itai
Ġq atari
Ġq azvin
thur mann
tis m
tis an
tis te
Ġfed nor
Ġfed erated
Ġfed cupresult
Ġfed erico
Ġmac ro
Ġmac iel
Ġmac gre
Ġmac lauch
Ġmac phail
Ġtur tles
Ġtur lock
Ġtur moil
Ġka hn
Ġka iko
Ġka ilua
Ġka andam
Ġka izer
Ġrap ing
Ġrap pers
Ġrap amy
Ġmont rÃ©
Ġgovernor ate
Ġsuper man
Ġsuper star
Ġsuper stars
Ġsuper vised
car l
car ril
car olo
car men
car leton
car penter
cons istent
gy mn
gy eon
Ã£ s
Ã£ es
Ġabo unded
Ġabo omos
Ġfig uer
Ġdun aÃº
Ġdun keld
Ġdun ipace
Ġdun ferml
Ġta o
Ġta il
Ġta ik
Ġta ft
Ġta vern
Ġju hom
Ġju vill
Ġken yon
Ġken ilworth
Ġrev oked
Ġrev ollo
Ġrev olt
iment als
Ġservic enumber
Ġdivision s
ru an
yd d
yd ay
Ġve ctor
Ġve ena
Ġve vey
Ġve hic
Ġve hement
Ġve tlesen
Ġbur ma
Ġbur ke
Ġbur don
Ġbur den
Ġbul k
Ġbul en
Ġbul ly
Ġbul lets
Ġol en
Ġol mÃ¼tz
Ġol omou
Ġol impij
Ġdar in
Ġdar io
Ġdar kn
Ġdar win
Ġdar rin
Ġdar rah
Ġdar ryl
Ġdar Ã¡nyi
Ġstart ups
Ġrober jd
ific ally
000 70
Ġeditor ial
Ġbrook side
Ġbrook vale
Ġgradu ation
Ġgradu ally
Ġclass es
Ġclass ics
Ġclass room
Ġcivil izing
band ito
band ofskulls
nes imi
Ġbran estaw
eng land
eng ineid
Ġfellow s
Ġtheat res
Ġdate line
Ġnt fl
Ġline man
Ġline ups
Ġlang en
Ġisrael is
Ġround s
Ġround ed
Ġround table
Ġcarl ton
Ġ1931 26
Ġafrican s
Ġcommit ment
Ġcommit ting
Ġcommit ments
Ġconnec ted
ste van
ste ffie
ste marken
Ġsom osot
iss ociatives
Ġdu ong
Ġnat o
Ġnat ak
Ġnat aput
Ġtro oper
Ġtro gir
Ġtro upe
Ġtro tsky
Ġjones boro
Ġlist s
Ġlist en
Ġlist owel
Ġiss y
Ġeth ical
Ġvan ity
Ġvan esa
Ġvan uatu
Ġvan essa
lyn n
Ġcarol inas
Ġpopular ity
Ġpopular ize
Ġpopular ized
Ġmodel ing
Ġorganiz er
Ġtimes lot
Ġbranch es
bal t
gen re
gen fri
gen erating
mit chell
war ia
war rior
Ġball room
Ġball inas
Ġball iol
Ġpet ah
Ġpet tico
tel lo
Ġob c
Ġob ey
Ġob ser
Ġob str
Ġob taining
Ġob jec
Ġob serv
Ġob esity
Ġob ituary
Ġdrum ming
Ġtv xq
Ġturn er
Ġgra ve
Ġgra vel
Ġgra zer
Ġgra Ã§a
Ġgra illy
Ġgra vity
Ġgra vina
Ġgra zed
Ġgra afsch
Ġdevelop er
Ġkh ush
Ġkh uli
Ġkh airi
Ġkh alid
Ġkh urshe
Ġkh imki
Ġkh idiro
Ġkh artoum
Ġkh alsa
Ġkh odapan
Ġkh abib
Ġkh omeini
Ġko ons
Ġko ebe
Ġko fert
Ġkey tar
Ġkey nes
Ġkey lor
Ġkey stone
Ġray theon
Ġstr asser
Ġstr anded
Ġstr adiv
Ġstr uthers
Ġteach ers
Ġbob cats
Ġindust rialist
Ġbron son
Ġ250 221
Ġsmall pox
Ġjean ette
Ġqueen spainmc
Ġsilver stone
Ġsilver tone
Ġsilver dust
Ġjimmy edgar
Ġsyste matic
yo hei
Ġsav a
Ġsav ed
Ġsav ing
Ġsav age
Ġsav oie
Ġsav atthi
Ġpast uro
Ġdid dley
lav icenc
ros si
ros coe
unk nown
Ġlor i
Ġlor ry
Ġlor Ã¡nd
Ġlight s
Ġke en
Ġke eto
Ġke iko
Ġke uda
Ġke kela
Ġke flav
Ġke henner
Ġrem ak
Ġrem oved
Ġchrist us
Ġchrist mas
Ġchrist ensen
Ġchrist church
Ġvar iance
Ġvar ela
Ġvar ndean
Ġvar iably
Ġprinc es
Ġprinc iple
Ġminor ities
position ed
Ġmiddle burg
Ġmiddle bury
Ġwestern s
49 3
49 445
hu ji
way ne
Ã¤ ne
Ã¤ ll
Ã¤ umkomm
Ġif k
Ġbishop ric
Ġche ap
Ġche erful
Ġche verie
Ġche ckmate
Ġche valier
Ġpres umed
Ġpres erved
Ġpres umptive
Ġwil fredo
Ġwil berforce
Ġwil lesden
Ġhav en
Ġhav ant
Ġhav ana
ura qui
Ġreal ized
Ġrh pm
Ġrh inos
Ġrh inop
Ġrh odius
Ġriver men
Ġriver dale
Ġriver dance
Ġriver shar
Ġriver kings
Ġstan hop
Ġstan islav
Ġstan islaus
Ġvi acom
Ġvi olent
Ġvi ikingit
Ġ184 0
Ġ184 5
Ġfounder ed
Ġbox e
Ġbox ed
Ġbox ers
Ġ50 2
less ly
Ġbrad y
Ġbrad ley
Ġbrad bury
Ġbrad enton
Ġabd u
Ġabd ication
Ġabd urakh
Ġdisc ussions
Ġnovel la
Ġprogram mer
bar bara
col ors
den is
den mark
day na
fe ev
fe cel
fe insinger
ml ive
ped ro
ped ition
Ġcorn s
Ġcorn hus
Ġcorn wall
Ġfa ber
Ġfa ia
Ġfa ucign
Ġfer rum
Ġox ygen
Ġhold ing
Ġdri fts
Ġdri esen
Ġty ra
Ġty ger
Ġty rone
Ġty balt
Ġdec ay
Ġdec ree
Ġdec rees
Ġdec orations
Ġdec oded
Ġram m
Ġram Ã³n
Ġram irom
Ġram allah
Ġram ensko
Ġform at
Ġform ally
Ġform ats
Ġecon Ã³mico
Ġseven oaks
Ġroad s
Ġroad run
Ġpoints c
Ġpoints d
lands berg
Ġ1924 29
Ġexper ts
Ġexper tise
Ġexper iments
Ġwilliams burg
Ġjeff erson
john ny
Ġdaniel le
Ġtrans it
Ġtrans lit
Ġtrans forming
Ġtrans atlantic
Ġtrans formed
Ġtrans umpt
Ġadminist rated
Ġadminist rative
17 88
17 93
17 79
17 331
17 181
dr ug
kn ow
kn ight
kn ud
ny men
ny Äģ
pick ed
sen ator
era e
Ġdi ary
Ġdi verse
Ġdi acon
Ġdi ario
Ġdi agnosed
Ġdi ocesan
Ġng aleu
Ġtal eb
Ġtal ks
Ġgar eth
Ġgar vey
Ġgar bage
Ġgar cÃŃa
Ġgar rett
Ġstock men
Ġstock broker
Ġalleg es
Ġalleg ro
Ġalleg ation
Ġalleg ations
Ġvol s
Ġvol ter
Ġvol ou
Ġvol ley
Ġvol gar
Ġvol ody
Ġvol gograd
Ġvol uminous
Ġvol ksbÃ¼
Ġvol beat
Ġ33 1
Ġ33 2
Ġ33 59
Ġmoder ate
Ġmoder ator
oph ilia
Ġexp and
Ġexp anding
Ġexp osing
Ġexp ected
Ġexp lodes
Ġexp ressiveness
Ġexp loits
Ġexecu tion
Ġmcg rory
Ġcompeti tive
Ġcompeti tors
Ġeconom y
Ġeconom ies
12 29
12 96
12 959
Ġsar u
Ġsar the
Ġsar nia
Ġsar oja
Ġsar unas
Ġsar ansk
Ġcle ar
Ġcle ment
Ġcle ared
Ġcle aring
Ġpa ve
Ġpa id
Ġpa ese
Ġpa arde
Ġperson ne
Ġperson nel
Ġok ÄĻ
Ġok onjo
Ġhand y
Ġhand ing
Ġhand led
Ġhand ful
Ġhand gun
Ġhand held
Ġhand picked
Ġhog s
Ġnik ki
Ġnik ci
Ġandr Ã¨
Ġandr Ã¡s
Ġkr zys
star red
star ring
Ġra e
Ġra x
Ġra Ãº
Ġra oura
Ġra ouf
Ġraj ae
Ġraj nath
Ġvis it
Ġvis by
Ġvis its
Ġvis ible
Ġvis ibility
Ġvis vesvar
Ġvis uddharama
Ġpost season
ivid eliza
Ġschol bru
class es
Ġcomple tions
Ġbrother hood
Ġsecret ly
Ġappearances c
Ġappearances d
Ġdoub ted
Ġdoub ts
Ġdoub led
Ġcontribu te
Ġmetal core
Ġinvol ves
Ġinvol ving
Ġinvol untary
Ġclay more
Ġspecial ist
Ġspecial ization
da ff
ple asing
present er
tig ators
time es
Ġbi ber
Ġbi har
Ġbi ographer
Ġbi ologist
Ġbi ography
Ġbi berfl
Ġbi ennale
isa ac
amer ica
Ġjord in
Ġgian ni
Ġgian nerini
Ġgran ader
Ġdeg rad
Ġdeg rÃ©
Ġfore man
Ġfore ground
oma tic
Ġchap ters
Ġvel vet
Ġvel Ã¡zquez
Ġvel baz
Ġvel asquez
Ġrob in
Ġsher man
Ġsher aton
Ġserb ians
Ġscreen play
Ġtig res
Ġcompos es
Ġcompos ed
Ġiran javan
Ã³n ios
Ġdepart ing
cle mente
cle aring
mor ton
pa olo
à¤ ľ
à¤ ¿à¤
Ġba a
Ġba o
Ġba xley
Ġba illieu
Ġba ftaa
Ġba zeley
Ġcall s
Ġcall ander
Ġcall imachus
Ġcall oway
Ġcred ibility
Ġcred entials
Ġpen arol
Ġpen alties
Ġpen rith
Ġpen shurst
Ġhill crest
Ġhill arp
Ġhill ingdon
Ġhill coat
Ġinn s
Ġislam ists
Ġislam abad
Ġlat ina
Ġlat ino
Ġlat via
Ġprem ios
Ġprem iere
Ġgood e
Ġgood ies
Ġgood ness
Ġguard ing
Ġguard are
Ġbats men
Ġdefe at
Ġhighest rank
Ġcycl ical
Ġdomin ion
Ġdomin ating
Ġdomin atorz
Ġargent o
Ġargent ines
Ġargent inos
30 5
30 77
30 659
ni all
sc at
sc anlan
Ġbach a
Ġthere of
Ġthere abouts
Ġmun a
Ġmun icipal
Ġmik ro
Ġmik keli
Ġmik lÃ³
Ġwis dom
Ġwis bech
Ġway nesimi
Ġgh iz
Ġgh azal
Ġgy Åĳ
Ġgy imesi
Ġgy osei
Ġgil more
Ġgil martin
Ġlin k
Ġlin er
Ġlin us
Ġlin ks
Ġlin king
Ġlin ked
igor ating
Ġku aiji
Ġrand a
Ġrand om
Ġash ton
Ġash burton
Ġ45 1
Ġ45 3
Ġ45 6
Ġ45 0026
Ġ179 7
Ġadd ed
Ġadd ing
Ġadd uces
Ġadv ent
Ġcommission s
Ġdavis cupresult
Ġattack s
Ġattack ed
Ġattack ers
Ġliber ian
Ġliber ec
Ġliter ate
Ġparticip ation
Ġparticip ant
Ġparticip ates
Ġparticip ants
Ġparticip atory
Ġnomin ator
10 25
10 38
cas as
cas ey
cas sidy
cas tonzo
yan owski
yan enko
Ġast urias
Ġsi u
Ġsi ena
Ġsi oux
Ġsi oufi
Ġsid es
Ġsid onia
Ġsid onie
Ġsid ecar
Ġbang in
Ġbang ers
Ġbang kok
Ġmach inery
Ġhow ever
Ġdor rit
Ġdor thy
Ġdor adas
Ġdor jsur
Ġdown town
Ġdown patrick
ament al
ili ers
ili ated
ili ense
Ġlincoln s
Ġreach es
Ġalger ine
Ġwhit ney
Ġwhit beck
Ġ36 6
Ġconv ocation
Ġconv inced
Ġconfer red
Ġcaptain ed
Ġcaptain ing
Ġinduc tees
Ġprac tition
Ġprac tise
Ġperiod s
Ġcrim inological
Ġcontin uation
Ġcontin uous
Ġestablish ment
Ġestablish ments
Ġpremier ship
Ġpremier ships
13 2
13 7
13 24
13 44
tr unners
tr igon
tr udar
ures ti
wh ite
wh itgift
with in
Ġur l
Ġur as
Ġur iah
Ġur ged
Ġur anch
Ġur dang
are a
are z
Ġcem ented
Ġpot ters
Ġpot tery
Ġpot tsville
Ġfr s
Ġfr idge
Ġfr cs
Ġfr Ã¶l
Ġfr iday
Ġfr atzsch
Ġfr agments
Ġfr Ã©dÃ©
Ġfred a
Ġfred rick
Ġfred rik
Ġmu ÄŁ
Ġmu qeem
[...]
