{"<s>":0,"<pad>":1,"</s>":2,"<unk>":3,"<mask>":4,"!":5,"\"":6,"#":7,"$":8,"%":9,"&":10,"'":11,"(":12,")":13,"*":14,"+":15,",":16,"-":17,".":18,"/":19,"0":20,"1":21,"2":22,"3":23,"4":24,"5":25,"6":26,"7":27,"8":28,"9":29,":":30,";":31,"<":32,"=":33,">":34,"?":35,"@":36,"A":37,"B":38,"C":39,"D":40,"E":41,"F":42,"G":43,"H":44,"I":45,"J":46,"K":47,"L":48,"M":49,"N":50,"O":51,"P":52,"Q":53,"R":54,"S":55,"T":56,"U":57,"V":58,"W":59,"X":60,"Y":61,"Z":62,"[":63,"\\":64,"]":65,"^":66,"_":67,"`":68,"a":69,"b":70,"c":71,"d":72,"e":73,"f":74,"g":75,"h":76,"i":77,"j":78,"k":79,"l":80,"m":81,"n":82,"o":83,"p":84,"q":85,"r":86,"s":87,"t":88,"u":89,"v":90,"w":91,"x":92,"y":93,"z":94,"{":95,"|":96,"}":97,"~":98,"¡":99,"¢":100,"£":101,"¤":102,"¥":103,"¦":104,"§":105,"¨":106,"©":107,"ª":108,"«":109,"¬":110,"®":111,"¯":112,"°":113,"±":114,"²":115,"³":116,"´":117,"µ":118,"¶":119,"·":120,"¸":121,"¹":122,"º":123,"»":124,"¼":125,"½":126,"¾":127,"¿":128,"À":129,"Á":130,"Â":131,"Ã":132,"Ä":133,"Å":134,"Æ":135,"Ç":136,"È":137,"É":138,"Ê":139,"Ë":140,"Ì":141,"Í":142,"Î":143,"Ï":144,"Ð":145,"Ñ":146,"Ò":147,"Ó":148,"Ô":149,"Õ":150,"Ö":151,"×":152,"Ø":153,"Ù":154,"Ú":155,"Û":156,"Ü":157,"Ý":158,"Þ":159,"ß":160,"à":161,"á":162,"â":163,"ã":164,"ä":165,"å":166,"æ":167,"ç":168,"è":169,"é":170,"ê":171,"ë":172,"ì":173,"í":174,"î":175,"ï":176,"ð":177,"ñ":178,"ò":179,"ó":180,"ô":181,"õ":182,"ö":183,"÷":184,"ø":185,"ù":186,"ú":187,"û":188,"ü":189,"ý":190,"þ":191,"ÿ":192,"Ā":193,"ā":194,"Ă":195,"ă":196,"Ą":197,"ą":198,"Ć":199,"ć":200,"Ĉ":201,"ĉ":202,"Ċ":203,"ċ":204,"Č":205,"č":206,"Ď":207,"ď":208,"Đ":209,"đ":210,"Ē":211,"ē":212,"Ĕ":213,"ĕ":214,"Ė":215,"ė":216,"Ę":217,"ę":218,"Ě":219,"ě":220,"Ĝ":221,"ĝ":222,"Ğ":223,"ğ":224,"Ġ":225,"ġ":226,"Ģ":227,"ģ":228,"Ĥ":229,"ĥ":230,"Ħ":231,"ħ":232,"Ĩ":233,"ĩ":234,"Ī":235,"ī":236,"Ĭ":237,"ĭ":238,"Į":239,"į":240,"İ":241,"ı":242,"Ĳ":243,"ĳ":244,"Ĵ":245,"ĵ":246,"Ķ":247,"ķ":248,"ĸ":249,"Ĺ":250,"ĺ":251,"Ļ":252,"ļ":253,"Ľ":254,"ľ":255,"Ŀ":256,"ŀ":257,"Ł":258,"ł":259,"Ń":260,"Ġa":261,"er":262,"th":263,"in":264,"on":265,"an":266,"Ġ,":267,"Ġs":268,"or":269,"ti":270,"Ġ1":271,"Ġb":272,"ar":273,"Ġc":274,"Ġ-":275,"en":276,"Ġth":277,"Ġp":278,"Ġf":279,"al":280,"le":281,"Ġm":282,"Ġw":283,"te":284,"Ġthe":285,"is":286,"rb":287,"Ġo":288,"Ġh":289,"re":290,"Ġ2":291,"Ġ19":292,"Ġ.":293,"Ġd":294,"Ġn":295,"as":296,"Ġin":297,"am":298,"Ġan":299,"es":300,"Ġof":301,"la":302,"ic":303,"ed":304,"ro":305,"ir":306,"Ġ20":307,"Ġt":308,"ing":309,"Ġand":310,"Ġj":311,"tion":312,"un":313,"rrb":314,"lrb":315,"Ġg":316,"ce":317,"el":318,"ate":319,"us":320,"it":321,"ch":322,"Ġ'":323,"ol":324,"il":325,"ur":326,"irth":327,"ent":328,"at":329,"Ġl":330,"he":331,"ber":332,"Ġde":333,"ig":334,"Ġk":335,"Ġre":336,"ation":337,"ame":338,"Ġar":339,"Ġ200":340,"st":341,"tic":342,"Ġr":343,"Ġwas":344,"Ġfor":345,"ad":346,"Ġbirth":347,"ag":348,"Ġto":349,"si":350,"date":351,"ter":352,"om":353,"im":354,"Ġ''":355,"Ġis":356,"ear":357,"and":358,"tle":359,"Ġst":360,"Ġ--":361,"ul":362,"Ġy":363,"Ġ201":364,"pla":365,"mber":366,"Ġe":367,"title":368,"Ġal":369,"Ġch":370,"ve":371,"ac":372,"Ġas":373,"place":374,"ticle":375,"ver":376,"ian":377,"Ġarticle":378,"Ġ`":379,"Ġname":380,"ot":381,"Ġun":382,"orn":383,"all":384,"id":385,"Ġhe":386,"ap":387,"Ġon":388,"Ġ``":389,"igh":390,"ia":391,"Ġv":392,"ay":393,"et":394,"ut":395,"ub":396,"ted":397,"ational":398,"ow":399,"Ġ199":400,"Ġse":401,"Ġat":402,"ity":403,"Ġpla":404,"ct":405,"Ġle":406,"ary":407,"ath":408,"mer":409,"Ġwh":410,"ist":411,"up":412,"ri":413,"ard":414,"ight":415,"ug":416,"ra":417,"Ġ198":418,"ly":419,"Ġ18":420,"Ġplay":421,"um":422,"Ġnational":423,"Ġro":424,"Ġborn":425,"Ġuni":426,"os":427,"art":428,"ith":429,"Ġfo":430,"Ġ3":431,"Ġhis":432,"Ġco":433,"Ġpro":434,"Ġ0":435,"age":436,"ears":437,"res":438,"Ġte":439,"ge":440,"ust":441,"Ġbe":442,"Ġim":443,"Ġne":444,"oc":445,"ue":446,"Ġ197":447,"der":448,"Ġpo":449,"Ġmar":450,"ie":451,"sh":452,"Ġwith":453,"man":454,"Ġla":455,"ou":456,"Ġdeath":457,"Ġsp":458,"cc":459,"ican":460,"ud":461,"ball":462,"uary":463,"ess":464,"lub":465,"ers":466,"ain":467,"Ġcon":468,"ord":469,"ion":470,"rom":471,"ak":472,"Ġcom":473,"Ġimage":474,"ey":475,"est":476,"ich":477,"ork":478,"ill":479,"Ġfrom":480,"ish":481,"Ġ196":482,"if":483,"Ġnew":484,"Ġjo":485,"ov":486,"ack":487,"Ġsh":488,"Ġcol":489,"ick":490,"end":491,"ran":492,"Ġ195":493,"Ġcap":494,"Ġap":495,"ous":496,"av":497,"Ġamer":498,"birth":499,"als":500,"Ġfoot":501,"Ġme":502,"od":503,"land":504,"Ġby":505,"ry":506,"ab":507,"eb":508,"vers":509,"ts":510,"Ġyears":511,"ip":512,"Ġjan":513,"Ġfootball":514,"Ġamerican":515,"so":516,"ach":517,"Ġ6":518,"Ġser":519,"Ġ4":520,"Ġbo":521,"Ġwho":522,"ire":523,"Ġmay":524,"name":525,"uc":526,"iv":527,"Ġ5":528,"ton":529,"Ġor":530,"ik":531,"und":532,"ell":533,"pg":534,"Ġ194":535,"Ġsc":536,"ong":537,"Ġunivers":538,"iel":539,"Ġcar":540,"ft":541,"ec":542,"Ġhas":543,"sition":544,"ward":545,"tive":546,"ze":547,"Ġpre":548,"Ġno":549,"Ġen":550,"outh":551,"Ġmo":552,"Ġuniversity":553,"op":554,"em":555,"Ġstate":556,"Ġgo":557,"les":558,"Ġclub":559,"Ġrec":560,"sion":561,"own":562,"ine":563,"Ġ;":564,"ore":565,"Ġocc":566,"Ġ193":567,"Ġposition":568,"Ġplayed":569,"Ġjul":570,"ice":571,"Ġjanuary":572,"og":573,"Ġpol":574,"ok":575,"son":576,"Ġjun":577,"Ġoccup":578,"00":579,"Ġaug":580,"ast":581,"urr":582,"ort":583,"Ġalso":584,"Ġoccupation":585,"Ġaugust":586,"ant":587,"ff":588,"jpg":589,"Ġman":590,"Ġher":591,"Ġjuly":592,"ren":593,"ctor":594,"ague":595,"Ġmarch":596,"hn":597,"Ã©":598,"Ġ7":599,"ugh":600,"urrent":601,"Ġu":602,"Ġunited":603,"Ġpart":604,"Ġcurrent":605,"ass":606,"Ġind":607,"Ġpar":608,"Ġeng":609,"Ġfir":610,"ang":611,"ames":612,"Ġkn":613,"Ġprof":614,"sid":615,"io":616,"Ġti":617,"team":618,"Ġcoun":619,"Ġ192":620,"cember":621,"Ġfirst":622,"ther":623,"per":624,"Ġed":625,"Ġdecember":626,"cto":627,"ment":628,"iz":629,"ond":630,"Ġbr":631,"Ġocto":632,"Ġoctober":633,"ull":634,"Ġteam":635,"Ġsch":636,"ence":637,"Ġjune":638,"ere":639,"Ġnove":640,"ies":641,"Ġ8":642,"Ġag":643,"Ġmus":644,"Ġ2011":645,"Ġnovember":646,"Ġph":647,"ld":648,"Ġsing":649,"Ġcan":650,"Ġpr":651,"se":652,"ated":653,"years":654,"ession":655,"cl":656,"Ġsep":657,"Ġcolle":658,"Ġ10":659,"Ġfin":660,"urn":661,"Ġ2012":662,"tember":663,"Ġcomp":664,"Ġseptember":665,"mp":666,"Ġ12":667,"Ġfeb":668,"red":669,"for":670,"Ġ17":671,"Ġfebr":672,"ma":673,"Ġ15":674,"Ġmin":675,"ign":676,"Ġfebruary":677,"qu":678,"Ġ2008":679,"resent":680,"Ġrecord":681,"but":682,"Ġass":683,"Ġ9":684,"Ġrep":685,"Ġleague":686,"Ġmember":687,"me":688,"ouse":689,"Ġserv":690,"Ġ2014":691,"Ġcaption":692,"ah":693,"Ġsu":694,"Ġgen":695,"Ġ&":696,"Ġi":697,"Ġfil":698,"ash":699,"essor":700,"Ġ2009":701,"Ġz":702,"Ġwor":703,"Ġjohn":704,"she":705,"Ġaust":706,"Ġshe":707,"Ġyork":708,"Ġ2013":709,"19":710,"bo":711,"Ġwork":712,"Ġad":713,"amp":714,"Ġdebut":715,"Ġknown":716,"ril":717,"Ġfran":718,"Ġdra":719,"ason":720,"ck":721,"Ġthat":722,"eer":723,"ral":724,"Ġ16":725,"Ġwe":726,"the":727,"Ġmusic":728,"Ġfilm":729,"to":730,"Ġfull":731,"Ġapril":732,"club":733,"ial":734,"Ġformer":735,"ade":736,"tern":737,"Ġapp":738,"Ġoff":739,"Ġprofession":740,"ric":741,"Ġex":742,"ph":743,"enn":744,"Ġ2010":745,"Ġper":746,"ubl":747,"ield":748,"Ġ2007":749,"Ġaf":750,"Ġnationality":751,"Ġparty":752,"Ġaward":753,"ild":754,"Ġcollege":755,"Ġworld":756,"Ġbro":757,"tu":758,"Ġac":759,"ree":760,"Ġheight":761,"Ġone":762,"rit":763,"Ġit":764,"ress":765,"Ġstates":766,"Ġpoli":767,"iam":768,"wn":769,"Ġ:":770,"Ġsouth":771,"Ġtw":772,"old":773,"Ġ2006":774,"Ġbas":775,"Ġpolitic":776,"ann":777,"Ġ11":778,"Ġcareer":779,"ory":780,"year":781,"go":782,"Ġplayer":783,"Ġcount":784,"ool":785,"ins":786,"Ġcal":787,"ke":788,"Ġus":789,"Ġ13":790,"Ġter":791,"uring":792,"Ġseason":793,"ina":794,"Ġ189":795,"ier":796,"Ġ191":797,"Ġnor":798,"Ġbar":799,"Ġge":800,"aj":801,"az":802,"Ġwar":803,"Ġgu":804,"atch":805,"Ġbat":806,"Ġmed":807,"Ġcomm":808,"Ġfullname":809,"ince":810,"Ġger":811,"px":812,"Ġ14":813,"Ġclubs":814,"ss":815,"Ġprofessional":816,"Ã¡":817,"Ġste":818,"Ġaustral":819,"ai":820,"enc":821,"ock":822,"umber":823,"Ġfc":824,"Ġev":825,"bur":826,"co":827,"ied":828,"mar":829,"we":830,"Ġcity":831,"tish":832,"Ġ24":833,"ater":834,"Ġ2004":835,"Ġdraft":836,"ive":837,"Ġmid":838,"Ġ22":839,"Ġ2015":840,"Ġcanad":841,"Ġband":842,"lec":843,"fl":844,"his":845,"Ġ25":846,"Ġchar":847,"Ġ28":848,"start":849,"Ġstat":850,"ati":851,"lo":852,"Ġback":853,"af":854,"Ġwill":855,"bert":856,"clud":857,"ris":858,"rum":859,"ys":860,"Ġgr":861,"Ġwhich":862,"Ġact":863,"Ġinclud":864,"ung":865,"Ġterm":866,"vis":867,"Ġbri":868,"Ġ2005":869,"Ġall":870,"Ġengland":871,"Ġ27":872,"Ġlo":873,"Ġrun":874,"Ġright":875,"active":876,"Ġsec":877,"riter":878,"ner":879,"Ġpresent":880,"ister":881,"Ġcaps":882,"ham":883,"led":884,"round":885,"oci":886,"sp":887,"Ġab":888,"Ġdef":889,"Ġcr":890,"Ġfootballer":891,"Ġir":892,"Ġha":893,"Ġhar":894,"ne":895,"Ġel":896,"ank":897,"Ġdav":898,"Ġ2001":899,"Ġschool":900,"bel":901,"Ġwon":902,"Ġhad":903,"Ġyouth":904,"Ġbeen":905,"by":906,"Ġso":907,"Ġ21":908,"ome":909,"Ġgoals":910,"Ġsucc":911,"ure":912,"Ġ23":913,"height":914,"Ġchild":915,"Ġspouse":916,"Ġgerman":917,"Ġgeor":918,"Ġ190":919,"ship":920,"ting":921,"Ġ29":922,"Ġcoach":923,"Ġlaw":924,"ainst":925,"goals":926,"uth":927,"Ġear":928,"Ġactor":929,"anc":930,"Ġtr":931,"ide":932,"Ġpolitician":933,"Ġbritish":934,"air":935,"Ġsan":936,"Ġpe":937,"ker":938,"sti":939,"Ġbl":940,"Ġbut":941,"ley":942,"Ġ30":943,"Ġprod":944,"Ġweight":945,"br":946,"tt":947,"tist":948,"Ġking":949,"Ġtwo":950,"Ġcl":951,"Ġdist":952,"my":953,"Ġmon":954,"Ġduring":955,"Ġmost":956,"aul":957,"ford":958,"Ġ2003":959,"Ġrus":960,"Ġchamp":961,"ally":962,"Ġbec":963,"Ġchampion":964,"pe":965,"inn":966,"Ġpresid":967,"cap":968,"ki":969,"inc":970,"ens":971,"Ġintern":972,"Ġyear":973,"update":974,"Ġserved":975,"Ġbra":976,"Ġbest":977,"Ġgre":978,"ww":979,"one":980,"Ġcent":981,"Ġ26":982,"olog":983,"Ġ2002":984,"Ġplays":985,"Ġsinger":986,"ll":987,"Ġmich":988,"size":989,"aw":990,"lish":991,"Ġmade":992,"Ġnot":993,"tions":994,"Ġfinal":995,"ael":996,"ons":997,"ings":998,"Ġassoci":999,"ix":1000,"que":1001,"val":1002,"Ġcro":1003,"Ġhigh":1004,"ics":1005,"Ġcurrently":1006,"Ġchildren":1007,"Ġover":1008,"Ġdes":1009,"200":1010,"ose":1011,"Ġgenre":1012,"Ġproduc":1013,"ka":1014,"vel":1015,"Ġmis":1016,"Ġdire":1017,"Ġappear":1018,"burg":1019,"Ġam":1020,"Ġsm":1021,"Ġdo":1022,"Ġjames":1023,"Ġstar":1024,"eral":1025,"ors":1026,"Ġcont":1027,"gan":1028,"ious":1029,"ale":1030,"Ġtime":1031,"Ġwilliam":1032,"stitu":1033,"ls":1034,"igin":1035,"Ġ2000":1036,"shire":1037,"Ġpresident":1038,"ile":1039,"Ġqu":1040,"ern":1041,"Ġlast":1042,"Ġyo":1043,"vern":1044,"icket":1045,"ven":1046,"ased":1047,"Ġ1995":1048,"Ġ1999":1049,"iforn":1050,"clubs":1051,"Ġafter":1052,"Ġcaliforn":1053,"Ġactress":1054,"uthor":1055,"alist":1056,"Ġda":1057,"ington":1058,"Ġgro":1059,"Ġ1982":1060,"Ġii":1061,"field":1062,"hl":1063,"Ġhim":1064,"ical":1065,"Ġru":1066,"Ġelec":1067,"Ġ1992":1068,"Ġagainst":1069,"Ġinternational":1070,"Ġcalifornia":1071,"amil":1072,"Ġalb":1073,"ather":1074,"Ġwhere":1075,"Ġ31":1076,"Ġminister":1077,"Ġaustralian":1078,"Ġdavid":1079,"caps":1080,"com":1081,"ib":1082,"mater":1083,"ino":1084,"Ġbus":1085,"Ġreg":1086,"Ġ1990":1087,"Ġ1991":1088,"Ġatt":1089,"Ġoffice":1090,"20":1091,"ground":1092,"lig":1093,"ron":1094,"Ġale":1095,"ans":1096,"til":1097,"Ġnd":1098,"Ġjack":1099,"Ġrele":1100,"Ġcolum":1101,"ative":1102,"mo":1103,"Ġann":1104,"omas":1105,"Ġ1996":1106,"Ġlead":1107,"ielder":1108,"dec":1109,"Ġauthor":1110,"ind":1111,"Ġsw":1112,"Ġsen":1113,"ender":1114,"Ġfl":1115,"Ġmatch":1116,"Ġwal":1117,"Ġgames":1118,"Ġleft":1119,"Ġdistric":1120,"ood":1121,"Ġpubl":1122,"Ġdis":1123,"Ġalma":1124,"Ġvic":1125,"Ġfour":1126,"Ġtele":1127,"ockey":1128,"Ġcanadian":1129,"ger":1130,"Ġ/":1131,"Ġartist":1132,"Ġsci":1133,"vision":1134,"Ġdistrict":1135,"ha":1136,"iti":1137,"tor":1138,"ance":1139,"Ġmil":1140,"Ġtheir":1141,"Ġho":1142,"Ġres":1143,"strum":1144,"Ġ1994":1145,"strument":1146,"ane":1147,"Ġmaj":1148,"Ġreti":1149,"Ġ1980":1150,"Ġcurrentclub":1151,"Ġgeorge":1152,"oll":1153,"Ġ1981":1154,"Ġtelevision":1155,"ces":1156,"ev":1157,"Ġsy":1158,"Ġthro":1159,"Ġoly":1160,"ese":1161,"Ġlou":1162,"Ġ1984":1163,"Ġorigin":1164,"Ġdirector":1165,"Ġolymp":1166,"fielder":1167,"ite":1168,"ket":1169,"ram":1170,"Ġrelig":1171,"Ġunder":1172,"Ġloan":1173,"Ġrussi":1174,"Ġbecame":1175,"ica":1176,"ult":1177,"Ġplaying":1178,"Ġnationalteam":1179,"Ġ1970":1180,"Ġ1976":1181,"Ġlater":1182,"able":1183,"Ġpredec":1184,"Ġgovern":1185,"Ġmanag":1186,"Ġndash":1187,"Ġpredecessor":1188,"her":1189,"Ġwell":1190,"inger":1191,"Ġ186":1192,"Ġrepubl":1193,"ace":1194,"de":1195,"Ġpri":1196,"Ġmc":1197,"Ġhockey":1198,"Ġ1988":1199,"Ġpop":1200,"Ġenglish":1201,"Ġcounty":1202,"Ġsecond":1203,"ior":1204,"ves":1205,"Ġje":1206,"olo":1207,"ander":1208,"Ġleg":1209,"Ġ187":1210,"Ġnationalyears":1211,"Ġrock":1212,"au":1213,"Ã³":1214,"Ã¼":1215,"ana":1216,"Ġthree":1217,"aly":1218,"Ġother":1219,"Ġhist":1220,"Ġ1998":1221,"erson":1222,"Ġcompe":1223,"med":1224,"Ġâ":1225,"Ġup":1226,"Ġsince":1227,"Ġpit":1228,"Ġout":1229,"Ġnumber":1230,"lad":1231,"Ġ1985":1232,"Ġbackground":1233,"Ġmajor":1234,"Ġlouis":1235,"yl":1236,"Ġbu":1237,"Ġthomas":1238,"Ġpat":1239,"ald":1240,"Ġstud":1241,"ular":1242,"Ġ188":1243,"Ġnationalgoals":1244,"Ġnationalcaps":1245,"Ġevent":1246,"Ġalex":1247,"je":1248,"min":1249,"port":1250,"uk":1251,"writer":1252,"ĨĴ":1253,"Ġcas":1254,"ene":1255,"Ġhel":1256,"Ġresid":1257,"Ġwhen":1258,"Ġscot":1259,"Ġincluding":1260,"Ġreleased":1261,"ĠâĨĴ":1262,"iver":1263,"pen":1264,"ania":1265,"Ġbow":1266,"Ġcor":1267,"Ġfre":1268,"Ġmet":1269,"Ġwest":1270,"Ġdem":1271,"ife":1272,"Ġseries":1273,"Ġreligion":1274,"lb":1275,"na":1276,"Ġ?":1277,"iness":1278,"Ġweb":1279,"Ġhouse":1280,"Ġ1997":1281,"Ġcons":1282,"ike":1283,"Ġawards":1284,"Ġbase":1285,"Ġnorth":1286,"//":1287,"fore":1288,"Ġsa":1289,"Ġsk":1290,"Ġsal":1291,"Ġfe":1292,"itar":1293,"oss":1294,"Ġphil":1295,"Ġmidfielder":1296,"Ġsuccessor":1297,"ttp":1298,"Ġchampionship":1299,"Ġmichael":1300,"Ġretired":1301,"://":1302,"jo":1303,"number":1304,"Ġsup":1305,"Ġsong":1306,"Ġpaul":1307,"ations":1308,"Ġoffic":1309,"Ġyouthclubs":1310,"Ġyoung":1311,"Ġbusiness":1312,"ep":1313,"rap":1314,"Ġze":1315,"Ġfive":1316,"Ġwere":1317,"Ġdep":1318,"Ġtour":1319,"Ġval":1320,"Ġ1983":1321,"Ġunion":1322,"Ġ1974":1323,"Ġlabel":1324,"Ġrecords":1325,"Ġcountry":1326,"Ġgroup":1327,"fted":1328,"han":1329,"ks":1330,"lin":1331,"yer":1332,"Ġque":1333,"ony":1334,"Ġsign":1335,"Ġwin":1336,"Ġoh":1337,"Ġhttp":1338,"ator":1339,"ston":1340,"Ġwash":1341,"Ġfound":1342,"Ġalbum":1343,"fer":1344,"ual":1345,"Ġtitle":1346,"Ġbet":1347,"Ġmor":1348,"Ġrece":1349,"adem":1350,"Ġ1987":1351,"Ġ1977":1352,"tal":1353,"yn":1354,"leg":1355,"Ġtri":1356,"itz":1357,"urt":1358,"Ġrank":1359,"term":1360,"ova":1361,"Ġbasket":1362,"after":1363,"Ġruns":1364,"Ġbaseball":1365,"ko":1366,"po":1367,"sch":1368,"Ġdied":1369,"Ġinto":1370,"Ġforward":1371,"Ġ1989":1372,"Ġsho":1373,"ondon":1374,"Ġacadem":1375,"Ġmedal":1376,"ney":1377,"Ġsil":1378,"Ġsim":1379,"Ġfield":1380,"Ġwriter":1381,"Ġdan":1382,"Ġden":1383,"Ġnfl":1384,"ats":1385,"Ġlondon":1386,"ago":1387,"Ġ1979":1388,"Ġhistory":1389,"Ġbasketball":1390,"ba":1391,"cis":1392,"ced":1393,"ones":1394,"Ġfather":1395,"Ġlong":1396,"Ġkore":1397,"ters":1398,"Ġbefore":1399,"Ġbook":1400,"Ġclubnumber":1401,"Ġperfor":1402,"Ġscience":1403,"back":1404,"ler":1405,"Ġx":1406,"Ġcam":1407,"aland":1408,"Ġma":1409,"Ġ1972":1410,"ived":1411,"Ġusa":1412,"Ġwashington":1413,"ling":1414,"oul":1415,"ty":1416,"Ã¶":1417,"Ġsoc":1418,"Ġpc":1419,"Ġinv":1420,"Ġinter":1421,"Ġinstitu":1422,"ating":1423,"Ġ1993":1424,"ished":1425,"Ġorder":1426,"Ġeduc":1427,"Ġprim":1428,"Ġaustralia":1429,"Ġgermany":1430,"Ġmanager":1431,"con":1432,"no":1433,"ough":1434,"rac":1435,"Ġend":1436,"Ġare":1437,"Ġsam":1438,"Ġber":1439,"Ġbel":1440,"Ġcla":1441,"enti":1442,"Ġpain":1443,"Ġpenn":1444,"Ġmart":1445,"Ġwom":1446,"tes":1447,"Ġlu":1448,"Ġtex":1449,"Ġtest":1450,"Ġmayor":1451,"Ġgeneral":1452,"Ġresidence":1453,"Ġdemoc":1454,"Ġzealand":1455,"fo":1456,"ari":1457,"Ġcre":1458,"ism":1459,"Ġjpg":1460,"Ġgold":1461,"Ġuntil":1462,"Ġrole":1463,"Ġ1968":1464,"Ġguitar":1465,"ology":1466,"Ġjackson":1467,"Ġrussian":1468,"tain":1469,"ues":1470,"vil":1471,"yle":1472,"zil":1473,"ĠÃ":1474,"Ġsum":1475,"Ġbre":1476,"Ġcup":1477,"Ġmill":1478,"Ġdel":1479,"Ġtor":1480,"Ġhead":1481,"Ġmatches":1482,"cer":1483,"ful":1484,"tar":1485,"Ġes":1486,"any":1487,"Ġsolo":1488,"tim":1489,"ented":1490,"Ġport":1491,"lab":1492,"Ġjim":1493,"Ġli":1494,"Ġred":1495,"Ġart":1496,"site":1497,"Ġ1966":1498,"Ġindian":1499,"Ġprofessor":1500,"Ġrepresent":1501,"Ġsmith":1502,"ollow":1503,"Ġpcupdate":1504,"gar":1505,"ition":1506,"sb":1507,"ani":1508,"Ġson":1509,"amed":1510,"icago":1511,"ira":1512,"Ġjose":1513,"Ġarch":1514,"Ġstri":1515,"Ġali":1516,"ump":1517,"Ġgoal":1518,"Ġfrank":1519,"Ġseasons":1520,"ency":1521,"Ġbrazil":1522,"Ġdesign":1523,"har":1524,"out":1525,"Äĩ":1526,"Ġent":1527,"Ġav":1528,"Ġaver":1529,"Ġbla":1530,"ena":1531,"Ġmel":1532,"Ġhen":1533,"ester":1534,"urch":1535,"ents":1536,"tics":1537,"Ġem":1538,"Ġchicago":1539,"Ġvoc":1540,"Ġatl":1541,"Ġ1986":1542,"Ġshow":1543,"ograp":1544,"Ġmusician":1545,"Ġbrown":1546,"Ġhave":1547,"Ġappeared":1548,"eter":1549,"ten":1550,"Ġer":1551,"Ġcy":1552,"Ġfree":1553,"Ġmat":1554,"Ġhol":1555,"Ġdon":1556,"Ġnon":1557,"Ġgame":1558,"its":1559,"ages":1560,"veral":1561,"Ġonly":1562,"ief":1563,"emb":1564,"Ġbattle":1565,"ween":1566,"Ġassociation":1567,"Ġacademy":1568,"dom":1569,"hi":1570,"pro":1571,"rist":1572,"syl":1573,"tin":1574,"Ġsome":1575,"Ġfren":1576,"Ġhon":1577,"rew":1578,"Ġtra":1579,"under":1580,"ates":1581,"Ġemp":1582,"Ġchris":1583,"ida":1584,"Ġseveral":1585,"Ġbeing":1586,"Ġ1965":1587,"Ġfrancis":1588,"www":1589,"Ġmiss":1590,"Ġwebsite":1591,"vania":1592,"Ġut":1593,"Ġill":1594,"Ġice":1595,"Ġthir":1596,"Ġfar":1597,"Ġmore":1598,"Ġnov":1599,"Ġkar":1600,"Ġrela":1601,"sive":1602,"Ġvir":1603,"rib":1604,"ried":1605,"Ġroman":1606,"resented":1607,"Ġtech":1608,"ersey":1609,"azz":1610,"Ġpennsyl":1611,"Ġfrench":1612,"Ġpennsylvania":1613,"hand":1614,"mon":1615,"pp":1616,"sk":1617,"ÃŃ":1618,"int":1619,"ined":1620,"Ġmag":1621,"Ġown":1622,"label":1623,"Ġjud":1624,"itor":1625,"cher":1626,"Ġrich":1627,"Ġep":1628,"Ġchair":1629,"Ġchurch":1630,"Ġrobert":1631,"Ġ1978":1632,"iff":1633,"Ġboard":1634,"Ġprev":1635,"kee":1636,"Ġproducer":1637,"Ġsummer":1638,"eth":1639,"uch":1640,"Ġsl":1641,"Ġsur":1642,"enz":1643,"Ġmur":1644,"Ġdiv":1645,"Ġinc":1646,"Ġtom":1647,"Ġtown":1648,"Ġplace":1649,"Ġ1964":1650,"Ġjourn":1651,"Ġ1952":1652,"Ġ1954":1653,"Ġworked":1654,"Ġpolitical":1655,"Ġgrand":1656,"inning":1657,"Ġohio":1658,"Ġinstitute":1659,"Ġwomen":1660,"ca":1661,"eg":1662,"ize":1663,"ta":1664,"Ġest":1665,"Ġacc":1666,"Ġfollow":1667,"Ġmary":1668,"Ġdr":1669,"Ġjersey":1670,"Ġlit":1671,"Ġarmy":1672,"Ġtotal":1673,"Ġyes":1674,"Ġele":1675,"Ġ181":1676,"Ġ1960":1677,"Ġ1956":1678,"Ġ1944":1679,"Ġfrance":1680,"mark":1681,"Ġcanada":1682,"Ġdefender":1683,"Ġearly":1684,"Ġcross":1685,"Ġflor":1686,"Ġolympics":1687,"ek":1688,"ited":1689,"uro":1690,"ws":1691,"Ġmak":1692,"iction":1693,"itary":1694,"olic":1695,"Ġchief":1696,"ratic":1697,"Ġprog":1698,"Ġ1963":1699,"Ġ1945":1700,"Ġmidd":1701,"Ġcolumb":1702,"Ġpublic":1703,"Ġcompeted":1704,"ee":1705,"ho":1706,"iet":1707,"ning":1708,"ria":1709,"turn":1710,"ula":1711,"orts":1712,"Ġcath":1713,"alth":1714,"Ġmod":1715,"Ġhome":1716,"Ġder":1717,"Ġdom":1718,"ama":1719,"Ġtre":1720,"uri":1721,"Ġlos":1722,"Ġkg":1723,"apan":1724,"Ġ1973":1725,"Ġshar":1726,"Ġ1958":1727,"Ġprince":1728,"Ġyouthyears":1729,"Ġvictor":1730,"Ġrepublican":1731,"Ġalexander":1732,"Ġdemocratic":1733,"Ġaverage":1734,"Ġprevious":1735,"ais":1736,"men":1737,"ya":1738,"Ġver":1739,"Ġsix":1740,"Ġwicket":1741,"Ġten":1742,"Ġgl":1743,"ster":1744,"Ġrad":1745,"Ġ180":1746,"Ġprov":1747,"udd":1748,"Ġappo":1749,"Ġsuccess":1750,"Ġkingdom":1751,"Ġassociated":1752,"value":1753,"Ġelected":1754,"Ġleader":1755,"Ġjoseph":1756,"embly":1757,"gin":1758,"ms":1759,"por":1760,"ring":1761,"Ġath":1762,"instrument":1763,"Ġben":1764,"ara":1765,"Ġca":1766,"Ġfamil":1767,"Ġmov":1768,"Ġod":1769,"Ġoper":1770,"edy":1771,"Ġjos":1772,"Ġtook":1773,"ishop":1774,"Ġ1947":1775,"Ġuk":1776,"Ġindia":1777,"Ġcounc":1778,"Ġits":1779,"flu":1780,"Ġstatlabel":1781,"Ġstatvalue":1782,"Ġgovernment":1783,"Ġbetween":1784,"Ġblack":1785,"liam":1786,"nd":1787,"ob":1788,"singer":1789,"Ġair":1790,"ints":1791,"Ġbill":1792,"Ġthen":1793,"Ġmad":1794,"Ġmike":1795,"Ġwood":1796,"ision":1797,"Ġhall":1798,"Ġnamed":1799,"Ġinflu":1800,"Ġang":1801,"ico":1802,"Ġjer":1803,"berg":1804,"Ġeuro":1805,"ays":1806,"Ġcourt":1807,"akh":1808,"aker":1809,"Ġshort":1810,"Ġorgan":1811,"Ġcricket":1812,"Ġcolumn":1813,"Ġsocial":1814,"Ġtexas":1815,"liament":1816,"21":1817,"bor":1818,"born":1819,"hy":1820,"iro":1821,"ium":1822,"rick":1823,"ved":1824,"Ġsub":1825,"Ġbal":1826,"Ġce":1827,"Ġthis":1828,"Ġpan":1829,"league":1830,"Ġmer":1831,"Ġwes":1832,"Ġnow":1833,"ase":1834,"Ġinstrument":1835,"olk":1836,"ury":1837,"Ġarg":1838,"acts":1839,"Ġroy":1840,"Ġboth":1841,"Ġ1946":1842,"Ġscor":1843,"Ġparliament":1844,"Ġtim":1845,"Ġassembly":1846,"Ġrepresented":1847,"Ġdebutyear":1848,"Ġoverall":1849,"201":1850,"Ġthrough":1851,"Ġphilip":1852,"Ġreceived":1853,"Ġeducation":1854,"Ġvocals":1855,"Ġfamily":1856,"Ġcouncil":1857,"of":1858,"off":1859,"arm":1860,"Ġciv":1861,"Ġcatch":1862,"Ġopen":1863,"Ġham":1864,"Ġnick":1865,"Ġtran":1866,"Ġjazz":1867,"Ġjapan":1868,"Ġry":1869,"adu":1870,"Ġtop":1871,"ots":1872,"idge":1873,"Ġvo":1874,"Ġbegan":1875,"Ġmarried":1876,"Ġ1955":1877,"Ġedward":1878,"199":1879,"Ġcharles":1880,"Ġgeorg":1881,"ject":1882,"Ġofficer":1883,"Ġtechn":1884,"Ġflorida":1885,"Ġage":1886,"ines":1887,"onto":1888,"tiv":1889,"Ġbay":1890,"Ġmas":1891,"elly":1892,"use":1893,"ature":1894,"Ġlar":1895,"Ġreturn":1896,"Ġrac":1897,"Ġrug":1898,"ands":1899,"ety":1900,"Ġ185":1901,"Ġ1957":1902,"Ġmoham":1903,"yearsactive":1904,"Ġassist":1905,"Ġsuch":1906,"Ã¡n":1907,"burgh":1908,"lsb":1909,"Ġdaugh":1910,"Ġappoin":1911,"Ġathle":1912,"bec":1913,"ga":1914,"li":1915,"ming":1916,"mond":1917,"su":1918,"wan":1919,"work":1920,"Ġiv":1921,"Ġaff":1922,"Ġsain":1923,"alian":1924,"Ġmal":1925,"Ġmos":1926,"isla":1927,"Ġtak":1928,"unt":1929,"elf":1930,"Ġlife":1931,"vement":1932,"Ġ183":1933,"Ġross":1934,"Ġpoet":1935,"Ġsports":1936,"Ġ1950":1937,"Ġ1951":1938,"Ġpartic":1939,"Ġitaly":1940,"inois":1941,"Ġtoronto":1942,"Ġillinois":1943,"Ġthird":1944,"Ġwickets":1945,"be":1946,"ned":1947,"tro":1948,"Ġ#":1949,"Ġak":1950,"Ġasi":1951,"Ġbor":1952,"Ġbass":1953,"Ġmy":1954,"tee":1955,"Ġnb":1956,"Ġjr":1957,"Ġga":1958,"elph":1959,"olf":1960,"Ġdev":1961,"ower":1962,"Ġ1971":1963,"uck":1964,"ellow":1965,"Ġcompany":1966,"Ġrecorded":1967,"Ġdebutteam":1968,"Ġfilms":1969,"Ġtrad":1970,"Ġpeter":1971,"Ġmilitary":1972,"ville":1973,"Ġhenry":1974,"Ġvirgin":1975,"Ġrugby":1976,"bro":1977,"rian":1978,"wor":1979,"za":1980,"ining":1981,"Ġsir":1982,"arch":1983,"Ġpl":1984,"Ġpal":1985,"Ġmen":1986,"Ġhal":1987,"reen":1988,"Ġange":1989,"Ġjac":1990,"Ġisland":1991,"Ġimages":1992,"Ġconn":1993,"Ġconstitu":1994,"Ġ1961":1995,"Ġ1962":1996,"Ġ1967":1997,"abeth":1998,"ebut":1999,"ecu":2000,"Ġ1932":2001,"Ġdrafted":2002,"rison":2003,"Ġdefen":2004,"Ġirish":2005,"Ġgreat":2006,"Ġsongwriter":2007,"epend":2008,"Ġsigned":2009,"Ġchristi":2010,"Ġcatholic":2011,"18":2012,"ci":2013,"hen":2014,"ij":2015,"ng":2016,"ray":2017,"Ġq":2018,"thur":2019,"tis":2020,"Ġfes":2021,"Ġfed":2022,"Ġmac":2023,"test":2024,"Ġnhl":2025,"Ġtur":2026,"ely":2027,"Ġlb":2028,"Ġka":2029,"Ġkenn":2030,"Ġrap":2031,"ota":2032,"Ġ1975":2033,"Ġspe":2034,"Ġspain":2035,"Ġindepend":2036,"Ġ1929":2037,"Ġphys":2038,"ture":2039,"Ġincluded":2040,"Ġmont":2041,"Ġsenior":2042,"Ġgovernor":2043,"Ġlegisla":2044,"Ġsuper":2045,"Ġeurope":2046,"car":2047,"cons":2048,"dra":2049,"gy":2050,"ila":2051,"iÄĩ":2052,"lie":2053,"national":2054,"oy":2055,"rich":2056,"uel":2057,"va":2058,"xx":2059,"Ã£":2060,"Ġabo":2061,"thers":2062,"Ġfig":2063,"Ġmass":2064,"Ġdun":2065,"esh":2066,"Ġta":2067,"Ġju":2068,"Ġgri":2069,"ita":2070,"ural":2071,"ently":2072,"Ġken":2073,"Ġkent":2074,"Ġrev":2075,"ado":2076,"iment":2077,"Ġalf":2078,"rael":2079,"ocal":2080,"Ġspec":2081,"Ġamerica":2082,"Ġ1938":2083,"anta":2084,"Ġsingle":2085,"Ġservic":2086,"bour":2087,"Ġnotable":2088,"Ġwales":2089,"Ġchampionships":2090,"Ġdenmark":2091,"Ġjudge":2092,"Ġdivision":2093,"Ġjournalist":2094,"Ġangeles":2095,"Ġimagesize":2096,"ht":2097,"ilad":2098,"ru":2099,"rsb":2100,"yd":2101,"Ġve":2102,"tice":2103,"Ġbur":2104,"Ġbul":2105,"Ġol":2106,"Ġdar":2107,"lah":2108,"usse":2109,"ital":2110,"urs":2111,"Ġstart":2112,"Ġchina":2113,"uty":2114,"Ġrober":2115,"Ġlate":2116,"Ġcong":2117,"ific":2118,"Ġ1959":2119,"Ġboston":2120,"000":2121,"side":2122,"Ġeditor":2123,"izabeth":2124,"Ġagent":2125,"Ġphilad":2126,"Ġbrook":2127,"Ġcalled":2128,"Ġbatting":2129,"Ġsteph":2130,"weight":2131,"Ġgradu":2132,"Ġclass":2133,"Ġelection":2134,"Ġrepublic":2135,"Ġcivil":2136,"elphia":2137,"Ġvirginia":2138,"Ġphiladelphia":2139,"band":2140,"nes":2141,"rican":2142,"wer":2143,"Ġset":2144,"Ġbran":2145,"eng":2146,"Ġftin":2147,"Ġfellow":2148,"Ġmma":2149,"Ġwife":2150,"Ġtheat":2151,"Ġdate":2152,"Ġnt":2153,"Ġnom":2154,"Ġlie":2155,"Ġline":2156,"Ġlang":2157,"Ġisrael":2158,"earch":2159,"Ġalbert":2160,"ards":2161,"Ġround":2162,"Ġrose":2163,"ained":2164,"akist":2165,"Ġjoined":2166,"souri":2167,"achus":2168,"Ġcarl":2169,"ema":2170,"Ġ1931":2171,"Ġ1933":2172,"Ġpolish":2173,"urne":2174,"Ġworks":2175,"rica":2176,"Ġafrican":2177,"Ġitalian":2178,"anna":2179,"Ġcommit":2180,"ances":2181,"Ġmissouri":2182,"Ġkorean":2183,"ribu":2184,"Ġradio":2185,"Ġappointed":2186,"Ġconnec":2187,"Ã£o":2188,"ble":2189,"dy":2190,"during":2191,"other":2192,"ste":2193,"uz":2194,"inese":2195,"ona":2196,"Ġsom":2197,"tival":2198,"iss":2199,"ret":2200,"Ġdu":2201,"Ġnat":2202,"Ġtro":2203,"Ġjones":2204,"Ġlist":2205,"Ġarthur":2206,"Ġiss":2207,"play":2208,"Ġeth":2209,"Ġchinese":2210,"Ġvan":2211,"etts":2212,"lyn":2213,"Ġ1940":2214,"Ġ1948":2215,"Ġcarol":2216,"Ġ1935":2217,"Ġmany":2218,"member":2219,"Ġadam":2220,"sport":2221,"Ġcentre":2222,"velop":2223,"Ġstarted":2224,"Ġpopular":2225,"Ġmodel":2226,"Ġderby":2227,"Ġpreviously":2228,"Ġorganiz":2229,"Ġtimes":2230,"Ġconstituency":2231,"Ġfestival":2232,"Ġmassachus":2233,"Ġbranch":2234,"Ġmassachusetts":2235,"bal":2236,"gen":2237,"lam":2238,"mit":2239,"ola":2240,"war":2241,"Ġsys":2242,"Ġball":2243,"enant":2244,"Ġpet":2245,"Ġpakist":2246,"Ġfight":2247,"tel":2248,"Ġob":2249,"Ġdrum":2250,"Ġanth":2251,"Ġtv":2252,"Ġturn":2253,"Ġandrew":2254,"Ġgra":2255,"chester":2256,"Ġdevelop":2257,"Ġkh":2258,"Ġko":2259,"Ġkey":2260,"Ġray":2261,"Ġstr":2262,"Ġalong":2263,"Ġontar":2264,"utenant":2265,"owa":2266,"owell":2267,"Ġled":2268,"Ġteach":2269,"Ġ1953":2270,"Ġmex":2271,"Ġbob":2272,"ireland":2273,"Ġindust":2274,"Ġbron":2275,"bourne":2276,"Ġactive":2277,"Ġ1911":2278,"ences":2279,"Ġ250":2280,"Ġsmall":2281,"Ġresearch":2282,"Ġjean":2283,"Ġfreder":2284,"Ġqueen":2285,"Ġsilver":2286,"ential":2287,"Ġjimmy":2288,"handed":2289,"Ġrichard":2290,"keeper":2291,"Ġfollowing":2292,"Ġturk":2293,"Ġsyste":2294,"Ġontario":2295,"wa":2296,"ye":2297,"yo":2298,"Ġireland":2299,"Ġsav":2300,"Ġside":2301,"ties":2302,"Ġpast":2303,"Ġdid":2304,"lav":2305,"ros":2306,"une":2307,"unk":2308,"olis":2309,"Ġlor":2310,"Ġlight":2311,"Ġke":2312,"Ġrem":2313,"Ġarts":2314,"Ġchrist":2315,"iance":2316,"Ġvar":2317,"ets":2318,"Ġlee":2319,"osp":2320,"Ġmark":2321,"Ġ1937":2322,"Ġ1928":2323,"Ġphot":2324,"Ġprinc":2325,"Ġminor":2326,"Ġadmin":2327,"Ġcommun":2328,"Ġsteve":2329,"Ġelizabeth":2330,"Ġcenter":2331,"Ġheld":2332,"position":2333,"Ġkorea":2334,"Ġenter":2335,"Ġmelbourne":2336,"Ġchairman":2337,"Ġmiddle":2338,"Ġwestern":2339,"Ġdaughter":2340,"Ġabout":2341,"49":2342,"bats":2343,"ction":2344,"hu":2345,"way":2346,"Ã¤":2347,"Ġif":2348,"Ġbishop":2349,"aron":2350,"Ġche":2351,"Ġpres":2352,"Ġpress":2353,"Ġfame":2354,"Ġwil":2355,"ise":2356,"ison":2357,"Ġhit":2358,"Ġhav":2359,"chi":2360,"ura":2361,"Ġreal":2362,"tical":2363,"Ġrh":2364,"Ġriver":2365,"ador":2366,"Ġstan":2367,"act":2368,"Ġvi":2369,"Ġwhile":2370,"Ġ184":2371,"Ġfounder":2372,"Ġproject":2373,"Ġjoe":2374,"ended":2375,"tsburgh":2376,"ipl":2377,"Ġbox":2378,"Ġ50":2379,"Ġ1942":2380,"Ġ1949":2381,"less":2382,"Ġ1936":2383,"ffield":2384,"Ġparents":2385,"Ġ1923":2386,"Ġ1927":2387,"Ġbrad":2388,"ahl":2389,"Ġiowa":2390,"phy":2391,"Ġabd":2392,"Ġearned":2393,"Ġdisc":2394,"Ġthrows":2395,"Ġpitcher":2396,"Ġpittsburgh":2397,"Ġscotland":2398,"Ġalias":2399,"Ġgoalkeeper":2400,"Ġempire":2401,"Ġnovel":2402,"Ġprogram":2403,"ĠjosÃ©":2404,"worth":2405,"Ġeuropean":2406,"Ġtheatre":2407,"80":2408,"bar":2409,"col":2410,"don":2411,"den":2412,"day":2413,"fe":2414,"ios":2415,"ja":2416,"ml":2417,"ped":2418,"rd":2419,"ration":2420,"sa":2421,"Ġach":2422,"Ġsister":2423,"Ġsoci":2424,"Ġcorn":2425,"Ġcard":2426,"Ġpower":2427,"Ġfa":2428,"Ġfer":2429,"Ġfiction":2430,"temp":2431,"Ġox":2432,"Ġhold":2433,"Ġhung":2434,"Ġday":2435,"Ġdri":2436,"Ġty":2437,"Ġgir":2438,"ata":2439,"Ġdec":2440,"Ġram":2441,"Ġform":2442,"Ġecon":2443,"Ġseven":2444,"Ġroad":2445,"Ġpoints":2446,"lands":2447,"eller":2448,"Ġknight":2449,"Ġ1924":2450,"ized":2451,"Ġdebutdate":2452,"Ġexper":2453,"Ġafrica":2454,"bury":2455,"Ġfinalyear":2456,"Ġwilliams":2457,"Ġjeff":2458,"john":2459,"Ġquebec":2460,"Ġdaniel":2461,"Ġprime":2462,"Ġhonor":2463,"enzo":2464,"Ġvictoria":2465,"Ġscored":2466,"Ġphilipp":2467,"Ġtrans":2468,"Ġassistant":2469,"Ġkennedy":2470,"Ġadminist":2471,"17":2472,"cow":2473,"dr":2474,"kn":2475,"ny":2476,"pick":2477,"sen":2478,"ski":2479,"ured":2480,"era":2481,"inal":2482,"Ġsat":2483,"Ġcze":2484,"Ġmath":2485,"Ġwent":2486,"Ġwoul":2487,"Ġwinning":2488,"ission":2489,"Ġdi":2490,"Ġng":2491,"Ġtal":2492,"Ġgar":2493,"ily":2494,"ada":2495,"omp":2496,"Ġstre":2497,"Ġstage":2498,"Ġstock":2499,"Ġstati":2500,"Ġalleg":2501,"ider":2502,"Ġvol":2503,"Ġselec":2504,"Ġ33":2505,"esse":2506,"Ġ1969":2507,"Ġmoder":2508,"oph":2509,"Ġ1926":2510,"Ġsingh":2511,"Ġexp":2512,"Ġexecu":2513,"azi":2514,"Ġblue":2515,"Ġblues":2516,"bridge":2517,"Ġcroati":2518,"Ġmcg":2519,"Ġcompeti":2520,"Ġscottish":2521,"Ġpainting":2522,"Ġmartin":2523,"Ġstriker":2524,"Ġsuccessful":2525,"Ġmoscow":2526,"Ġnbsp":2527,"Ġchristian":2528,"Ġroberts":2529,"Ġbrooklyn":2530,"Ġlieutenant":2531,"Ġethn":2532,"Ġcarolina":2533,"Ġeconom":2534,"Ġwould":2535,"12":2536,"from":2537,"hing":2538,"ius":2539,"oun":2540,"vor":2541,"zen":2542,"Ã¢":2543,"Ġupdate":2544,"they":2545,"Ġsar":2546,"Ġsame":2547,"Ġcle":2548,"Ġpa":2549,"Ġperson":2550,"Ġfif":2551,"Ġwrit":2552,"Ġthey":2553,"Ġok":2554,"Ġhand":2555,"Ġhog":2556,"Ġnik":2557,"ross":2558,"Ġandr":2559,"ceed":2560,"Ġlive":2561,"bers":2562,"Ġdetro":2563,"Ġkr":2564,"Ġrest":2565,"star":2566,"Ġra":2567,"Ġraj":2568,"Ġvis":2569,"uman":2570,"Ġpost":2571,"Ġsport":2572,"Ġcolor":2573,"ired":2574,"ives":2575,"ivid":2576,"Ġmother":2577,"ople":2578,"Ġ1939":2579,"ogn":2580,"Ġpoland":2581,"ught":2582,"Ġschol":2583,"class":2584,"Ġcomple":2585,"Ġserving":2586,"Ġbrother":2587,"Ġsecret":2588,"Ġappearances":2589,"Ġdoub":2590,"Ġdoctor":2591,"Ġcontribu":2592,"ities":2593,"Ġmetal":2594,"Ġbooks":2595,"Ġinvol":2596,"Ġclay":2597,"Ġfrancisco":2598,"Ġgeorgia":2599,"Ġaffair":2600,"Ġsaint":2601,"Ġindependent":2602,"Ġspecial":2603,"Ġbulgar":2604,"Ġachie":2605,"Ġsociety":2606,"Ġczech":2607,"Ġdetroit":2608,"83":2609,"cu":2610,"cord":2611,"da":2612,"names":2613,"ple":2614,"present":2615,"win":2616,"wing":2617,"Äį":2618,"Ġsas":2619,"Ġsov":2620,"tig":2621,"time":2622,"Ġbi":2623,"Ġbig":2624,"Ġbank":2625,"arian":2626,"isa":2627,"amer":2628,"Ġjord":2629,"Ġgian":2630,"Ġgran":2631,"oln":2632,"illa":2633,"Ġdeg":2634,"igan":2635,"ticut":2636,"Ġfore":2637,"against":2638,"oma":2639,"Ġchap":2640,"iano":2641,"orney":2642,"Ġvel":2643,"Ġvik":2644,"umb":2645,"Ġrob":2646,"eyears":2647,"Ġsher":2648,"icketer":2649,"Ġserb":2650,"ucceed":2651,"Ġscreen":2652,"Ġtig":2653,"Ġfinish":2654,"Ġcompos":2655,"Ġjohnson":2656,"Ġsheffield":2657,"Ġ1894":2658,"Ġ1895":2659,"Ġacting":2660,"Ġrunning":2661,"Ġcricketer":2662,"Ġiran":2663,"Ġsour":2664,"incoln":2665,"Ġfinalteam":2666,"Ġstars":2667,"Ġiii":2668,"Ġattended":2669,"Ġleading":2670,"Ġfourth":2671,"Ã³n":2672,"Ġpatrick":2673,"Ġbowling":2674,"Ġdepart":2675,"ract":2676,"Ġmoved":2677,"Ġgriff":2678,"Ġconnecticut":2679,"members":2680,"Ġoxford":2681,"Ġstatis":2682,"Ġmodern":2683,"Ġupdated":2684,"Ġsoviet":2685,"cle":2686,"cus":2687,"ds":2688,"fied":2689,"mor":2690,"mad":2691,"pa":2692,"sr":2693,"ving":2694,"à¤":2695,"ery":2696,"Ġsold":2697,"org":2698,"Ġba":2699,"Ġcall":2700,"Ġcred":2701,"Ġthan":2702,"Ġpen":2703,"Ġhay":2704,"Ġhill":2705,"real":2706,"Ġinn":2707,"Ġoften":2708,"uss":2709,"Ġloss":2710,"Ġislam":2711,"Ġhealth":2712,"uston":2713,"iew":2714,"Ġlat":2715,"Ġspent":2716,"Ġmeck":2717,"ody":2718,"Ġprem":2719,"Ġgood":2720,"Ġrecogn":2721,"Ġ1930":2722,"Ġminnes":2723,"Ġaustria":2724,"Ġfrances":2725,"Ġawarded":2726,"Ġwarren":2727,"Ġguard":2728,"Ġbats":2729,"marie":2730,"Ġdefe":2731,"Ġ1908":2732,"Ġlawyer":2733,"Ġpeople":2734,"Ġhighest":2735,"Ġattorney":2736,"Ġrussia":2737,"Ġcycl":2738,"Ġbattles":2739,"Ġmagaz":2740,"Ġcolumbus":2741,"Ġdomin":2742,"Ġargent":2743,"Ġcatches":2744,"Ġreturned":2745,"Ġracing":2746,"Ġserviceyears":2747,"Ġcongress":2748,"Ġcommittee":2749,"Ġhaving":2750,"Ġaffairs":2751,"Ġminnesota":2752,"30":2753,"bc":2754,"fan":2755,"ient":2756,"ni":2757,"ost":2758,"sc":2759,"ually":2760,"Ãº":2761,"Ġbach":2762,"Ġcri":2763,"Ġthere":2764,"alo":2765,"alleg":2766,"Ġmun":2767,"Ġmik":2768,"Ġwis":2769,"Ġway":2770,"isted":2771,"Ġhamil":2772,"Ġnative":2773,"aska":2774,"amo":2775,"Ġgh":2776,"Ġgy":2777,"Ġgil":2778,"itch":2779,"Ġlin":2780,"igor":2781,"Ġku":2782,"Ġrand":2783,"Ġash":2784,"oto":2785,"Ġvas":2786,"arden":2787,"Ġplayers":2788,"shall":2789,"erset":2790,"ablish":2791,"Ġ45":2792,"Ġ1943":2793,"Ġ1934":2794,"Ġ1925":2795,"Ġ179":2796,"Ġservice":2797,"Ġzim":2798,"Ġadd":2799,"Ġadv":2800,"Ġcommission":2801,"Ġinclude":2802,"Ġdavis":2803,"Ġtrack":2804,"Ġdesc":2805,"Ġattack":2806,"tillo":2807,"Ġhouston":2808,"Ġolympic":2809,"Ġdeputy":2810,"Ġfounded":2811,"Ġtrial":2812,"school":2813,"Ġperforman":2814,"Ġliber":2815,"Ġatlanta":2816,"Ġliter":2817,"instrumentalist":2818,"Ġparticip":2819,"Ġjacob":2820,"html":2821,"Ġntupdate":2822,"Ġnomin":2823,"Ġorganization":2824,"Ġfrederick":2825,"known":2826,"Ġforeign":2827,"Ġcomposer":2828,"allegiance":2829,"Ġhamilton":2830,"10":2831,"aff":2832,"cas":2833,"debut":2834,"iod":2835,"ji":2836,"james":2837,"ox":2838,"person":2839,"uf":2840,"uer":2841,"vin":2842,"yan":2843,"Äĥ":2844,"Ġast":2845,"erv":2846,"thod":2847,"Ġsi":2848,"Ġsid":2849,"Ġ100":2850,"Ġbin":2851,"Ġbang":2852,"aria":2853,"Ġcir":2854,"Ġciti":2855,"Ġmach":2856,"Ġthem":2857,"Ġhow":2858,"Ġhugh":2859,"rey":2860,"Ġdor":2861,"Ġdown":2862,"Ġdog":2863,"Ġdanc":2864,"ament":2865,"Ġanother":2866,"iting":2867,"chen":2868,"ili":2869,"Ġlincoln":2870,"Ġreach":2871,"Ġeast":2872,"Ġalger":2873,"Ġvon":2874,"uba":2875,"Ġwhit":2876,"Ġfox":2877,"Ġ36":2878,"Ġnever":2879,"Ġnebr":2880,"Ġmaria":2881,"Ġconv":2882,"Ġconfer":2883,"ions":2884,"Ġcaptain":2885,"avy":2886,"Ġ49":2887,"iving":2888,"Ġinduc":2889,"Ġindivid":2890,"Ġbrian":2891,"Ġteams":2892,"Ġagain":2893,"Ġsingles":2894,"Ġprac":2895,"Ġworking":2896,"Ġperiod":2897,"Ġbased":2898,"Ġ1890":2899,"Ġ1917":2900,"Ġcharac":2901,"Ġcrim":2902,"Ġearl":2903,"Ġcentury":2904,"Ġcontin":2905,"Ġregular":2906,"Ġswed":2907,"Ġpublished":2908,"Ġfeat":2909,"Ġalbums":2910,"Ġshoots":2911,"Ġsilva":2912,"Ġbrazilian":2913,"ographer":2914,"Ġestablish":2915,"Ġlittle":2916,"Ġroyal":2917,"Ġnickname":2918,"Ġathletic":2919,"archive":2920,"Ġlegislative":2921,"Ġsomerset":2922,"Ġderbyshire":2923,"Ġsask":2924,"american":2925,"Ġdepartment":2926,"Ġpremier":2927,"Ġcitizen":2928,"Ġnebraska":2929,"13":2930,"bs":2931,"kins":2932,"lor":2933,"tr":2934,"uce":2935,"ures":2936,"wh":2937,"with":2938,"wood":2939,"xt":2940,"yce":2941,"Ã§":2942,"Ġur":2943,"Ġalab":2944,"are":2945,"Ġcem":2946,"Ġpot":2947,"Ġfr":2948,"Ġfred":2949,"Ġmu":2950,"Ġwing":2951,"Ġhu":2952,"Ġhear":2953,"Ġhod":2954,"Ġhits":2955,"rest":2956,"Ġnig":2957,"Ġtack":2958,"Ġjust":2959,"Ġjak":2960,"cel":2961,"elin":2962,"chan":2963,"Ġlim":2964,"Ġkelly":2965,"Ġran":2966,"Ġren":2967,"Ġforce":2968,"agu":2969,"Ġtourn":2970,"sider":2971,"anding":2972,"Ġever":2973,"Ġcher":2974,"acy":2975,"Ġundra":2976,"Ġpros":2977,"ordon":2978,"Ġserge":2979,"Ġmovement":2980,"Ġjunior":2981,"Ġmanage":2982,"teams":2983,"Ġfinland":2984,"Ġfinished":2985,"Ġ150":2986,"Ġmembers":2987,"ricin":2988,"Ġbarry":2989,"Ġmedical":2990,"Ġgreg":2991,"Ġfinaldate":2992,"Ġsimp":2993,"Ġdeliver":2994,"Ġutc":2995,"Ġelect":2996,"Ġprovid":2997,"Ġdefense":2998,"Ġjuan":2999,"Ġalfred":3000,"bourg":3001,"Ġissue":3002,"Ġpakistan":3003,"Ġexecutive":3004,"Ġethnic":3005,"Ġscholar":3006,"Ġsource":3007,"Ġmagazine":3008,"Ġalabama":3009,"Ġundrafted":3010,"25":3011,"67":3012,"``":3013,"can":3014,"do":3015,"dav":3016,"dney":3017,"idate":3018,"kov":3019,"ness":3020,"png":3021,"right":3022,"song":3023,"tan":3024,"vocal":3025,"well":3026,"zer":3027,"Ä±":3028,"Åį":3029,"Ġic":3030,"Ġaut":3031,"ini":3032,"Ġsaw":3033,"Ġbil":3034,"Ġbud":3035,"Ġcame":3036,"Ġcra":3037,"Ġpir":3038,"Ġmot":3039,"teen":3040,"Ġhop":3041,"Ġdif":3042,"Ġdram":3043,"Ġnu":3044,"ĠnÃ©":3045,"amous":3046,"Ġjon":3047,"Ġjus":3048,"Ġglo":3049,"elle":3050,"ito":3051,"ato":3052,"ators":3053,"Ġkir":3054,"Ġron":3055,"imi":3056,"anda":3057,"Ġaltern":3058,"oting":3059,"iah":3060,"utch":3061,"Ġsee":3062,"istol":3063,"oslav":3064,"ression":3065,"Ġmarshall":3066,"udw":3067,"ovak":3068,"ffalo":3069,"Ġparis":3070,"Ġ1920":3071,"Ġ1916":3072,"Ġbaron":3073,"Ġbatted":3074,"Ġhaw":3075,"Ġcentral":3076,"ologist":3077,"Ġmichigan":3078,"vely":3079,"ansas":3080,"Ġannual":3081,"Ġbuffalo":3082,"Ġstudies":3083,"Ġevents":3084,"Ġconserv":3085,"Ġofficial":3086,"Ġvalley":3087,"Ġdesigner":3088,"etery":3089,"Ġeston":3090,"Ġcolumbia":3091,"Ġcolumns":3092,"Ġceo":3093,"Ġtechnology":3094,"works":3095,"Ġhalf":3096,"Ġcarlos":3097,"Ġdrums":3098,"Ġbronze":3099,"Ġsystem":3100,"Ġvarious":3101,"Ġprincess":3102,"Ġphilippines":3103,"Ġmathema":3104,"Ġsecretary":3105,"Ġinvolved":3106,"Ġdancer":3107,"Ġcemetery":3108,"Ġtournament":3109,"ricinfo":3110,"Ġalternative":3111,"35":3112,"45":3113,"76":3114,"bl":3115,"bil":3116,"eum":3117,"lit":3118,"mich":3119,"nik":3120,"oth":3121,"over":3122,"rated":3123,"Âł":3124,"Ġ$":3125,"inz":3126,"Ġbol":3127,"aro":3128,"arter":3129,"Ġcm":3130,"Ġcab":3131,"Ġpers":3132,"Ġpion":3133,"Ġpass":3134,"Ġfem":3135,"Ġfern":3136,"Ġfolk":3137,"Ġmain":3138,"Ġwel":3139,"Ġwat":3140,"tein":3141,"Ġdick":3142,"amon":3143,"Ġanne":3144,"row":3145,"Ġjump":3146,"Ġgall":3147,"Ġgib":3148,"Ġgordon":3149,"che":3150,"enty":3151,"Ġluc":3152,"head":3153,"Ġkim":3154,"stump":3155,"agi":3156,"sia":3157,"omb":3158,"Ġyards":3159,"vet":3160,"apolis":3161,"Ġvice":3162,"ett":3163,"Ġseoul":3164,"mero":3165,"ugu":3166,"ugoslav":3167,"Ġ32":3168,"Ġcoast":3169,"Ġ09":3170,"result":3171,"Ġimp":3172,"Ġimport":3173,"Ġpoker":3174,"Ġlady":3175,"Ġspan":3176,"Ġconsider":3177,"Ġnews":3178,"Ġ55":3179,"oka":3180,"Ġengine":3181,"Ġ1922":3182,"Ġmuseum":3183,"Ġrecording":3184,"Ġweek":3185,"Ġ1896":3186,"Ġ1913":3187,"Ġstatus":3188,"Ġallen":3189,"Ġharv":3190,"Ġ1909":3191,"Ġproduction":3192,"Ġcontro":3193,"Ġlasttest":3194,"Ġregiment":3195,"Ġprize":3196,"Ġsax":3197,"Ġpaulo":3198,"Ġbusinessman":3199,"Ġtestdebut":3200,"Ġbreak":3201,"Ġstrike":3202,"Ġatlan":3203,"ograph":3204,"Ġdonald":3205,"Ġepis":3206,"Ġspeaker":3207,"Ġmontreal":3208,"consin":3209,"lahoma":3210,"Ġdevelopment":3211,"Ġindustry":3212,"Ġholds":3213,"Ġgirls":3214,"Ġstreet":3215,"Ġoklahoma":3216,"Ġclayton":3217,"Ġbulgaria":3218,"Ġchapman":3219,"ucceeded":3220,"Ġdefeated":3221,"Ġwisconsin":3222,"Ġmanagement":3223,"Ġdeliveries":3224,"songwriter":3225,"stumpings":3226,"04":3227,"16":3228,"ae":3229,"ban":3230,"bab":3231,"bane":3232,"fr":3233,"kh":3234,"king":3235,"lim":3236,"mal":3237,"ps":3238,"pos":3239,"sel":3240,"tory":3241,"ute":3242,"will":3243,"ÅĤ":3244,"à¸":3245,"ĠÅ":3246,"ĠÐ":3247,"this":3248,"Ġsug":3249,"ories":3250,"till":3251,"tives":3252,"tiÄĩ":3253,"Ġbon":3254,"Ġbad":3255,"ark":3256,"Ġps":3257,"Ġpad":3258,"Ġfal":3259,"Ġful":3260,"Ġfamous":3261,"alif":3262,"lean":3263,"Ġmi":3264,"Ġmul":3265,"Ġwolf":3266,"issi":3267,"Ġoak":3268,"rep":3269,"record":3270,"Ġdie":3271,"Ġnel":3272,"Ġnine":3273,"asa":3274,"laus":3275,"ateur":3276,"Ġlig":3277,"Ġludw":3278,"Ġkw":3279,"Ġformed":3280,"Ġbirthname":3281,"ima":3282,"ulture":3283,"Ġyugoslav":3284,"Ġeag":3285,"Ġeight":3286,"ians":3287,"otti":3288,"Ġsele":3289,"Ġseat":3290,"Ġlew":3291,"Ġlevel":3292,"Ġwhite":3293,"ists":3294,"rie":3295,"Ġ35":3296,"Ġ38":3297,"Ġcoul":3298,"Ġ03":3299,"Ġ08":3300,"Ġspart":3301,"ude":3302,"Ġshane":3303,"endor":3304,"ode":3305,"Ġ60":3306,"Ġcarr":3307,"oke":3308,"Ġmanchester":3309,"Ġaging":3310,"Ġagric":3311,"ahls":3312,"Ġactiv":3313,"Ġsouthern":3314,"insti":3315,"Ġmedia":3316,"Ġcommand":3317,"afat":3318,"Ġharrison":3319,"Ġsoul":3320,"Ġmonth":3321,"Ġquarter":3322,"ronic":3323,"Ġsenate":3324,"Ġhost":3325,"Ġsydney":3326,"Ġcastillo":3327,"Ġfivefor":3328,"Ġwinter":3329,"Ġmax":3330,"Ġberlin":3331,"Ġmillion":3332,"times":3333,"Ġsometimes":3334,"Ġmississi":3335,"ppi":3336,"Ġmiddles":3337,"Ġvery":3338,"Ġtenfor":3339,"Ġopera":3340,"Ġangel":3341,"Ġasia":3342,"Ġfederal":3343,"Ġphysic":3344,"Ġkeybo":3345,"Ġturkey":3346,"Ġentertain":3347,"Ġboxer":3348,"Ġcompetition":3349,"Ġpersonal":3350,"Ġjordan":3351,"Ġgrant":3352,"Ġdegree":3353,"Ġgriffin":3354,"Ġcircu":3355,"Ġconference":3356,"Ġindividual":3357,"Ġethnicity":3358,"Ġjustice":3359,"Ġengineer":3360,"Ġharvard":3361,"Ġmississippi":3362,"24":3363,"26":3364,"87":3365,"89":3366,"aud":3367,"die":3368,"dale":3369,"fc":3370,"fran":3371,"gr":3372,"ged":3373,"gation":3374,"hol":3375,"ii":3376,"ien":3377,"kin":3378,"low":3379,"our":3380,"rid":3381,"town":3382,"wick":3383,"Ã´":3384,"Ġ%":3385,"Ġern":3386,"inton":3387,"onst":3388,"Ġsri":3389,"Ġsqu":3390,"Ġsamp":3391,"Ġbull":3392,"Ġbudd":3393,"Ġcat":3394,"Ġcand":3395,"Ġfk":3396,"Ġfund":3397,"Ġflo":3398,"Ġfair":3399,"let":3400,"Ġmess":3401,"Ġwid":3402,"Ġtheory":3403,"Ġothers":3404,"Ġhy":3405,"Ġhip":3406,"Ġhans":3407,"Ġhesse":3408,"Ġhuman":3409,"Ġ1919":3410,"Ġdol":3411,"Ġdere":3412,"Ġdance":3413,"Ġnar":3414,"Ġinte":3415,"Ġanal":3416,"rop":3417,"Ġjay":3418,"Ġgal":3419,"elor":3420,"Ġker":3421,"Ġkill":3422,"Ġkansas":3423,"tico":3424,"Ġrace":3425,"Ġforces":3426,"agh":3427,"aged":3428,"Ġchart":3429,"ott":3430,"Ġvac":3431,"Ġleban":3432,"ries":3433,"Ġroles":3434,"Ġpromo":3435,"Ġpromin":3436,"Ġ06":3437,"Ġ07":3438,"Ġpod":3439,"iem":3440,"Ġlake":3441,"ains":3442,"Ġconst":3443,"aki":3444,"Ġ40":3445,"Ġ46":3446,"Ġ54":3447,"Ġindones":3448,"Ġcounsel":3449,"thern":3450,"Ġbrun":3451,"Ġaged":3452,"Ġcollection":3453,"form":3454,"ignon":3455,"igned":3456,"Ġadvis":3457,"Ġmusical":3458,"Ġext":3459,"Ġbroad":3460,"Ġ1893":3461,"Ġ1899":3462,"ierre":3463,"Ġ1910":3464,"Ġ1915":3465,"Ġnorthern":3466,"Ġguy":3467,"Ġcommon":3468,"Ġsteven":3469,"ailed":3470,"enced":3471,"Ġeva":3472,"Ġ225":3473,"atives":3474,"Ġsof":3475,"dez":3476,"Ġstudied":3477,"Ġ1886":3478,"Ġhelped":3479,"Ġbowl":3480,"lbs":3481,"Ġsoccer":3482,"Ġmanageryears":3483,"Ġmanagerclubs":3484,"Ġpainter":3485,"Ġcreated":3486,"Ġrepresentatives":3487,"outs":3488,"prof":3489,"Ġtraining":3490,"Ġrelations":3491,"Ġmurder":3492,"Ġmaking":3493,"Ġtrevor":3494,"Ġprovince":3495,"Ġinfluences":3496,"Ġryan":3497,"Ġvoice":3498,"Ã¡ndez":3499,"Ġmalay":3500,"Ġfighting":3501,"Ġmexican":3502,"color":3503,"Ġadministration":3504,"Ġselected":3505,"Ġserbian":3506,"Ġsoldier":3507,"Ġbatsman":3508,"Ġaddition":3509,"Ġsidney":3510,"Ġinducted":3511,"Ġcharacter":3512,"Ġpioneer":3513,"Ġfemale":3514,"Ġspanish":3515,"Ġconsidered":3516,"institu":3517,"Ġcircuit":3518,"01":3519,"11":3520,"23":3521,"29":3522,"33":3523,"55":3524,"ao":3525,"bishop":3526,"ex":3527,"gre":3528,"gers":3529,"garden":3530,"hr":3531,"hag":3532,"jan":3533,"jos":3534,"jÃ©":3535,"mas":3536,"mel":3537,"more":3538,"nut":3539,"pt":3540,"tz":3541,"vador":3542,"west":3543,"wins":3544,"zi":3545,"Å¡":3546,"Ð¸":3547,"à´":3548,"Ġ!":3549,"Ġ*":3550,"Ġil":3551,"eration":3552,"inet":3553,"Ġsv":3554,"Ġsus":3555,"Ġsou":3556,"ĠsÃ£o":3557,"tier":3558,"Ġbern":3559,"Ġbaker":3560,"Ġcf":3561,"Ġthor":3562,"Ġpur":3563,"Ġporn":3564,"Ġfut":3565,"Ġfade":3566,"Ġfron":3567,"ala":3568,"leton":3569,"Ġmend":3570,"Ġmold":3571,"Ġwins":3572,"Ġomar":3573,"Ġhc":3574,"Ġhor":3575,"Ġhur":3576,"Ġhosp":3577,"Ġdyn":3578,"Ġdipl":3579,"Ġnear":3580,"Ġnet":3581,"Ġnazi":3582,"asper":3583,"eld":3584,"cht":3585,"Ġlas":3586,"Ġland":3587,"Ġlanc":3588,"Ġlocal":3589,"Ġresp":3590,"ader":3591,"eargarden":3592,"andro":3593,"Ġyale":3594,"Ġcham":3595,"Ġchad":3596,"Ġunit":3597,"ids":3598,"idebut":3599,"Ġheavy":3600,"app":3601,"Ġven":3602,"aya":3603,"aye":3604,"owski":3605,"Ġplaced":3606,"Ġlet":3607,"umon":3608,"Ġromero":3609,"Ġbeau":3610,"Ġmarc":3611,"Ġconc":3612,"Ġconcer":3613,"Ġcommer":3614,"Ġjoh":3615,"acker":3616,"Ġcolon":3617,"abl":3618,"Ġpolice":3619,"Ġjung":3620,"rence":3621,"Ġ74":3622,"Ġpark":3623,"ments":3624,"Ġbrent":3625,"Ġsinging":3626,"quently":3627,"Ġzag":3628,"196":3629,"ampa":3630,"Ġheightin":3631,"Ġheightft":3632,"Ġtwenty":3633,"insk":3634,"encar":3635,"Ġdraftyear":3636,"Ġdraftpick":3637,"Ġharry":3638,"Ġharper":3639,"Ġrushing":3640,"ensen":3641,"Ġhighschool":3642,"2008":3643,"Ġproduced":3644,"veland":3645,"Ġamateur":3646,"Ġcontract":3647,"Ġrelease":3648,"mother":3649,"Ġsenator":3650,"Ġartists":3651,"Ġoriginal":3652,"Ġmclean":3653,"Ã¼r":3654,"Ġcase":3655,"Ġcorpor":3656,"Ġsupport":3657,"Ġwinner":3658,"Ġbetter":3659,"Ġcamm":3660,"Ã¶n":3661,"Ġended":3662,"Ġfranklin":3663,"Ġhenri":3664,"Ġfreeman":3665,"Ġemplo":3666,"mont":3667,"Ġowner":3668,"Ġodidebut":3669,"Ġcatcher":3670,"Ġmaster":3671,"Ġmohamed":3672,"Ġmohammad":3673,"Ġivan":3674,"Ġdefensive":3675,"Ġfigure":3676,"ussein":3677,"Ġlangu":3678,"Ġanthony":3679,"Ġturned":3680,"Ġteacher":3681,"Ġlorenzo":3682,"Ġcleveland":3683,"Ġresting":3684,"Ġcolorado":3685,"Ġviktor":3686,"Ġmeckiff":3687,"Ġbachelor":3688,"Ġcritic":3689,"david":3690,"Ġdrama":3691,"Ġglobal":3692,"Ġconservative":3693,"michael":3694,"william":3695,"Ġpsy":3696,"Ġdiego":3697,"Ġyugoslavia":3698,"Ġspartak":3699,"Ġsquad":3700,"Ġderek":3701,"Ġsofia":3702,"hagen":3703,"22":3704,"40":3705,"75":3706,"77":3707,"86":3708,"88":3709,"bin":3710,"based":3711,"dowell":3712,"ef":3713,"ever":3714,"elec":3715,"ewan":3716,"gest":3717,"house":3718,"lan":3719,"lle":3720,"lio":3721,"mn":3722,"pool":3723,"rat":3724,"since":3725,"sburg":3726,"tent":3727,"uct":3728,"van":3729,"wart":3730,"wide":3731,"wyn":3732,"Ġuc":3733,"Ġell":3734,"Ġai":3735,"Ġaik":3736,"Ġaaron":3737,"though":3738,"inals":3739,"anie":3740,"Ġsor":3741,"Ġsent":3742,"Ġsult":3743,"orary":3744,"tial":3745,"Ġban":3746,"Ġbav":3747,"Ġbbc":3748,"Ġcin":3749,"ente":3750,"enburg":3751,"Ġthose":3752,"Ġpac":3753,"Ġfel":3754,"Ġfac":3755,"Ġfall":3756,"Ġfly":3757,"Ġfant":3758,"Ġfaul":3759,"Ġmr":3760,"Ġmut":3761,"Ġmuch":3762,"Ġwhe":3763,"Ġward":3764,"Ġwild":3765,"Ġthese":3766,"Ġold":3767,"Ġhard":3768,"Ġhind":3769,"asy":3770,"Ġinf":3771,"amal":3772,"esa":3773,"icy":3774,"Ġtar":3775,"Ġjensen":3776,"Ġgary":3777,"eli":3778,"itney":3779,"char":3780,"Ġlane":3781,"Ġlands":3782,"Ġlives":3783,"Ġdeal":3784,"Ġkang":3785,"Ġrefer":3786,"Ġrang":3787,"oming":3788,"ulp":3789,"Ġemer":3790,"Ġeach":3791,"Ġeff":3792,"Ġchan":3793,"Ġchann":3794,"iana":3795,"Ġunknown":3796,"apore":3797,"Ġvide":3798,"ette":3799,"Ġsem":3800,"Ġles":3801,"athan":3802,"istry":3803,"raine":3804,"umann":3805,"Ġbeh":3806,"shi":3807,"Ġspring":3808,"Ġsplit":3809,"Ġcond":3810,"Ġconf":3811,"Ġcontemp":3812,"Ġcomedy":3813,"eyer":3814,"estyle":3815,"estnut":3816,"ovo":3817,"avor":3818,"Ġfootsc":3819,"Ġmemor":3820,"Ġorthod":3821,"ika":3822,"Ġsculp":3823,"Ġpreced":3824,"Ġnoted":3825,"Ġcurrentteam":3826,"Ġedmon":3827,"Ġ80":3828,"Ġphill":3829,"Ġsingapore":3830,"Ġ90":3831,"ashire":3832,"thew":3833,"enna":3834,"Ġtwice":3835,"Ġ1918":3836,"atchewan":3837,"Ġmedium":3838,"Ġstefan":3839,"cover":3840,"Ġdraftround":3841,"Ġcharlie":3842,"Ġlost":3843,"Ġrights":3844,"Ġira":3845,"Ġiron":3846,"Ġirene":3847,"Ġ1901":3848,"Ġ1904":3849,"ological":3850,"2005":3851,"2009":3852,"Ġelections":3853,"Ġbush":3854,"Ġpublish":3855,"Ġvictory":3856,"Ġ1867":3857,"Ġ1869":3858,"Ġlegal":3859,"Ġpitch":3860,"Ġconsort":3861,"Ġvaler":3862,"Ġsignature":3863,"Ġfounding":3864,"itzer":3865,"Ġdanish":3866,"Ġcamer":3867,"Ġcambridge":3868,"Ġguitarist":3869,"timore":3870,"Ġgoalt":3871,"Ġshows":3872,"Ġutah":3873,"Ġinfluential":3874,"Ġbaltimore":3875,"Ġtechnical":3876,"Ġparticular":3877,"Ġgave":3878,"ucky":3879,"Ġtradition":3880,"brough":3881,"Ġphysics":3882,"Ġgraduated":3883,"Ġhungarian":3884,"Ġfifth":3885,"Ġcontributions":3886,"Ġachievement":3887,"Ġscreenwriter":3888,"Ġcredited":3889,"Ġperformance":3890,"Ġpractice":3891,"Ġsweden":3892,"Ġsaskatchewan":3893,"Ġsergei":3894,"Ġmotor":3895,"Ġestonian":3896,"Ġcabinet":3897,"Ġgibson":3898,"Ġsaxoph":3899,"Ġmulti":3900,"Ġnelson":3901,"Ġlewis":3902,"Ġactivist":3903,"Ġmiddlesbrough":3904,"Ġlancashire":3905,"Ġfootscray":3906,"Ġorthodox":3907,"Ġedmonton":3908,"70":3909,"85":3910,"bat":3911,"cen":3912,"cop":3913,"folk":3914,"gi":3915,"gas":3916,"gro":3917,"gian":3918,"hel":3919,"hood":3920,"jian":3921,"las":3922,"line":3923,"mb":3924,"rad":3925,"sv":3926,"san":3927,"self":3928,"uart":3929,"vich":3930,"wau":3931,"xel":3932,"yi":3933,"zo":3934,"ziz":3935,"Ã«":3936,"à®":3937,"ĠØ":3938,"Ġid":3939,"Ġah":3940,"Ġahl":3941,"ink":3942,"iner":3943,"onist":3944,"Ġsin":3945,"Ġself":3946,"orter":3947,"orge":3948,"tively":3949,"Ġblo":3950,"Ġbakh":3951,"Ġci":3952,"ense":3953,"ensive":3954,"Ġthough":3955,"Ġpil":3956,"Ġpra":3957,"Ġpos":3958,"Ġpick":3959,"Ġpistol":3960,"Ġpierre":3961,"Ġfus":3962,"Ġfish":3963,"Ġface":3964,"Ġmick":3965,"Ġmah":3966,"Ġmlad":3967,"Ġwahls":3968,"Ġos":3969,"Ġhom":3970,"Ġhart":3971,"Ġhong":3972,"Ġhang":3973,"Ġ1900":3974,"Ġdam":3975,"Ġdann":3976,"Ġnation":3977,"Ġniz":3978,"astern":3979,"icine":3980,"edic":3981,"Ġtu":3982,"Ġton":3983,"Ġtas":3984,"Ġtam":3985,"Ġtay":3986,"tional":3987,"unsch":3988,"Ġgren":3989,"els":3990,"ush":3991,"itus":3992,"olin":3993,"ility":3994,"ental":3995,"Ġlam":3996,"Ġlut":3997,"Ġliver":3998,"Ġlike":3999,"heim":4000,"berto":4001,"Ġkess":4002,"Ġkev":4003,"Ġref":4004,"imoto":4005,"andr":4006,"tley":4007,"Ġstory":4008,"Ġstaff":4009,"Ġalencar":4010,"Ġalthough":4011,"idel":4012,"Ġheath":4013,"Ġonce":4014,"Ġva":4015,"Ġvanc":4016,"Ġvinc":4017,"Ġattemp":4018,"cture":4019,"Ġleko":4020,"merous":4021,"upper":4022,"rait":4023,"ument":4024,"osop":4025,"Ġ39":4026,"Ġ05":4027,"george":4028,"Ġnev":4029,"Ġnext":4030,"mann":4031,"Ġlabor":4032,"oud":4033,"Ġspr":4034,"ovich":4035,"ending":4036,"avier":4037,"Ġmee":4038,"odi":4039,"odes":4040,"ipient":4041,"Ġjane":4042,"Ġ41":4043,"Ġ48":4044,"Ġboys":4045,"uction":4046,"ikha":4047,"Ġ1941":4048,"opp":4049,"Ġrecently":4050,"Ġrecipient":4051,"antz":4052,"Ġhero":4053,"rene":4054,"Ġ70":4055,"Ġ76":4056,"ondo":4057,"Ġbrit":4058,"ldra":4059,"Ġcompu":4060,"Ġcompan":4061,"Ġaustrian":4062,"Ġformerly":4063,"Ġbrothers":4064,"anne":4065,"Ġ1897":4066,"Ġ1912":4067,"Ġmedicine":4068,"Ġcommander":4069,"Ġcommands":4070,"Ġgerald":4071,"Ã¡k":4072,"burial":4073,"weig":4074,"Ġallow":4075,"Ġrunner":4076,"Ġdefence":4077,"new":4078,"Ġtrue":4079,"Ġsanford":4080,"Ġbecome":4081,"Ġbraunsch":4082,"Ġswitzer":4083,"Ġdiscover":4084,"Ġmilwau":4085,"Ġmanaged":4086,"Ġprior":4087,"Ġ1873":4088,"Ġbuild":4089,"Ġfreestyle":4090,"Ġsalvador":4091,"Ġphilosop":4092,"Ġmorris":4093,"Ġshooting":4094,"content":4095,"Ġlux":4096,"Ġluis":4097,"Ġredsk":4098,"Ġindiana":4099,"Ġrepresenting":4100,"Ġarchite":4101,"Ġarchbishop":4102,"Ġentrep":4103,"ography":4104,"Ġsharon":4105,"Ġangell":4106,"Ġjerry":4107,"Ġjapanese":4108,"Ġryu":4109,"heny":4110,"Ġkenya":4111,"Ġkentucky":4112,"Ġdark":4113,"Ġstarting":4114,"Ġstephen":4115,"Ġgraduate":4116,"Ġtrophy":4117,"warz":4118,"Ġsavoy":4119,"Ġremained":4120,"Ġcommunity":4121,"ipline":4122,"Ġdiscipline":4123,"Ġhungary":4124,"Ġexperiment":4125,"Ġallegheny":4126,"Ġcroatia":4127,"Ġcroatian":4128,"Ġnikola":4129,"Ġgiants":4130,"Ġfinishing":4131,"Ġnominated":4132,"Ġestablished":4133,"Ġcitizenship":4134,"Ġheart":4135,"Ġelectronic":4136,"Ġnumerous":4137,"Ġstrikeouts":4138,"posito":4139,"Ġeagles":4140,"Ġcould":4141,"Ġentertainment":4142,"Ġcandidate":4143,"Ġwidely":4144,"Ġindonesia":4145,"Ġdiplom":4146,"Ġsultan":4147,"Ġbavaria":4148,"Ġcontemporary":4149,"Ġkevin":4150,"Ġbraunschweig":4151,"Ġswitzerland":4152,"Ġmilwaukee":4153,"Ġredskins":4154,"Ġentreprene":4155,"59":4156,"74":4157,"78":4158,"aug":4159,"bon":4160,"bass":4161,"bara":4162,"cr":4163,"cor":4164,"dar":4165,"eo":4166,"ean":4167,"gc":4168,"ges":4169,"gary":4170,"gang":4171,"hab":4172,"iot":4173,"iens":4174,"jp":4175,"ken":4176,"lu":4177,"lar":4178,"lia":4179,"los":4180,"lington":4181,"nat":4182,"nick":4183,"nell":4184,"oo":4185,"pre":4186,"pec":4187,"ridge":4188,"tra":4189,"yu":4190,"yers":4191,"Ã¯":4192,"ÅĦ":4193,"Ġé":4194,"Ġul":4195,"Ġess":4196,"than":4197,"onso":4198,"Ġsad":4199,"Ġsul":4200,"Ġsang":4201,"Ġsinc":4202,"Ġstill":4203,"origin":4204,"Ġbir":4205,"Ġcs":4206,"Ġcer":4207,"Ġcass":4208,"eni":4209,"enko":4210,"Ġpate":4211,"Ġpian":4212,"Ġpap":4213,"Ġpay":4214,"Ġpav":4215,"Ġpuer":4216,"Ġfile":4217,"ali":4218,"Ġmir":4219,"Ġmix":4220,"Ġmeyer":4221,"Ġhamp":4222,"Ġhaj":4223,"Ġhank":4224,"Ġhuss":4225,"rez":4226,"Ġdj":4227,"Ġdro":4228,"Ġdat":4229,"Ġdays":4230,"Ġnag":4231,"Ġnord":4232,"Ġinst":4233,"Ġanc":4234,"lair":4235,"laim":4236,"Ġtan":4237,"Ġtat":4238,"Ġtamil":4239,"Ġanderson":4240,"Ġjes":4241,"una":4242,"cep":4243,"used":4244,"illed":4245,"urity":4246,"atar":4247,"Ġlord":4248,"Ġlip":4249,"Ġlok":4250,"Ġliti":4251,"Ġlions":4252,"Ġdeb":4253,"Ġdead":4254,"Ġklaus":4255,"Ġrepla":4256,"Ġariz":4257,"Ġarmen":4258,"Ġrick":4259,"Ġfort":4260,"omo":4261,"ande":4262,"Ġstyle":4263,"Ġyan":4264,"Ġeis":4265,"Ġeug":4266,"Ġalt":4267,"Ġalder":4268,"Ġchess":4269,"Ġchestnut":4270,"versi":4271,"iane":4272,"otto":4273,"ido":4274,"igham":4275,"Ġvie":4276,"eta":4277,"etown":4278,"ardo":4279,"uglas":4280,"Ġros":4281,"Ġfoo":4282,"Ġfoster":4283,"Ġfocus":4284,"Ġ01":4285,"Ġ04":4286,"Ġneigh":4287,"Ġwithout":4288,"ouver":4289,"ainer":4290,"ional":4291,"Ġjoyce":4292,"Ġshir":4293,"endall":4294,"endra":4295,"ranco":4296,"ebacker":4297,"Ġ42":4298,"iven":4299,"ival":4300,"Ġ51":4301,"open":4302,"emin":4303,"embourg":4304,"antry":4305,"Ġmanuel":4306,"ctoral":4307,"Ã©tico":4308,"Ġpartner":4309,"assa":4310,"Ġparker":4311,"Ġparaly":4312,"Ġtied":4313,"iza":4314,"Ġbruce":4315,"Ġbrigham":4316,"Ġpho":4317,"Ġfinanc":4318,"ques":4319,"Ġrecordings":4320,"Ġappe":4321,"Ġoffensive":4322,"enny":4323,"Ġ1898":4324,"Ġ1914":4325,"Ġnorway":4326,"Ġwars":4327,"count":4328,"Ġstats":4329,"ysis":4330,"Ġsecurity":4331,"Ġabb":4332,"tingham":4333,"Ġclinton":4334,"Ġnottingham":4335,"onski":4336,"Ġappearance":4337,"Ġamong":4338,"Ġstarred":4339,"Ġhimself":4340,"Ġrules":4341,"Ġanna":4342,"evich":4343,"Ġsyrac":4344,"Ġ1870":4345,"Ġhistor":4346,"Ġupon":4347,"Ġtitles":4348,"Ġshoo":4349,"Ġperforming":4350,"background":4351,"Ġarea":4352,"Ġclaim":4353,"ĠÃĸ":4354,"Ġmiller":4355,"ĠatlÃ©tico":4356,"Ġmatthew":4357,"ribed":4358,"Ġplaceof":4359,"Ġaccomp":4360,"Ġmake":4361,"uddin":4362,"Ġscoring":4363,"Ġathletics":4364,"Ġsaints":4365,"Ġpoetry":4366,"Ġspeed":4367,"Ġduncan":4368,"Ġreview":4369,"Ġnotableworks":4370,"Ġnatural":4371,"Ġpetro":4372,"Ġphotographer":4373,"Ġvienna":4374,"Ġprojects":4375,"ompson":4376,"Ġdoubles":4377,"Ġdoctoral":4378,"Ġstatistics":4379,"Ġcyclist":4380,"Ġlinebacker":4381,"Ġattacking":4382,"Ġliberal":4383,"Ġliterary":4384,"Ġparticipated":4385,"Ġbanglad":4386,"Ġreached":4387,"ovakia":4388,"Ġbaronet":4389,"Ġfalcons":4390,"Ġludwig":4391,"Ġquarterback":4392,"Ġanalysis":4393,"Ġbruno":4394,"ablonski":4395,"Ġgoaltender":4396,"helm":4397,"Ġpilot":4398,"Ġliverpool":4399,"Ġvancouver":4400,"Ġluxembourg":4401,"Ġentrepreneur":4402,"Ġsinclair":4403,"Ġpatel":4404,"Ġpianist":4405,"Ġpuerto":4406,"Ġlitigation":4407,"Ġarizona":4408,"Ġparalymp":4409,"Ġsyracuse":4410,"Ġplaceofburial":4411,"..":4412,"44":4413,"72":4414,"cal":4415,"cat":4416,"cup":4417,"cast":4418,"cial":4419,"dan":4420,"gh":4421,"gu":4422,"gra":4423,"how":4424,"hran":4425,"jam":4426,"jana":4427,"kner":4428,"lic":4429,"np":4430,"nam":4431,"nelly":4432,"oeller":4433,"pr":4434,"pri":4435,"paul":4436,"uan":4437,"vo":4438,"vine":4439,"won":4440,"ways":4441,"yagi":4442,"Ã¦":4443,"áĢ":4444,"Ġia":4445,"Ġump":4446,"Ġigor":4447,"thomas":4448,"inch":4449,"inian":4450,"onjÃ©":4451,"anotti":4452,"Ġsed":4453,"Ġsun":4454,"Ġbot":4455,"Ġbhar":4456,"Ġbeargarden":4457,"Ġbgc":4458,"arily":4459,"Ġcad":4460,"Ġcast":4461,"Ġcinc":4462,"Ġcult":4463,"enin":4464,"enham":4465,"Ġthompson":4466,"Ġpun":4467,"Ġpace":4468,"Ġpiano":4469,"Ġfle":4470,"Ġfur":4471,"Ġfri":4472,"Ġfailed":4473,"albert":4474,"Ġwit":4475,"Ġwak":4476,"Ġwinn":4477,"Ġwinger":4478,"ising":4479,"Ġop":4480,"Ġhab":4481,"Ġ...":4482,"Ġdall":4483,"Ġny":4484,"Ġnight":4485,"Ġnai":4486,"Ġnova":4487,"asi":4488,"Ġinves":4489,"icz":4490,"iche":4491,"icap":4492,"rock":4493,"royer":4494,"Ġtupper":4495,"Ġjess":4496,"Ġgi":4497,"Ġgun":4498,"Ġgay":4499,"Ġgree":4500,"Ġgiven":4501,"eler":4502,"ately":4503,"chik":4504,"olan":4505,"ilian":4506,"uru":4507,"urer":4508,"urin":4509,"Ġluk":4510,"Ġlisa":4511,"Ġkid":4512,"Ġkong":4513,"Ġkhan":4514,"Ġkuba":4515,"Ġreign":4516,"Ġarn":4517,"Ġarag":4518,"Ġarafat":4519,"tician":4520,"Ġrid":4521,"Ġrio":4522,"Ġrene":4523,"Ġrider":4524,"adier":4525,"adesh":4526,"Ġtok":4527,"sip":4528,"image":4529,"earce":4530,"Ġstation":4531,"Ġstories":4532,"Ġstuart":4533,"Ġec":4534,"Ġegy":4535,"Ġchi":4536,"idi":4537,"iak":4538,"Ġvlad":4539,"ayer":4540,"utor":4541,"ardar":4542,"ighton":4543,"Ġrod":4544,"Ġrom":4545,"Ġrome":4546,"Ġroll":4547,"Ġroyer":4548,"Ġ34":4549,"Ġ37":4550,"Ġcopen":4551,"Ġtel":4552,"Ġtemp":4553,"Ġbeg":4554,"Ġbeach":4555,"Ġpoint":4556,"Ġmartial":4557,"Ġspira":4558,"icant":4559,"udley":4560,"aking":4561,"aksh":4562,"Ġcomic":4563,"ificant":4564,"Ġnewsp":4565,"Ġshary":4566,"Ġshah":4567,"rano":4568,"abr":4569,"abri":4570,"Ġ61":4571,"Ġ64":4572,"Ġ43":4573,"Ġ53":4574,"elling":4575,"Ġscore":4576,"opher":4577,"Ġpositions":4578,"antum":4579,"Ġmanila":4580,"ughlin":4581,"Ġparts":4582,"assan":4583,"Ġeddie":4584,"izon":4585,"Ġschwarz":4586,"Ġprison":4587,"Ġpradesh":4588,"season":4589,"Ġ175":4590,"Ġministry":4591,"aheli":4592,"Ġgener":4593,"Ġaustin":4594,"instein":4595,"Ġused":4596,"Ġnorfolk":4597,"Ġbarbara":4598,"Ġ140":4599,"coach":4600,"Ġcanadiens":4601,"Ġwillie":4602,"Ġbrief":4603,"Ġlove":4604,"ĠcronjÃ©":4605,"Ġharold":4606,"neider":4607,"Ġsound":4608,"Ġ230":4609,"Ġ1902":4610,"Ġlawrence":4611,"Ġtrin":4612,"Ġblond":4613,"Ġbutler":4614,"Ġproduct":4615,"Ġmoney":4616,"innati":4617,"Ġgreen":4618,"llig":4619,"2004":4620,"Ġqualif":4621,"Ġquantum":4622,"Ġaleks":4623,"Ġmilan":4624,"eva":4625,"olour":4626,"Ġlouise":4627,"Ġlouisiana":4628,"Ġ1880":4629,"Ġbowler":4630,"Ġfew":4631,"onym":4632,"Ġsignificant":4633,"Ġperformed":4634,"Ġmaur":4635,"Ġinvited":4636,"Ġinterest":4637,"Ġprimemin":4638,"ĠmartÃŃ":4639,"Ġtests":4640,"founder":4641,"Ġgolden":4642,"Ġindianapolis":4643,"Ġrepresentative":4644,"Ġavignon":4645,"Ġemir":4646,"Ġvocalist":4647,"Ġera":4648,"Ġmatt":4649,"Ġkarl":4650,"pped":4651,"Ġmagn":4652,"Ġrichmond":4653,"Ġsurv":4654,"Ġjournal":4655,"Ġacclaim":4656,"hoon":4657,"Ġmadrid":4658,"borough":4659,"Ġsubse":4660,"Ġasian":4661,"Ġdevine":4662,"Ġtraded":4663,"Ġqatar":4664,"eshire":4665,"Ġisraeli":4666,"steph":4667,"Ġballs":4668,"Ġmexico":4669,"Ġwilhelm":4670,"Ġbradford":4671,"Ġabdul":4672,"Ġnovelist":4673,"Ġcardinals":4674,"Ġeconomic":4675,"Ġeconomics":4676,"ĠandrÃ©":4677,"Ġvelshi":4678,"Ġinnings":4679,"Ġdominican":4680,"Ġargentina":4681,"Ġconviction":4682,"Ġfeatured":4683,"Ġniger":4684,"Ġtackle":4685,"Ġprosec":4686,"Ġprovided":4687,"Ġdifranco":4688,"Ġkiram":4689,"Ġimportant":4690,"Ġatlantic":4691,"ÅĤaw":4692,"Ġpadilla":4693,"endorf":4694,"Ġintellig":4695,"Ġlebanon":4696,"Ġprominent":4697,"Ġconcert":4698,"Ġpacific":4699,"Ġfaulkner":4700,"Ġlandsberg":4701,"Ġrangers":4702,"Ġpreceded":4703,"Ġdanny":4704,"Ġcomputer":4705,"Ġphilosophy":4706,"Ġexperimental":4707,"Ġdiplomat":4708,"Ġhampshire":4709,"Ġarmenian":4710,"Ġfinancial":4711,"Ġshooter":4712,"Ġbgcolour":4713,"Ġcincinnati":4714,"Ġdallas":4715,"Ġcopenhagen":4716,"Ġnewspap":4717,"Ġprimeminister":4718,"03":4719,"68":4720,"aaron":4721,"bet":4722,"cb":4723,"cz":4724,"cted":4725,"cricinfo":4726,"du":4727,"ela":4728,"eper":4729,"fa":4730,"gus":4731,"hou":4732,"ias":4733,"iors":4734,"jer":4735,"jun":4736,"kar":4737,"kal":4738,"light":4739,"lana":4740,"mid":4741,"mary":4742,"nor":4743,"nel":4744,"nap":4745,"nish":4746,"pn":4747,"par":4748,"pur":4749,"past":4750,"qi":4751,"ruction":4752,"sis":4753,"succeeded":4754,"tv":4755,"ued":4756,"uard":4757,"winning":4758,"wicz":4759,"Ã¨":4760,"Ã±":4761,"Ã¸":4762,"Äģ":4763,"ÄĻ":4764,"Ð½":4765,"Ġaxel":4766,"thro":4767,"inth":4768,"inburgh":4769,"anz":4770,"Ġsol":4771,"Ġsap":4772,"Ġsick":4773,"Ġsab":4774,"Ġsaf":4775,"Ġsons":4776,"Ġsanta":4777,"orated":4778,"tie":4779,"Ġbom":4780,"Ġbid":4781,"Ġbai":4782,"Ġbody":4783,"ars":4784,"arca":4785,"Ġcur":4786,"Ġculture":4787,"enai":4788,"Ġthur":4789,"Ġpic":4790,"Ġpakh":4791,"Ġpunk":4792,"Ġfurn":4793,"lef":4794,"leans":4795,"Ġmcc":4796,"Ġmale":4797,"Ġmlb":4798,"Ġwa":4799,"Ġwater":4800,"tess":4801,"Ġthesis":4802,"Ġhun":4803,"Ġhus":4804,"Ġhot":4805,"Ġhann":4806,"Ġhussein":4807,"Ġdoc":4808,"Ġdue":4809,"Ġdutch":4810,"Ġdnp":4811,"Ġdudley":4812,"Ġna":4813,"Ġni":4814,"Ġnations":4815,"asu":4816,"asthan":4817,"Ġinj":4818,"Ġiniti":4819,"amma":4820,"Ġanti":4821,"Ġanim":4822,"Ġanton":4823,"Ġtus":4824,"Ġtong":4825,"Ġtang":4826,"Ġtenn":4827,"Ġtrum":4828,"ingu":4829,"Ġjam":4830,"unce":4831,"Ġgas":4832,"ĠgÃ¶":4833,"Ġgosp":4834,"chy":4835,"Ġlind":4836,"hem":4837,"iguel":4838,"Ġkame":4839,"Ġkilled":4840,"Ġkainer":4841,"Ġrebane":4842,"Ġarab":4843,"stan":4844,"Ġrim":4845,"Ġrud":4846,"Ġrif":4847,"Ġrania":4848,"Ġrais":4849,"Ġtouring":4850,"sik":4851,"sible":4852,"ando":4853,"andy":4854,"uli":4855,"ulzer":4856,"Ġyou":4857,"places":4858,"player":4859,"Ġeastern":4860,"vey":4861,"otte":4862,"Ġuncle":4863,"idad":4864,"idence":4865,"Ġvfl":4866,"eting":4867,"utt":4868,"Ġwhose":4869,"rial":4870,"ribut":4871,"Ġplayoff":4872,"Ġroger":4873,"Ġborneo":4874,"Ġcoo":4875,"Ġcous":4876,"ressive":4877,"Ġmarri":4878,"Ġmarie":4879,"Ġmarcel":4880,"Ġwithin":4881,"aine":4882,"ordin":4883,"Ġcomed":4884,"ift":4885,"oviÄĩ":4886,"ovanna":4887,"Ġshim":4888,"icki":4889,"avan":4890,"Ġmechan":4891,"sop":4892,"Ġboyd":4893,"Ġ500":4894,"Ġorleans":4895,"Ġscene":4896,"Ġmob":4897,"Ġpolicy":4898,"sons":4899,"Ġhern":4900,"Ã©ri":4901,"Ġindo":4902,"Ġparagu":4903,"angel":4904,"Ġtill":4905,"Ġtiger":4906,"Ġ1921":4907,"Ġedinburgh":4908,"Ġ84":4909,"Ġagency":4910,"Ġfinnish":4911,"forming":4912,"Ġ92":4913,"Ġserves":4914,"Ġsuff":4915,"Ġib":4916,"Ġyorkshire":4917,"ricia":4918,"Ġperry":4919,"ressed":4920,"Ġcalgary":4921,"kewicz":4922,"Ġ139":4923,"Ġ1892":4924,"Ã¡z":4925,"Ġevans":4926,"Ġbands":4927,"Ġcharl":4928,"Ġschools":4929,"Ġ1903":4930,"Ġ1905":4931,"Ġcoached":4932,"Ġlawyers":4933,"bru":4934,"Ġclar":4935,"Ġmonarch":4936,"Ġbecoming":4937,"Ġgrey":4938,"awa":4939,"Ġhighly":4940,"2003":4941,"Ġyour":4942,"Ġregard":4943,"Ġannoun":4944,"Ġauthority":4945,"Ġsenators":4946,"Ġdisp":4947,"Ġsyrian":4948,"Ġthrowing":4949,"Ġoriginally":4950,"Ġ1878":4951,"Ġstudy":4952,"Ġstudio":4953,"Ġalexand":4954,"Ġmets":4955,"Ġmetre":4956,"Ġreceiving":4957,"talion":4958,"Ġacademic":4959,"Ġsimon":4960,"Ġdenver":4961,"Ġxi":4962,"Ġinvest":4963,"Ġprimarily":4964,"Ġdelhi":4965,"Ġesposito":4966,"Ġportrait":4967,"Ġuttar":4968,"Ġdrug":4969,"Ġelectoral":4970,"Ġlosing":4971,"Ġversion":4972,"2013":4973,"Ġmasters":4974,"Ġdaughters":4975,"Ġ1835":4976,"ijs":4977,"Ġfederation":4978,"Ġindependence":4979,"Ġgrieg":4980,"Ġservices":4981,"Ġolive":4982,"Ġalberta":4983,"Ġduke":4984,"played":4985,"Ġpakistani":4986,"Ġturkish":4987,"Ġsystems":4988,"Ġwilson":4989,"chiat":4990,"Ġviolin":4991,"Ġnovels":4992,"Ġdriver":4993,"Ġtype":4994,"drig":4995,"Ġmcginn":4996,"Ġwriting":4997,"Ġdouble":4998,"Ġbanks":4999,"Ġrecognized":5000,"Ġmunich":5001,"Ġgymn":5002,"Ġadvoc":5003,"Ġdescent":5004,"Äĥu":5005,"Ġdoroth":5006,"Ġearlier":5007,"while":5008,"Ġhodge":5009,"Ġsimpson":5010,"Ġbilly":5011,"Ġpirates":5012,"ĠnÃ©e":5013,"Ġboland":5014,"vetlana":5015,"Ġcontroversi":5016,"Ġseattle":5017,"profession":5018,"master":5019,"Ġhospital":5020,"Ġnetwork":5021,"Ġcommercial":5022,"Ġjohann":5023,"Ġpsychiat":5024,"Ġcinema":5025,"Ġflying":5026,"Ġwilde":5027,"Ġreferred":5028,"Ġchannel":5029,"Ġbehind":5030,"Ġcameron":5031,"cenera":5032,"svg":5033,"Ġahmed":5034,"Ġhartford":5035,"Ġtaylor":5036,"Ġbritain":5037,"ldrafted":5038,"Ġcompanies":5039,"Ġallowed":5040,"Ġhussain":5041,"Ġeisner":5042,"Ġwarsaw":5043,"jamin":5044,"Ġfriend":5045,"Ġinvestig":5046,"through":5047,"Ġgospel":5048,"Ġparaguay":5049,"Ġdorothy":5050,"'t":5051,"07":5052,"28":5053,"73":5054,"ause":5055,"auman":5056,"aoka":5057,"bre":5058,"bus":5059,"bot":5060,"bie":5061,"bak":5062,"bors":5063,"cs":5064,"cy":5065,"cious":5066,"cats":5067,"cross":5068,"dle":5069,"fic":5070,"get":5071,"hon":5072,"hap":5073,"hop":5074,"hael":5075,"hib":5076,"iad":5077,"ked":5078,"kat":5079,"lon":5080,"lory":5081,"loss":5082,"lenburg":5083,"mpla":5084,"mouth":5085,"mowski":5086,"nan":5087,"net":5088,"oe":5089,"ois":5090,"oum":5091,"pan":5092,"pond":5093,"ras":5094,"sin":5095,"sir":5096,"sub":5097,"sey":5098,"ux":5099,"uen":5100,"ution":5101,"uiz":5102,"utes":5103,"uoka":5104,"viÄĩ":5105,"xter":5106,"yes":5107,"zes":5108,"zio":5109,"zny":5110,"ÅŁ":5111,"Ð°":5112,"Ġ_":5113,"Ġå":5114,"Ġè":5115,"Ġide":5116,"Ġauck":5117,"erre":5118,"ered":5119,"tham":5120,"inÄĥu":5121,"ants":5122,"Ġsr":5123,"Ġsla":5124,"Ġsel":5125,"Ġsit":5126,"Ġsand":5127,"ĠsÃ©":5128,"Ġsusse":5129,"Ġsotto":5130,"oria":5131,"Ġbears":5132,"Ġburn":5133,"Ġbint":5134,"ared":5135,"Ġcu":5136,"Ġcate":5137,"Ġcfl":5138,"Ġcbs":5139,"Ġcricinfo":5140,"ĠcÃ´":5141,"entist":5142,"enix":5143,"Ġpon":5144,"Ġput":5145,"Ġpage":5146,"Ġpears":5147,"Ġpresented":5148,"Ġpga":5149,"Ġfire":5150,"Ġfast":5151,"Ġfash":5152,"Ġfitz":5153,"Ġfavor":5154,"alf":5155,"alma":5156,"lee":5157,"lett":5158,"Ġmp":5159,"Ġmack":5160,"Ġmimi":5161,"Ġmiguel":5162,"isk":5163,"isÅĤaw":5164,"rban":5165,"Ġoil":5166,"Ġhaz":5167,"Ġhiro":5168,"Ġhunt":5169,"reb":5170,"Ġdin":5171,"Ġdone":5172,"Ġnim":5173,"Ġnav":5174,"Ġnba":5175,"Ġins":5176,"Ġany":5177,"law":5178,"eds":5179,"eder":5180,"rob":5181,"room":5182,"rousse":5183,"Ġji":5184,"Ġjar":5185,"Ġjenn":5186,"Ġjasper":5187,"Ġgon":5188,"Ġget":5189,"Ġgolf":5190,"cell":5191,"atest":5192,"ushing":5193,"chair":5194,"oli":5195,"urse":5196,"Ġlank":5197,"Ġkon":5198,"Ġkam":5199,"Ġkate":5200,"Ġkum":5201,"Ġkaz":5202,"Ġkee":5203,"Ġread":5204,"Ġarm":5205,"stal":5206,"standing":5207,"Ġrub":5208,"Ġrice":5209,"Ġrfc":5210,"adi":5211,"ades":5212,"advis":5213,"Ġtouch":5214,"terbury":5215,"imana":5216,"andon":5217,"andler":5218,"Ġstak":5219,"Ġstran":5220,"Ġeye":5221,"Ġalan":5222,"Ġcho":5223,"Ġchern":5224,"eto":5225,"etti":5226,"Ġsex":5227,"Ġplat":5228,"Ġlev":5229,"ugg":5230,"Ġrochester":5231,"Ġrosa":5232,"Ġrodrig":5233,"arty":5234,"Ġ300":5235,"Ġprost":5236,"Ġproper":5237,"Ġ02":5238,"respond":5239,"Ġtesti":5240,"Ġbeat":5241,"Ġbeati":5242,"Ġnether":5243,"ocese":5244,"uez":5245,"Ġpoor":5246,"Ġmarket":5247,"Ġlabour":5248,"Ġspin":5249,"akash":5250,"eyimana":5251,"icheng":5252,"Ġjoin":5253,"Ġcolin":5254,"icker":5255,"endenin":5256,"Ġcapital":5257,"alse":5258,"rystal":5259,"abase":5260,"verse":5261,"ipal":5262,"Ġjanet":5263,"acht":5264,"Ġ65":5265,"Ġ66":5266,"Ġ44":5267,"Ġmayassa":5268,"iki":5269,"ongk":5270,"Ġuniversit":5271,"Ġhassan":5272,"ops":5273,"emy":5274,"Ġrecent":5275,"Ġjulian":5276,"Ġherbert":5277,"Ġ77":5278,"sidy":5279,"Ġcounties":5280,"Ġcountess":5281,"pero":5282,"Ġschauman":5283,"eree":5284,"Ġ87":5285,"Ġcancer":5286,"Ġcanterbury":5287,"Ġpray":5288,"Ġ155":5289,"Ġ1500":5290,"Ġfilip":5291,"Ġzanotti":5292,"Ġjohnny":5293,"Ġshepp":5294,"Ġsheila":5295,"ampton":5296,"adeem":5297,"Ġprofessionally":5298,"Ġexhib":5299,"ublin":5300,"Ġacross":5301,"Ġcountries":5302,"Ġgeoff":5303,"Ġbattalion":5304,"Ġmedals":5305,"cois":5306,"Ġ240":5307,"Ġ220":5308,"ungan":5309,"spir":5310,"Ġabol":5311,"Ġabram":5312,"Ġhair":5313,"nez":5314,"Ġelder":5315,"Ġhadfield":5316,"Ġ1907":5317,"Ġcoaching":5318,"ancy":5319,"brid":5320,"Ġbests":5321,"Ġgreatest":5322,"awks":5323,"2006":5324,"2007":5325,"Ġdirected":5326,"Ġambass":5327,"Ġcontribut":5328,"Ġquizon":5329,"Ġdave":5330,"Ġannie":5331,"Ġswim":5332,"Ġflames":5333,"Ġwalter":5334,"Ġwalker":5335,"Ġvictim":5336,"Ġscientist":5337,"cester":5338,"Ġsyn":5339,"Ġsyria":5340,"Ġreligious":5341,"Ġ1865":5342,"Ġ1868":5343,"Ġpriv":5344,"Ġprizes":5345,"Ġmcne":5346,"Ġ1881":5347,"Ġscott":5348,"Ġcoron":5349,"Ġsongs":5350,"Ġmorrison":5351,"Ġranked":5352,"Ġmartins":5353,"Ġwoman":5354,"foot":5355,"Ġcreative":5356,"ĠÃĹ":5357,"Ġmills":5358,"Ġentry":5359,"Ġava":5360,"Ġeric":5361,"Ġholy":5362,"Ġholly":5363,"Ġholder":5364,"Ġdonnelly":5365,"Ġrelatives":5366,"Ġmurphy":5367,"caa":5368,"Ġfollowed":5369,"Ġmaryland":5370,"Ġtotalgoals":5371,"Ġtotalcaps":5372,"ieta":5373,"ulaziz":5374,"Ġsharif":5375,"2011":5376,"2014":5377,"Ġopening":5378,"1998":5379,"Ġlarry":5380,"Ġmohammed":5381,"Ġtake":5382,"Ġboris":5383,"brown":5384,"Ġrapids":5385,"carlos":5386,"nationality":5387,"Ġkentridge":5388,"Ġveenai":5389,"Ġstephanie":5390,"Ġclassical":5391,"Ġntl":5392,"players":5393,"Ġballard":5394,"Ġraymond":5395,"Ġstrong":5396,"Ġindustrial":5397,"yeon":5398,"Ġpastor":5399,"Ġcommunic":5400,"Ġentered":5401,"hua":5402,"Ġ1843":5403,"Ġfergus":5404,"Ġgirl":5405,"Ġadministr":5406,"Ġstockport":5407,"Ġmcglory":5408,"Ġpaik":5409,"Ġhogan":5410,"Ġrajasthan":5411,"Ġvisiting":5412,"Ġsheriff":5413,"Ġstatistical":5414,"Ġhayden":5415,"Ġlatter":5416,"Ġmikec":5417,"Ġgilbert":5418,"Ġrandy":5419,"Ġrandall":5420,"Ġzimmer":5421,"Ġdescribed":5422,"Ġliterature":5423,"Ġastros":5424,"Ġalgerian":5425,"Ġalgeria":5426,"teenth":5427,"Ġwelsh":5428,"Ġdickerson":5429,"ographic":5430,"khage":5431,"Ġmonths":5432,"Ġkeyboard":5433,"Ġmessner":5434,"Ġdolcenera":5435,"Ġadvisory":5436,"Ġbroadcast":5437,"Ġmalaysia":5438,"Ð¸Ñ":5439,"Ġfuture":5440,"Ġfront":5441,"Ġcolonel":5442,"Ġzagreb":5443,"Ġcorporation":5444,"Ġlanguage":5445,"election":5446,"Ġvideo":5447,"Ġvalerie":5448,"Ġsaxophonist":5449,"Ġsinicki":5450,"Ġnizeyimana":5451,"Ġarchitect":5452,"training":5453,"original":5454,"Ġdatabase":5455,"Ġnagy":5456,"Ġlokomo":5457,"Ġphoenix":5458,"Ġbangladesh":5459,"however":5460,"Ġfurther":5461,"Ġvladim":5462,"Ġtrinidad":5463,"ĠmartÃŃnez":5464,"Ġintelligence":5465,"Ġnewspaper":5466,"epernick":5467,"kalu":5468,"Ġbombers":5469,"Ġraised":5470,"Ġcontroversial":5471,"Ġauckland":5472,"Ġsussex":5473,"Ġpearson":5474,"Ġfashion":5475,"Ġbeatified":5476,"Ġnetherlands":5477,"ichengreen":5478,"Ġambassador":5479,"Ġlokomotiv":5480,"06":5481,"09":5482,"15":5483,"27":5484,"43":5485,"47":5486,"63":5487,"64":5488,"81":5489,"84":5490,"92":5491,"93":5492,"ail":5493,"bham":5494,"cm":5495,"cio":5496,"di":5497,"din":5498,"down":5499,"fil":5500,"furt":5501,"follow":5502,"gow":5503,"ggy":5504,"ially":5505,"jess":5506,"kis":5507,"kim":5508,"lif":5509,"lang":5510,"lovakia":5511,"non":5512,"now":5513,"oon":5514,"pl":5515,"pite":5516,"rn":5517,"rÃ©":5518,"sal":5519,"tÃ©":5520,"uy":5521,"vre":5522,"vir":5523,"witz":5524,"when":5525,"yr":5526,"zzi":5527,"Æ¡":5528,"Ð²":5529,"ÙĨ":5530,"å®":5531,"Ġig":5532,"Ġian":5533,"Ġum":5534,"ĠáĢ":5535,"Ġaround":5536,"ermo":5537,"thm":5538,"thy":5539,"thing":5540,"thman":5541,"anied":5542,"Ġsac":5543,"Ġsucceeded":5544,"Ġsardar":5545,"Ġsvetlana":5546,"tia":5547,"tian":5548,"tire":5549,"Ġbc":5550,"Ġbh":5551,"Ġbes":5552,"Ġbed":5553,"Ġbap":5554,"Ġbenn":5555,"Ġbati":5556,"Ġbolog":5557,"Ġbates":5558,"Ġbolk":5559,"Ġbjp":5560,"arus":5561,"Ġcub":5562,"Ġcamp":5563,"Ġcushing":5564,"Ġthongk":5565,"Ġpf":5566,"Ġpere":5567,"Ġposs":5568,"Ġpearce":5569,"Ġfielder":5570,"Ġfrick":5571,"Ġfact":5572,"Ġmam":5573,"Ġmiam":5574,"ĠmÃ¼":5575,"Ġwer":5576,"Ġwri":5577,"Ġwander":5578,"Ġwright":5579,"tech":5580,"tels":5581,"templa":5582,"Ġtheater":5583,"Ġhi":5584,"Ġhum":5585,"Ġhild":5586,"Ġhutch":5587,"ream":5588,"rement":5589,"Ġdur":5590,"Ġdub":5591,"Ġdest":5592,"Ġdahl":5593,"Ġdmowski":5594,"Ġnich":5595,"Ġnash":5596,"Ġnune":5597,"Ġnasa":5598,"Ġncaa":5599,"asgow":5600,"Ġinaug":5601,"lap":5602,"lay":5603,"later":5604,"edom":5605,"rod":5606,"rote":5607,"Ġtol":5608,"Ġtul":5609,"Ġtampa":5610,"Ġjason":5611,"Ġjockey":5612,"Ġgor":5613,"Ġgod":5614,"ĠgÃ³":5615,"Ġgained":5616,"ella":5617,"eland":5618,"itt":5619,"itation":5620,"chin":5621,"chest":5622,"olution":5623,"iling":5624,"illet":5625,"Ġly":5626,"Ġlith":5627,"Ġlion":5628,"Ġlisted":5629,"Ġliving":5630,"Ġkay":5631,"Ġkut":5632,"Ġkos":5633,"Ġkuk":5634,"Ġkurt":5635,"Ġkinsk":5636,"Ġkopp":5637,"Ġarres":5638,"Ġarmit":5639,"Ġarrest":5640,"stad":5641,"style":5642,"Ġrw":5643,"Ġrav":5644,"Ġrena":5645,"adjian":5646,"agues":5647,"Ġtoge":5648,"Ġtoday":5649,"sie":5650,"sian":5651,"imb":5652,"Ġstone":5653,"ulu":5654,"Ġyu":5655,"Ġyong":5656,"Ġequ":5657,"Ġeichengreen":5658,"Ġalord":5659,"ĠchÃ©ri":5660,"aci":5661,"acon":5662,"Ġunsu":5663,"idu":5664,"iden":5665,"Ġvari":5666,"ubles":5667,"cting":5668,"Ġleon":5669,"Ġleav":5670,"Ġleone":5671,"Ġwhom":5672,"ups":5673,"uge":5674,"umed":5675,"Ġrovers":5676,"oslovakia":5677,"Ġprol":5678,"Ġprobab":5679,"resh":5680,"ustino":5681,"Ġbeij":5682,"Ġmargar":5683,"shaw":5684,"Ġlaura":5685,"ccess":5686,"Ġconran":5687,"Ġcoming":5688,"ills":5689,"Ġjohan":5690,"Ġjoining":5691,"Ġjoanna":5692,"Ġjosip":5693,"oven":5694,"Ġshap":5695,"Ġshav":5696,"Ġcolts":5697,"ranking":5698,"Ġcape":5699,"Ġcapit":5700,"ouski":5701,"odina":5702,"abi":5703,"ips":5704,"achi":5705,"Ġ63":5706,"Ġ649":5707,"Ġ47":5708,"Ġmaya":5709,"ucker":5710,"iviane":5711,"unds":5712,"unded":5713,"wards":5714,"Ġens":5715,"eme":5716,"okes":5717,"Ġjuniors":5718,"asty":5719,"antin":5720,"Ġ73":5721,"ughan":5722,"asser":5723,"Ġindie":5724,"Ġparma":5725,"ioz":5726,"ization":5727,"ullo":5728,"Ġschneider":5729,"Ġschulzer":5730,"Ġ83":5731,"Ġcanon":5732,"essions":5733,"Ġminer":5734,"Ġreporter":5735,"Ġservant":5736,"Ġgeneva":5737,"Ġwortley":5738,"Ġshep":5739,"193":5740,"Ġworkplaces":5741,"Ġweinstein":5742,"Ġexten":5743,"enne":5744,"Ġperu":5745,"Ġperth":5746,"Ġworldwide":5747,"Ġbrock":5748,"tures":5749,"Ġaction":5750,"Ġuse":5751,"Ġterry":5752,"Ġterrit":5753,"Ġ1891":5754,"Ġnorcross":5755,"Ġbarn":5756,"Ã¡s":5757,"Ġsteel":5758,"encer":5759,"encia":5760,"Ġevidence":5761,"Ġevangel":5762,"marsh":5763,"atern":5764,"Ġwillard":5765,"Ġsection":5766,"Ġabst":5767,"Ġirvine":5768,"Ġhaas":5769,"Ġellef":5770,"Ġsox":5771,"Ġsuccession":5772,"Ġ1906":5773,"Ġkingston":5774,"Ġdistingu":5775,"myth":5776,"ault":5777,"Ġbecause":5778,"Ġbrakhage":5779,"Ġgrew":5780,"2001":5781,"Ġmission":5782,"Ġdoha":5783,"alex":5784,"Ġlastodi":5785,"Ġyoon":5786,"icketarchive":5787,"venue":5788,"Ġdavidson":5789,"ible":5790,"Ġswane":5791,"enderson":5792,"Ġwalwyn":5793,"Ġdiss":5794,"Ġsciences":5795,"Ġreser":5796,"Ġresigned":5797,"Ġretirement":5798,"Ġdirectors":5799,"Ġ1864":5800,"def":5801,"Ġprix":5802,"iorresult":5803,"Ġjew":5804,"Ġ1876":5805,"Ġ1879":5806,"Ġoutside":5807,"Ġbuijs":5808,"Ġcassidy":5809,"Ġhelp":5810,"Ġcorrespond":5811,"Ġweston":5812,"Ġconsult":5813,"Ġdepor":5814,"Ġtitled":5815,"Ġmorton":5816,"ynd":5817,"Ġranks":5818,"poel":5819,"points":5820,"Ġmedaltempla":5821,"Ġfielding":5822,"Ġnflnew":5823,"Ġeducated":5824,"Ġdemocrat":5825,"villa":5826,"ĠÃī":5827,"Ġbreton":5828,"Ġeskim":5829,"Ġlibr":5830,"Ġrepresents":5831,"harris":5832,"Ġtrainer":5833,"Ġfaraz":5834,"Ġrelay":5835,"ÃŃn":5836,"Ġincumb":5837,"Ġgrandmaster":5838,"Ġ1812":5839,"Ġ1814":5840,"Ġ1817":5841,"although":5842,"aisi":5843,"Ġglenn":5844,"Ġglasgow":5845,"Ġbenjamin":5846,"Ġmovies":5847,"Ġoperation":5848,"Ġukraine":5849,"Ġinfluenced":5850,"ĠpantiÄĩ":5851,"Ġlarge":5852,"Ġaffili":5853,"Ġtakaoka":5854,"Ġakana":5855,"Ġcatholicism":5856,"Ġmacc":5857,"Ġfigures":5858,"Ġburial":5859,"Ġolder":5860,"Ġissues":5861,"playing":5862,"Ġalongside":5863,"wait":5864,"Ġlightweight":5865,"Ġkeating":5866,"Ġchristopher":5867,"Ġprincipal":5868,"Ġrhodes":5869,"ĠstanisÅĤaw":5870,"Ġprograms":5871,"donald":5872,"Ġcorner":5873,"Ġformula":5874,"Ġtransla":5875,"Ġtransfer":5876,"Ġselection":5877,"Ġwritten":5878,"Ġhandicap":5879,"Ġkras":5880,"Ġcontributed":5881,"Ġachieved":5882,"Ġczechoslovakia":5883,"Ġtigers":5884,"Ġhayward":5885,"Ġlosses":5886,"Ġmecklenburg":5887,"Ġmuney":5888,"Ġwayne":5889,"Ġkuwait":5890,"Ġperformances":5891,"Ġhowe":5892,"Ġcontinued":5893,"Ġfeaturing":5894,"Ġmueller":5895,"Ġtackles":5896,"Ġevery":5897,"Ġdiffer":5898,"Ġmathematician":5899,"inzendorf":5900,"Ġwatson":5901,"Ġboney":5902,"Ġliga":5903,"Ġselezny":5904,"Ġkeyboards":5905,"Ġpersonality":5906,"Ġernie":5907,"onstantin":5908,"Ġgalat":5909,"Ġcharts":5910,"Ġvacant":5911,"Ġcommonly":5912,"institutions":5913,"Ġsouza":5914,"Ġthorin":5915,"Ġmendieta":5916,"Ġmoldova":5917,"Ġrespon":5918,"Ġemployer":5919,"Ġfantasy":5920,"Ġwheater":5921,"Ġemeritus":5922,"Ġphillies":5923,"Ġtraditional":5924,"Ġlamb":5925,"Ġkessler":5926,"Ġvaughan":5927,"Ġvincent":5928,"umentary":5929,"Ġnevada":5930,"Ġmeehan":5931,"cricketarchive":5932,"coran":5933,"Ġnordahl":5934,"Ġreplaced":5935,"Ġalderman":5936,"ĠÃĸz":5937,"Ġaccompanied":5938,"daniel":5939,"Ġhabsburg":5940,"uruvilla":5941,"ĠaragÃ³n":5942,"Ġrenee":5943,"Ġegypt":5944,"Ġtemple":5945,"Ġmaurice":5946,"juniorresult":5947,"Ġsapru":5948,"Ġsickle":5949,"Ġbiddle":5950,"Ġrimouski":5951,"Ġrudman":5952,"Ġrifle":5953,"Ġindoor":5954,"advisor":5955,"Ġsheppard":5956,"Ġferguson":5957,"Ġadministrator":5958,"Ġzimmerman":5959,"films":5960,"following":5961,"Ġbologna":5962,"Ġbolkiah":5963,"Ġmiami":5964,"Ġnichol":5965,"Ġkutaisi":5966,"Ġkinsky":5967,"Ġarrested":5968,"Ġarmitage":5969,"Ġtogether":5970,"Ġalordiah":5971,"Ġunsuccess":5972,"Ġbeijing":5973,"Ġmargaret":5974,"Ġellefson":5975,"Ġdistinguished":5976,"Ġswanepoel":5977,"Ġmedaltemplates":5978,"Ġeskimos":5979,"Ġincumbent":5980,"Ġseleznyova":5981,"Ġunsuccessful":5982,"14":5983,"46":5984,"79":5985,"82":5986,"90":5987,"96":5988,"aa":5989,"aur":5990,"aut":5991,"author":5992,"bul":5993,"burn":5994,"brew":5995,"cam":5996,"cos":5997,"dd":5998,"des":5999,"fre":6000,"fiction":6001,"gor":6002,"gal":6003,"gil":6004,"gie":6005,"gium":6006,"gkin":6007,"geshire":6008,"hp":6009,"hary":6010,"hist":6011,"hach":6012,"itions":6013,"jack":6014,"jav":6015,"kes":6016,"kel":6017,"kri":6018,"key":6019,"lis":6020,"loc":6021,"luc":6022,"lik":6023,"nig":6024,"nid":6025,"named":6026,"oa":6027,"oh":6028,"ole":6029,"oid":6030,"ours":6031,"punk":6032,"ror":6033,"rnik":6034,"ser":6035,"sam":6036,"sang":6037,"uh":6038,"uins":6039,"var":6040,"vell":6041,"was":6042,"wine":6043,"yuk":6044,"zhe":6045,"zÃ¡":6046,"zullo":6047,"ÄŁ":6048,"Ðµ":6049,"Ðº":6050,"Ð»":6051,"ÙĦ":6052,"Ġ|":6053,"Ġ×":6054,"Ġich":6055,"Ġaz":6056,"Ġaer":6057,"Ġaud":6058,"Ġavenue":6059,"ero":6060,"erick":6061,"erang":6062,"inter":6063,"inson":6064,"inko":6065,"anth":6066,"anat":6067,"anian":6068,"Ġsf":6069,"Ġss":6070,"Ġsz":6071,"Ġsay":6072,"Ġsop":6073,"Ġsant":6074,"Ġsier":6075,"Ġsale":6076,"Ġsolic":6077,"Ġsoph":6078,"Ġssr":6079,"Ġsfr":6080,"ora":6081,"order":6082,"tiz":6083,"Ġ1000":6084,"Ġbos":6085,"Ġbry":6086,"Ġbab":6087,"Ġbah":6088,"Ġbitney":6089,"arn":6090,"Ġcel":6091,"Ġcell":6092,"Ġcba":6093,"Ġthr":6094,"Ġthug":6095,"Ġpent":6096,"Ġpse":6097,"Ġpyle":6098,"Ġpfr":6099,"Ġfan":6100,"Ġfun":6101,"aling":6102,"alay":6103,"alova":6104,"lete":6105,"lect":6106,"leman":6107,"Ġmv":6108,"Ġmust":6109,"Ġmurr":6110,"Ġwo":6111,"Ġwang":6112,"Ġwide":6113,"Ġwind":6114,"Ġwrest":6115,"Ġwagh":6116,"Ġwrote":6117,"Ġwchin":6118,"isi":6119,"isp":6120,"isel":6121,"issb":6122,"Ġott":6123,"Ġopp":6124,"Ġhan":6125,"Ġhat":6126,"Ġhul":6127,"Ġhud":6128,"Ġhick":6129,"Ġhors":6130,"Ġhenderson":6131,"rell":6132,"Ġdig":6133,"Ġdim":6134,"Ġdund":6135,"Ġduch":6136,"Ġdowell":6137,"Ġnl":6138,"Ġnam":6139,"Ġnun":6140,"Ġnadeem":6141,"Ġintro":6142,"Ġinform":6143,"Ġanch":6144,"este":6145,"estic":6146,"icas":6147,"ices":6148,"edral":6149,"rol":6150,"Ġtac":6151,"Ġtai":6152,"Ġtony":6153,"Ġtbil":6154,"Ġandy":6155,"Ġjock":6156,"Ġjablonski":6157,"unch":6158,"unki":6159,"Ġgey":6160,"Ġgang":6161,"Ġground":6162,"Ġgarden":6163,"elve":6164,"chard":6165,"christ":6166,"ilar":6167,"urg":6168,"urie":6169,"ento":6170,"atory":6171,"Ġloc":6172,"Ġlock":6173,"Ġlyn":6174,"Ġlived":6175,"Ġlantz":6176,"Ġlotte":6177,"heather":6178,"Ġdeter":6179,"Ġdecl":6180,"Ġdecarlos":6181,"Ġkre":6182,"Ġkel":6183,"Ġkat":6184,"Ġkall":6185,"Ġkap":6186,"Ġkary":6187,"Ġkash":6188,"Ġkeral":6189,"Ġkuruvilla":6190,"stor":6191,"tica":6192,"Ġrash":6193,"Ġrib":6194,"Ġriff":6195,"Ġrico":6196,"Ġrhy":6197,"Ġford":6198,"ager":6199,"omer":6200,"omed":6201,"Ġstand":6202,"Ġstaheli":6203,"Ġyous":6204,"plain":6205,"Ġeint":6206,"Ġalford":6207,"Ġalbers":6208,"Ġcha":6209,"Ġchance":6210,"Ġchase":6211,"Ġchandler":6212,"ianpur":6213,"Ġuns":6214,"orne":6215,"allen":6216,"ident":6217,"Ġheather":6218,"Ġhebrew":6219,"iath":6220,"iatives":6221,"Ġvill":6222,"Ġvene":6223,"Ġvision":6224,"Ġvilla":6225,"Ġview":6226,"Ġviviane":6227,"Ġlef":6228,"Ġwha":6229,"Ġwhat":6230,"istance":6231,"racht":6232,"Ġrothman":6233,"Ġuniver":6234,"Ġfoix":6235,"Ġcov":6236,"Ġcover":6237,"Ġcooke":6238,"Ġprom":6239,"Ġtett":6240,"Ġbea":6241,"Ġbeier":6242,"ociatives":6243,"Ġpope":6244,"Ġpozzi":6245,"Ġmarqu":6246,"Ġmartel":6247,"iece":6248,"shop":6249,"manus":6250,"Ġlab":6251,"Ġlaval":6252,"Ġlatin":6253,"ouk":6254,"essee":6255,"Ġcongo":6256,"Ġconspir":6257,"aka":6258,"Ġcomics":6259,"illian":6260,"isha":6261,"Ġnewton":6262,"Ġjoy":6263,"ĠjoÃ£o":6264,"ovalova":6265,"Ġshot":6266,"Ġcollab":6267,"Ġcolomb":6268,"endel":6269,"rani":6270,"Ġamericas":6271,"Ġmemp":6272,"Ġmethod":6273,"odar":6274,"abd":6275,"Ġjann":6276,"Ġjanata":6277,"Ġserve":6278,"Ġserra":6279,"Ġ400":6280,"Ġbooth":6281,"Ġboumann":6282,"Ġ59":6283,"Ġorio":6284,"Ġorchest":6285,"ikh":6286,"ielsen":6287,"Ġcarey":6288,"ecker":6289,"ectively":6290,"zeh":6291,"Ġenco":6292,"Ġrecover":6293,"Ġpoll":6294,"okhl":6295,"antom":6296,"Ġ75":6297,"Ġ78":6298,"Ġparsons":6299,"Ġknow":6300,"sidis":6301,"therston":6302,"performing":6303,"Ġedis":6304,"Ġedgar":6305,"Ġedmond":6306,"mental":6307,"Ġbrig":6308,"Ġbrune":6309,"Ġschoeller":6310,"Ġ89":6311,"Ġmuslim":6312,"Ġphantom":6313,"Ġprat":6314,"Ġfinance":6315,"Ġ125":6316,"mail":6317,"quent":6318,"Ġ94":6319,"Ġzh":6320,"Ġzar":6321,"Ġzinzendorf":6322,"Ġjohns":6323,"195":6324,"boumann":6325,"Ġadolf":6326,"Ġappro":6327,"Ġexeter":6328,"Ġperhap":6329,"Ġafl":6330,"Ġbrought":6331,"tured":6332,"Ġheightweight":6333,"Ġtwins":6334,"Ġtwelve":6335,"anno":6336,"anned":6337,"Ġ113":6338,"Ġussr":6339,"Ġusopen":6340,"Ġnorwe":6341,"Ġbartels":6342,"Ã¡cio":6343,"Ġstewart":6344,"Ġeven":6345,"Ġevren":6346,"wealth":6347,"Ġcharan":6348,"Ġincludes":6349,"Ġloth":6350,"Ġpresenter":6351,"hammad":6352,"hamidi":6353,"Ġcrone":6354,"Ġeliot":6355,"ships":6356,"Ġpeak":6357,"Ġclendenin":6358,"Ġpresidential":6359,"Ġbrabham":6360,"llar":6361,"llus":6362,"Ġassociate":6363,"quez":6364,"Ġdespite":6365,"Ġdeshp":6366,"Ġproducing":6367,"Ġproductions":6368,"velt":6369,"Ġappearing":6370,"Ġdouglas":6371,"ĠquÃ©":6372,"vernyuk":6373,"Ġdae":6374,"Ġalbanian":6375,"Ġregent":6376,"ronaut":6377,"Ġswiss":6378,"Ġvicente":6379,"Ġscienti":6380,"haugh":6381,"Ġhours":6382,"Ġresign":6383,"Ġsyl":6384,"ramento":6385,"vester":6386,"Ġ1877":6387,"alya":6388,"alyst":6389,"Ġmajority":6390,"Ġbuil":6391,"Ġpatri":6392,"Ġstudios":6393,"Ġ1883":6394,"Ġcastle":6395,"Ġcorbin":6396,"Ġcorcoran":6397,"Ġfreedom":6398,"Ġdemonst":6399,"Ġwebb":6400,"Ġconsist":6401,"Ġsaid":6402,"Ġsalt":6403,"Ġsalam":6404,"Ġfeature":6405,"Ġfetherston":6406,"Ġqueens":6407,"schis":6408,"Ġsimilar":6409,"Ġdenis":6410,"Ġlongest":6411,"Ġperformer":6412,"Ġxavier":6413,"Ġcambrid":6414,"Ġeducator":6415,"noon":6416,"Ġsamba":6417,"Ġbelie":6418,"Ġbelgium":6419,"Ġjacksonville":6420,"tained":6421,"vili":6422,"Ġtorped":6423,"Ġportray":6424,"Ġblake":6425,"estervelt":6426,"Ġemi":6427,"Ġcyr":6428,"Ġmatte":6429,"Ġholland":6430,"hiro":6431,"Ġthirty":6432,"Ġkarin":6433,"Ġromania":6434,"Ġepic":6435,"Ġslovak":6436,"Ġsloven":6437,"Ġsurge":6438,"enzong":6439,"Ġtommy":6440,"cause":6441,"Ġ1813":6442,"Ġ1816":6443,"Ġprogressive":6444,"ulation":6445,"Ġcathedral":6446,"Ġshared":6447,"Ġglen":6448,"uddenham":6449,"instruments":6450,"Ġodadjian":6451,"Ġjoshua":6452,"Ġmadison":6453,"Ġsubcat":6454,"Ġinstrumental":6455,"Ġcivic":6456,"Ġhamad":6457,"Ġhammond":6458,"Ġnicknamed":6459,"Ġ1858":6460,"Ġassists":6461,"suit":6462,"Ġakron":6463,"Ġbassist":6464,"Ġplan":6465,"Ġplant":6466,"Ġpalest":6467,"Ġkaepernick":6468,"Ġraphael":6469,"nationalyears":6470,"nationalcaps":6471,"Ġdunlap":6472,"Ġtaught":6473,"Ġalfonso":6474,"Ġclassic":6475,"Ġconnection":6476,"Ġadams":6477,"Ġfights":6478,"Ġdrummer":6479,"Ġturnt":6480,"Ġgraham":6481,"Ġkhokhl":6482,"Ġbroncos":6483,"Ġrichardson":6484,"Ġremain":6485,"Ġmiddleton":6486,"Ġrhine":6487,"Ġrhode":6488,"Ġabdulaziz":6489,"Ġsisters":6490,"Ġcornillet":6491,"Ġcardinal":6492,"Ġrams":6493,"Ġexperi":6494,"Ġhonorary":6495,"Ġphilippine":6496,"Ġsaty":6497,"Ġmathe":6498,"Ġdiocese":6499,"Ġtalent":6500,"stars":6501,"Ġraunki":6502,"Ġsporting":6503,"Ġcomplete":6504,"Ġcompleted":6505,"Ġbulgarian":6506,"Äįi":6507,"Ġvikings":6508,"Ġserbia":6509,"Ġrecognition":6510,"Ġfrancesa":6511,"Ġ1798":6512,"Ġzimbab":6513,"Ġjacobs":6514,"Ġdoris":6515,"chenko":6516,"Ġlincolnshire":6517,"Ġcrimes":6518,"Ġswedish":6519,"Ġurugu":6520,"Ġhodgkin":6521,"Ġnigel":6522,"Ġlimerick":6523,"ĠrenÃ©":6524,"Ġundraftedyear":6525,"Ġimpact":6526,"Ġepisode":6527,"Ġepiscop":6528,"Ġfulton":6529,"Ġfulop":6530,"Ġmiyagi":6531,"Ġoakland":6532,"Ġagriculture":6533,"Ġphysicist":6534,"Ġcatanz":6535,"Ġhyde":6536,"Ġpromotion":6537,"Ġconstruction":6538,"Ġcommonwealth":6539,"Ġmurders":6540,"josÃ©":6541,"Ġsouter":6542,"Ġbernard":6543,"Ġcfb":6544,"Ġcfldrafted":6545,"Ġpornographic":6546,"Ġdynamo":6547,"Ġdynasty":6548,"Ġchamber":6549,"ampaign":6550,"Ġemploy":6551,"Ġsorok":6552,"Ġinfantry":6553,"Ġsemi":6554,"Ġmemorial":6555,"Ġsculptor":6556,"Ġbushman":6557,"Ġpublishing":6558,"Ġparticularly":6559,"Ġblood":6560,"Ġtasman":6561,"Ġjaneiro":6562,"Ġdiscovered":6563,"Ġnikolai":6564,"Ġcska":6565,"Ġcassina":6566,"Ġpapal":6567,"Ġmixed":6568,"Ġappeals":6569,"Ġstatsend":6570,"Ġnottinghamshire":6571,"Ġparalympic":6572,"prior":6573,"Ã¦r":6574,"Ġcadman":6575,"Ġcastro":6576,"Ġcultural":6577,"Ġwitness":6578,"Ġgiovanna":6579,"Ġriding":6580,"abrata":6581,"Ġblondie":6582,"Ġsubsequently":6583,"Ġnigeria":6584,"Ġprosecutor":6585,"between":6586,"Ġsafety":6587,"Ġhunter":6588,"Ġhusband":6589,"Ġhannachi":6590,"Ġdocumentary":6591,"Ġtangerang":6592,"Ġtennessee":6593,"Ġcooley":6594,"Ġcousin":6595,"ĠhernÃ¡ndez":6596,"Ġgymnast":6597,"oumand":6598,"Ġselvan":6599,"Ġjenner":6600,"Ġkonovalova":6601,"Ġkazakh":6602,"Ġplatform":6603,"Ġtestified":6604,"akashvili":6605,"ĠuniversitÃ©":6606,"Ġfilipino":6607,"Ġsynth":6608,"football":6609,"Ġhollywood":6610,"originalteam":6611,"Ġdatabasefootball":6612,"Ġsacramento":6613,"Ġbennett":6614,"Ġwanderers":6615,"Ġnunez":6616,"ĠgÃ³rnik":6617,"Ġlionel":6618,"Ġkosovo":6619,"ĠkukÃ«":6620,"aciari":6621,"Ġvariety":6622,"Ġprolific":6623,"Ġabstract":6624,"Ġgalatto":6625,"zhemal":6626,"Ġsierra":6627,"Ġsolicitor":6628,"Ġthugutt":6629,"Ġpentath":6630,"Ġpseud":6631,"Ġmurray":6632,"Ġwaghorn":6633,"Ġwchinitz":6634,"issbecker":6635,"Ġottawa":6636,"Ġanchor":6637,"Ġtbilisi":6638,"Ġkallianpur":6639,"Ġkarylle":6640,"Ġkerala":6641,"Ġriffel":6642,"Ġrhythm":6643,"Ġeintracht":6644,"Ġtettau":6645,"Ġconspiracy":6646,"Ġmemphis":6647,"Ġorioles":6648,"Ġedmonds":6649,"Ġbrunei":6650,"Ġnorwegian":6651,"Ġdeshpande":6652,"Ġfetherstonhaugh":6653,"Ġcambridgeshire":6654,"Ġtorpedo":6655,"Ġkhokhlova":6656,"ĠraunkiÃ¦r":6657,"Ġzimbabwe":6658,"Ġuruguay":6659,"Ġcatanzaro":6660,"05":6661,"08":6662,"38":6663,"41":6664,"42":6665,"66":6666,"69":6667,"71":6668,"@@":6669,"bu":6670,"bun":6671,"cing":6672,"cent":6673,"cess":6674,"ctions":6675,"cza":6676,"df":6677,"dor":6678,"duc":6679,"dine":6680,"dog":6681,"ect":6682,"eks":6683,"fern":6684,"gory":6685,"ghan":6686,"gift":6687,"hic":6688,"hat":6689,"horn":6690,"hod":6691,"hwa":6692,"hassan":6693,"ique":6694,"jim":6695,"juan":6696,"kk":6697,"kelly":6698,"lja":6699,"listed":6700,"luna":6701,"mc":6702,"mate":6703,"mus":6704,"mat":6705,"mian":6706,"mud":6707,"macht":6708,"nar":6709,"nla":6710,"not":6711,"nie":6712,"ners":6713,"naciari":6714,"pon":6715,"pic":6716,"pat":6717,"pet":6718,"qla":6719,"qme":6720,"rl":6721,"rice":6722,"rÃ¢":6723,"rcb":6724,"sar":6725,"sing":6726,"tation":6727,"uals":6728,"uable":6729,"vna":6730,"wo":6731,"wid":6732,"writ":6733,"wright":6734,"yam":6735,"zal":6736,"zel":6737,"zqu":6738,"zhan":6739,"ÅĻ":6740,"ÈĻ":6741,"ÑĤ":6742,"Õ¡":6743,"Ø§":6744,"Ùħ":6745,"ĠÄ":6746,"Ġrb":6747,"Ġted":6748,"Ġaka":6749,"erated":6750,"ergy":6751,"thal":6752,"thani":6753,"thias":6754,"inck":6755,"intire":6756,"onic":6757,"anor":6758,"ange":6759,"anÃ©":6760,"Ġsud":6761,"Ġsack":6762,"Ġsade":6763,"Ġsmyth":6764,"ori":6765,"ortion":6766,"orced":6767,"orough":6768,"tition":6769,"titt":6770,"Ġbit":6771,"Ġbent":6772,"Ġbug":6773,"Ġbou":6774,"Ġbord":6775,"Ġbio":6776,"Ġbash":6777,"Ġcn":6778,"Ġcot":6779,"Ġcow":6780,"Ġcly":6781,"Ġcart":6782,"Ġcamil":6783,"Ġcoss":6784,"Ġcampaign":6785,"eno":6786,"ener":6787,"enos":6788,"Ġthings":6789,"Ġthrew":6790,"Ġped":6791,"Ġpard":6792,"ĠpÃ©":6793,"Ġpied":6794,"Ġpeng":6795,"Ġfla":6796,"Ġfat":6797,"Ġfill":6798,"alam":6799,"alat":6800,"alty":6801,"alberto":6802,"aliza":6803,"alchik":6804,"alaksh":6805,"lez":6806,"Ġmla":6807,"Ġmand":6808,"Ġmash":6809,"Ġmats":6810,"Ġmanda":6811,"Ġmental":6812,"Ġwy":6813,"Ġwatch":6814,"Ġwww":6815,"Ġwings":6816,"Ġwelf":6817,"Ġwsop":6818,"Ġwimb":6819,"Ġwestervelt":6820,"tec":6821,"teiro":6822,"iser":6823,"ised":6824,"Ġoz":6825,"Ġols":6826,"Ġobe":6827,"Ġhous":6828,"Ġhier":6829,"Ġhib":6830,"ref":6831,"reme":6832,"reys":6833,"Ġdag":6834,"Ġdres":6835,"Ġdedic":6836,"Ġdublin":6837,"Ġdungan":6838,"Ġdzhemal":6839,"Ġns":6840,"Ġnard":6841,"Ġnone":6842,"Ġnike":6843,"Ġnico":6844,"Ġnathan":6845,"Ġnalchik":6846,"asz":6847,"aman":6848,"ammal":6849,"Ġanalyst":6850,"ict":6851,"icester":6852,"icluna":6853,"edd":6854,"edra":6855,"edones":6856,"editary":6857,"rober":6858,"royo":6859,"Ġtap":6860,"Ġtart":6861,"Ġtav":6862,"Ġtry":6863,"ĠtÄĥ":6864,"ingen":6865,"Ġandre":6866,"Ġandino":6867,"Ġjag":6868,"Ġjaro":6869,"Ġgab":6870,"Ġgendall":6871,"Ġgjess":6872,"elled":6873,"usa":6874,"usha":6875,"chise":6876,"olker":6877,"ils":6878,"ilson":6879,"uraj":6880,"entures":6881,"atus":6882,"atter":6883,"Ġlus":6884,"Ġlov":6885,"Ġlog":6886,"ĠlÃ³":6887,"Ġlower":6888,"Ġlilian":6889,"Ġdehn":6890,"Ġdexter":6891,"iga":6892,"igrated":6893,"Ġki":6894,"Ġkor":6895,"Ġkad":6896,"Ġkow":6897,"Ġkick":6898,"Ġkbo":6899,"Ġkais":6900,"Ġkwan":6901,"Ġklim":6902,"Ġkavan":6903,"Ġkrystal":6904,"Ġkonstantin":6905,"Ġkolker":6906,"Ġreso":6907,"Ġreyn":6908,"ationally":6909,"Ġara":6910,"Ġarran":6911,"Ġartis":6912,"Ġartie":6913,"Ġarroyo":6914,"stud":6915,"stown":6916,"Ġraf":6917,"Ġrally":6918,"Ġrnla":6919,"Ġforced":6920,"Ġfornaciari":6921,"adze":6922,"aging":6923,"aglia":6924,"sim":6925,"sively":6926,"terfield":6927,"terweight":6928,"omm":6929,"omes":6930,"Ġisa":6931,"Ġistan":6932,"andar":6933,"andre":6934,"tleworth":6935,"Ġstor":6936,"Ġstay":6937,"Ġstren":6938,"Ġstash":6939,"Ġstlb":6940,"ulam":6941,"ulik":6942,"Ġyam":6943,"Ġet":6944,"Ġech":6945,"titles":6946,"Ġalc":6947,"Ġalice":6948,"Ġalberto":6949,"Ġalvar":6950,"Ġchang":6951,"Ġchinn":6952,"Ġchester":6953,"Ġchely":6954,"vetiÄĩ":6955,"accord":6956,"Ġasked":6957,"vert":6958,"Ġuno":6959,"Ġunex":6960,"idus":6961,"Ġheer":6962,"Ġheat":6963,"Ġheidel":6964,"Ġvid":6965,"Ġvital":6966,"Ġvps":6967,"ayama":6968,"ettes":6969,"uts":6970,"uttleworth":6971,"ubara":6972,"owder":6973,"Ġseen":6974,"Ġseate":6975,"Ġsemp":6976,"Ġsemin":6977,"ctly":6978,"Ġlect":6979,"Ġleast":6980,"Ġleeds":6981,"Ġleagues":6982,"Ġleicester":6983,"iston":6984,"istan":6985,"rik":6986,"riac":6987,"ugal":6988,"ume":6989,"umi":6990,"umm":6991,"osh":6992,"osted":6993,"arts":6994,"arton":6995,"Ġfood":6996,"Ġcop":6997,"Ġcoughlin":6998,"Ġcourse":6999,"Ġprote":7000,"Ġtess":7001,"geous":7002,"usty":7003,"Ġimper":7004,"Ġnep":7005,"Ġmarco":7006,"Ġmarlow":7007,"iez":7008,"shot":7009,"Ġlah":7010,"Ġspir":7011,"Ġspokes":7012,"Ġspencer":7013,"Ġcontest":7014,"Ġcomment":7015,"esto":7016,"illermo":7017,"ifford":7018,"Ġnewport":7019,"Ġjob":7020,"oved":7021,"ovÃ¡":7022,"Ġshao":7023,"Ġcoll":7024,"Ġcolom":7025,"avian":7026,"Ġmeg":7027,"Ġmeier":7028,"Ġmeena":7029,"abinsk":7030,"ebvre":7031,"versy":7032,"ipeg":7033,"Ġboer":7034,"Ġboyce":7035,"irelja":7036,"ucas":7037,"ucks":7038,"Ġ58":7039,"tonzo":7040,"Ġoreg":7041,"Ġorzel":7042,"unda":7043,"elli":7044,"Ġscar":7045,"Ġscicluna":7046,"Ġcare":7047,"Ġcarter":7048,"zej":7049,"Ġnoble":7050,"Ġenvir":7051,"Ġmohi":7052,"Ġmounce":7053,"leste":7054,"Ġrecru":7055,"owned":7056,"Ġoccas":7057,"Ġjulius":7058,"Ġoccupied":7059,"ffman":7060,"ffany":7061,"Ġmans":7062,"Ġmanif":7063,"Ġmanzullo":7064,"Ġhermann":7065,"Ġhereditary":7066,"Ã©r":7067,"Ã©llar":7068,"Ġ72":7069,"Ġ79":7070,"Ġuqla":7071,"Ġcurrentposition":7072,"assin":7073,"assnig":7074,"Ġparent":7075,"Ġfirm":7076,"Ġkne":7077,"there":7078,"therland":7079,"Ġedition":7080,"Ġeduard":7081,"Ġdecemberists":7082,"onda":7083,"Ġbrand":7084,"Ġbristol":7085,"Ġbrighton":7086,"Ġbricker":7087,"ulls":7088,"Ġprus":7089,"Ġ101":7090,"Ġ103":7091,"Ġminas":7092,"Ġminne":7093,"Ġ93":7094,"Ġ97":7095,"Ġreport":7096,"ĠsuÃ¡":7097,"Ġgene":7098,"Ġgenoc":7099,"asha":7100,"Ġzia":7101,"Ġzah":7102,"Ġzone":7103,"ĠzÃ¼":7104,"Ġzhu":7105,"sheikha":7106,"Ġsheikha":7107,"board":7108,"book":7109,"Ġadrian":7110,"Ġadalbert":7111,"Ġadela":7112,"Ġfranchise":7113,"Ġdrawn":7114,"Ġ1604":7115,"Ġwealth":7116,"Ġwehr":7117,"Ġweissbecker":7118,"Ġweeks":7119,"Ġfilmm":7120,"Ġexcell":7121,"Ġperman":7122,"Ġafghan":7123,"Ġafzal":7124,"Ġbross":7125,"Ġacqu":7126,"olds":7127,"Ġbasaglia":7128,"annone":7129,"annette":7130,"Ġbarioz":7131,"azar":7132,"Ġwarwick":7133,"Ġguest":7134,"Ġmedalist":7135,"Ġgerais":7136,"Ġsteing":7137,"Ġstehl":7138,"encing":7139,"Ġevol":7140,"burton":7141,"coe":7142,"Ġcharge":7143,"Ġstatseason":7144,"atih":7145,"atiya":7146,"loe":7147,"Ġbacking":7148,"afa":7149,"Ġgram":7150,"Ġability":7151,"Ġirving":7152,"Ġharari":7153,"Ġsochi":7154,"Ġearli":7155,"Ġsanj":7156,"Ġpeace":7157,"Ġpeters":7158,"Ġpeggy":7159,"Ġblock":7160,"Ġblitz":7161,"Ġweightlif":7162,"Ġmonte":7163,"Ġmonmouth":7164,"Ġchampions":7165,"pez":7166,"peter":7167,"inny":7168,"cape":7169,"Ġgreater":7170,"Ġmichurin":7171,"Ġamin":7172,"ĠamÃ©":7173,"atherine":7174,"Ġregion":7175,"Ġattkis":7176,"liga":7177,"most":7178,"inda":7179,"gery":7180,"haus":7181,"Ġretiring":7182,"evo":7183,"Ġsymb":7184,"ulty":7185,"Ġwellington":7186,"Ġ1860":7187,"Ġ1861":7188,"Ġ1862":7189,"Ġprieto":7190,"Ġlegend":7191,"Ã¼hr":7192,"Ġothername":7193,"Ġlouisville":7194,"Ġbuenos":7195,"Ġ1882":7196,"Ġ1884":7197,"Ġ1888":7198,"Ġeventually":7199,"minster":7200,"Ġhelsin":7201,"Ġmetro":7202,"Ġskater":7203,"Ġskvernyuk":7204,"Ġsalman":7205,"ĠsalÃ©":7206,"Ġsalhab":7207,"Ġsuppor":7208,"Ġyounger":7209,"rapp":7210,"hanammal":7211,"Ġfoundation":7212,"Ġmori":7213,"itzner":7214,"Ġfields":7215,"Ġxii":7216,"Ġinterim":7217,"Ġinterior":7218,"Ġprimary":7219,"nozhan":7220,"Ġbelong":7221,"Ġluiz":7222,"Ġcreate":7223,"Ġcreator":7224,"Ġgoldsb":7225,"Ġjacksons":7226,"Ġbreeland":7227,"Ġestim":7228,"Ġportland":7229,"Ġportugal":7230,"Ġliu":7231,"Ġarchae":7232,"Ġfrankie":7233,"Ġfrankfurt":7234,"Ġdesigned":7235,"Ġavn":7236,"Ġaviv":7237,"Ġmusicians":7238,"Ġhonours":7239,"Ġfarm":7240,"Ġfarmer":7241,"Ġkara":7242,"Ġtechno":7243,"Ġmagomed":7244,"Ġsurvey":7245,"Ġsurgery":7246,"Ġdivorced":7247,"Ġtowns":7248,"Ġdrink":7249,"Ġdrucker":7250,"Ġeleven":7251,"Ġmakusha":7252,"hoteiro":7253,"Ġdomina":7254,"Ġtreas":7255,"Ġsixth":7256,"Ġtenure":7257,"Ġ1804":7258,"Ġleadership":7259,"Ġmovie":7260,"Ġodi":7261,"Ġjosh":7262,"Ġmadoun":7263,"Ġwoodworth":7264,"Ġjerko":7265,"borhood":7266,"Ġcele":7267,"Ġpanel":7268,"Ġmerli":7269,"Ġwesley":7270,"Ġargu":7271,"Ġargona":7272,"2010":7273,"Ġopened":7274,"Ġhambridge":7275,"Ġhamzeh":7276,"Ġvotes":7277,"1992":7278,"1994":7279,"1997":7280,"1999":7281,"Ġlarrousse":7282,"Ġracer":7283,"Ġ1853":7284,"Ġ1854":7285,"gaard":7286,"Ġtaken":7287,"Ġtaking":7288,"Ġ1832":7289,"Ġ1836":7290,"Ġakbar":7291,"Ġboroumand":7292,"Ġnbl":7293,"Ġdevon":7294,"Ġtrading":7295,"bross":7296,"Ġjacques":7297,"Ġmontene":7298,"ĠmontanÃ©":7299,"nationalpoints":7300,"richt":7301,"Ġalfons":7302,"ructor":7303,"Ġveter":7304,"Ġvegas":7305,"Ġburlington":7306,"Ġroberto":7307,"Ġcongression":7308,"Ġstephens":7309,"werdine":7310,"Ġlineup":7311,"uzi":7312,"Ġduo":7313,"Ġnatalya":7314,"Ġobree":7315,"Ġkhalif":7316,"Ġbobby":7317,"Ġkeith":7318,"Ġphoto":7319,"Ġminority":7320,"Ġchef":7321,"Ġprestig":7322,"Ġdiscip":7323,"Ġfaith":7324,"Ġfaustino":7325,"Ġferdin":7326,"Ġdrift":7327,"Ġdecorated":7328,"Ġdaniels":7329,"Ġsatterfield":7330,"Ġethniki":7331,"Ġpaolo":7332,"Ġandrade":7333,"Ġraid":7334,"Ġcomplex":7335,"Ġspecializ":7336,"Äįar":7337,"tiglio":7338,"Ġbiology":7339,"Ġbiggest":7340,"Ġjordy":7341,"Ġtight":7342,"Ġiranian":7343,"cussion":7344,"Ġpenev":7345,"Ġinnoc":7346,"Ġcycling":7347,"Ġargentine":7348,"Ġbachar":7349,"Ġmikel":7350,"Ġgilles":7351,"Ġkuqi":7352,"Ġashok":7353,"Ġzimbru":7354,"Ġcommissioner":7355,"Ġtracks":7356,"personnel":7357,"Ġmacho":7358,"Ġhoward":7359,"Ġcriminal":7360,"Ã§a":7361,"Ġjakovich":7362,"Ġgregory":7363,"Ġsimply":7364,"Ġjonathan":7365,"Ġhawai":7366,"Ġmathematics":7367,"Ġfernando":7368,"Ġwelterweight":7369,"Ġweekend":7370,"Ġcontroversy":7371,"Ġlasttestdate":7372,"Ġlasttestyear":7373,"Ġtestdebutdate":7374,"Ġtestdebutyear":7375,"Ġbadan":7376,"Ġoaks":7377,"Ġligue":7378,"Ġkwitney":7379,"Ġagricola":7380,"Ġmaxim":7381,"Ã´nid":7382,"Ġbulls":7383,"Ġfloinn":7384,"Ġnarain":7385,"institution":7386,"Ġhuriez":7387,"Ġheavyweight":7388,"Ġletters":7389,"Ġbeauties":7390,"Ã¼rgen":7391,"Ã¶nig":7392,"Ġlanguages":7393,"Ġglobalport":7394,"Ġsquadron":7395,"Ġaires":7396,"Ġaiken":7397,"Ġfelic":7398,"Ġfaculty":7399,"Ġconfir":7400,"Ġsculpture":7401,"Ġiraq":7402,"Ġpitched":7403,"batting":7404,"Ġidenti":7405,"Ġahlin":7406,"Ġmladost":7407,"Ġreferee":7408,"Ġdiscovery":7409,"Ġbuilding":7410,"eanu":7411,"Ã¯d":7412,"Ġinstructor":7413,"Ġlipschis":7414,"Ġeugene":7415,"Ġneighbors":7416,"Ġneighborhood":7417,"Ġhistorian":7418,"voÅĻ":7419,"Ġiain":7420,"Ġbharatiya":7421,"Ġpunj":7422,"Ġwinnipeg":7423,"Ġnairob":7424,"Ġgreek":7425,"Ġarnold":7426,"Ġprisoner":7427,"Ġbriefly":7428,"Ġacclaimed":7429,"jeraye":7430,"Ġsabres":7431,"Ġantonia":7432,"Ġjamie":7433,"Ġkameisha":7434,"Ġmarriott":7435,"Ġcomedian":7436,"Ã¡zquez":7437,"Ġdispute":7438,"Ġinvestor":7439,"bakoto":7440,"katalaksh":7441,"ĠcuÃ©llar":7442,"ĠcÃ´tÃ©":7443,"Ġpageant":7444,"Ġfavorite":7445,"ĠgonzÃ¡":7446,"oliÅĦ":7447,"Ġstakes":7448,"Ġproperty":7449,"Ġspinelli":7450,"Ġhassanal":7451,"Ġbestseller":7452,"Ġswimming":7453,"Ġvictims":7454,"cestershire":7455,"Ġmcneal":7456,"Ġbaptist":7457,"Ġcubs":7458,"Ġpfitzner":7459,"Ġpereira":7460,"Ġmamnoon":7461,"Ġwerner":7462,"Ġwrite":7463,"Ġinaugural":7464,"Ġtulane":7465,"Ġravens":7466,"Ġprobably":7467,"Ġcapitol":7468,"Ġshepard":7469,"Ġevangelical":7470,"Ġdissociatives":7471,"Ġconsultant":7472,"Ġoldershaw":7473,"Ġcornerback":7474,"krieg":7475,"ispatih":7476,"Ġdigital":7477,"Ġdundee":7478,"Ġkatsidis":7479,"Ġrashani":7480,"Ġchaos":7481,"Ġvillar":7482,"Ġvenetiglio":7483,"Ġorchestra":7484,"Ġpratap":7485,"Ġperhaps":7486,"Ġscientific":7487,"Ġsylvester":7488,"Ġbuilt":7489,"Ġpatriots":7490,"Ġmatheus":7491,"zquita":7492,"Ġbugadze":7493,"Ġcotton":7494,"ĠpÃ©rez":7495,"Ġpiedmont":7496,"Ġwelfare":7497,"Ġwimbled":7498,"Ġhierl":7499,"Ġhibbert":7500,"Ġdagest":7501,"Ġnardini":7502,"roberts":7503,"Ġtartu":7504,"ĠtÄĥrÃ¢":7505,"Ġjarosik":7506,"Ġgjessing":7507,"ĠlÃ³pez":7508,"Ġkowal":7509,"Ġklimenko":7510,"Ġresour":7511,"Ġreynolds":7512,"Ġarranger":7513,"Ġistanbul":7514,"Ġstreng":7515,"Ġstashwick":7516,"Ġalvarado":7517,"Ġchelyabinsk":7518,"according":7519,"ĠsempoliÅĦ":7520,"Ġtessa":7521,"Ġimperial":7522,"Ġoregon":7523,"Ġenviron":7524,"Ġminneapolis":7525,"ĠsuÃ¡rez":7526,"ĠzÃ¼rich":7527,"Ġadelaide":7528,"Ġwehrmacht":7529,"Ġwarwickshire":7530,"Ġearliest":7531,"Ġmonmouthshire":7532,"Ġattkisson":7533,"Ã¼hrer":7534,"Ġhelsinki":7535,"Ġgoldsborough":7536,"Ġmadouni":7537,"Ġargonauts":7538,"Ġcongressional":7539,"Ġkhalifa":7540,"Ġprestigious":7541,"Ġferdinand":7542,"Ã´nidas":7543,"voÅĻÃ¡k":7544,"Ġnairobi":7545,"ĠgonzÃ¡lez":7546,"02":7547,"31":7548,"50":7549,"94":7550,"97":7551,"bas":7552,"bed":7553,"bra":7554,"bell":7555,"bull":7556,"bone":7557,"city":7558,"current":7559,"caw":7560,"cÄ±":7561,"db":7562,"dj":7563,"dem":7564,"duk":7565,"detti":7566,"dwid":7567,"ei":7568,"east":7569,"efe":7570,"fd":7571,"fay":7572,"fade":7573,"fisk":7574,"fÃ¼hrer":7575,"ging":7576,"gve":7577,"gio":7578,"gai":7579,"gger":7580,"gÃ¼":7581,"ghi":7582,"ggen":7583,"has":7584,"him":7585,"hiv":7586,"hung":7587,"hwan":7588,"hussein":7589,"half":7590,"hawks":7591,"iary":7592,"ires":7593,"iques":7594,"jk":7595,"jpe":7596,"jose":7597,"jÃ¶":7598,"jablonski":7599,"kv":7600,"kÃ¡":7601,"ksti":7602,"lsh":7603,"lou":7604,"long":7605,"lker":7606,"lived":7607,"mg":7608,"may":7609,"mos":7610,"mith":7611,"mov":7612,"mates":7613,"nies":7614,"ncl":7615,"nai":7616,"oted":7617,"otia":7618,"pin":7619,"pol":7620,"part":7621,"pey":7622,"pop":7623,"pass":7624,"pah":7625,"pris":7626,"powder":7627,"rin":7628,"rath":7629,"rge":7630,"rue":7631,"rÃ³":7632,"rÃ¶":7633,"sum":7634,"tom":7635,"tors":7636,"tÃ³":7637,"vi":7638,"vid":7639,"vÃ¡":7640,"wal":7641,"wers":7642,"wak":7643,"wich":7644,"wang":7645,"wford":7646,"yat":7647,"youl":7648,"zas":7649,"zig":7650,"zka":7651,"zhou":7652,"Ã²":7653,"Å«":7654,"Å¾":7655,"Ê»":7656,"ÑĢ":7657,"×¨":7658,"ÙĬ":7659,"à¥":7660,"æĸ":7661,"æĿ":7662,"Ġ+":7663,"Ġ@":7664,"Ġì":7665,"Ġord":7666,"Ġiz":7667,"Ġvern":7668,"Ġesse":7669,"Ġà¤":7670,"ģÄĻ":7671,"ĩÄ±":7672,"ľmit":7673,"Ġame":7674,"Ġamy":7675,"Ġaless":7676,"Ġaux":7677,"Ġaqme":7678,"eri":7679,"ering":7680,"tha":7681,"these":7682,"thuiz":7683,"inen":7684,"iners":7685,"inari":7686,"onen":7687,"onis":7688,"onia":7689,"onse":7690,"onius":7691,"anan":7692,"anova":7693,"anlan":7694,"Ġsund":7695,"Ġsung":7696,"Ġsind":7697,"Ġsite":7698,"Ġsnap":7699,"orum":7700,"orets":7701,"tiar":7702,"tiful":7703,"Ġbt":7704,"Ġbac":7705,"Ġbard":7706,"Ġbart":7707,"Ġbion":7708,"Ġbak":7709,"Ġbell":7710,"Ġbond":7711,"Ġbled":7712,"Ġbau":7713,"Ġbiff":7714,"Ġbomb":7715,"Ġbaksh":7716,"arh":7717,"article":7718,"arri":7719,"Ġcb":7720,"Ġcd":7721,"Ġces":7722,"Ġcit":7723,"Ġcim":7724,"Ġclo":7725,"ename":7726,"enov":7727,"enlan":7728,"Ġther":7729,"Ġthai":7730,"Ġthunder":7731,"Ġthumb":7732,"Ġpas":7733,"Ġpel":7734,"Ġpack":7735,"Ġpend":7736,"Ġpure":7737,"Ġpair":7738,"Ġpng":7739,"Ġpelle":7740,"Ġporter":7741,"Ġft":7742,"Ġfu":7743,"Ġfro":7744,"Ġfresh":7745,"ality":7746,"alÃ©":7747,"lem":7748,"lex":7749,"leigh":7750,"leader":7751,"leuli":7752,"Ġmb":7753,"Ġmorn":7754,"Ġmap":7755,"Ġmull":7756,"Ġmater":7757,"Ġmys":7758,"Ġmite":7759,"Ġmald":7760,"Ġmitch":7761,"Ġmgang":7762,"Ġwu":7763,"Ġwol":7764,"Ġwall":7765,"Ġwages":7766,"Ġwaff":7767,"Ġwncl":7768,"teg":7769,"tees":7770,"teous":7771,"Ġtheod":7772,"Ġtheuer":7773,"Ġour":7774,"Ġost":7775,"Ġotis":7776,"Ġoulu":7777,"Ġhir":7778,"Ġhug":7779,"Ġhov":7780,"Ġhurr":7781,"Ġhort":7782,"Ġholl":7783,"Ġhoss":7784,"ĠhÃ¶":7785,"Ġhwon":7786,"Ġhighton":7787,"Ġhrn":7788,"Ġhosted":7789,"Ġhvid":7790,"reu":7791,"rev":7792,"recht":7793,"Ġdw":7794,"Ġdorn":7795,"Ġdak":7796,"Ġdial":7797,"Ġdoll":7798,"Ġdna":7799,"Ġduty":7800,"Ġdenny":7801,"Ġdhanammal":7802,"Ġnand":7803,"Ġnap":7804,"Ġnames":7805,"Ġnied":7806,"Ġnakh":7807,"Ġnolan":7808,"Ġnielsen":7809,"astic":7810,"aster":7811,"asia":7812,"asima":7813,"amar":7814,"amble":7815,"amura":7816,"amsa":7817,"Ġani":7818,"escu":7819,"espn":7820,"laots":7821,"icial":7822,"roy":7823,"rose":7824,"robert":7825,"Ġtin":7826,"Ġtren":7827,"Ġtina":7828,"Ġtavor":7829,"Ġtuddenham":7830,"ingchen":7831,"Ġandrey":7832,"Ġja":7833,"Ġjat":7834,"Ġjae":7835,"ĠjÃ¼rgen":7836,"Ġgus":7837,"Ġgol":7838,"Ġgag":7839,"Ġgot":7840,"Ġgia":7841,"Ġgys":7842,"Ġgale":7843,"ĠgÃ¢":7844,"Ġgains":7845,"elius":7846,"ustee":7847,"itan":7848,"itals":7849,"chap":7850,"chant":7851,"olcs":7852,"ilure":7853,"ilty":7854,"urist":7855,"urry":7856,"urci":7857,"entor":7858,"entry":7859,"Ġlg":7860,"Ġlen":7861,"Ġlal":7862,"Ġlil":7863,"Ġlia":7864,"Ġlump":7865,"Ġlomb":7866,"Ġlassnig":7867,"heorg":7868,"Ġdean":7869,"Ġdeck":7870,"Ġdemo":7871,"igg":7872,"Ġkm":7873,"Ġky":7874,"Ġkin":7875,"Ġkov":7876,"Ġkah":7877,"Ġkann":7878,"ĠkÃ¼":7879,"Ġkyle":7880,"Ġkato":7881,"Ġkumon":7882,"Ġkush":7883,"Ġkulik":7884,"Ġkunda":7885,"ĠkÃ¶nig":7886,"Ġreplace":7887,"Ġreich":7888,"Ġrefor":7889,"Ġremember":7890,"Ġreiche":7891,"Ġarsen":7892,"str":7893,"stop":7894,"strow":7895,"Ġring":7896,"Ġriv":7897,"Ġrah":7898,"Ġratch":7899,"Ġruth":7900,"Ġwasan":7901,"Ġforest":7902,"Ġforec":7903,"Ġforens":7904,"adr":7905,"ady":7906,"adas":7907,"adium":7908,"Ġtodd":7909,"tered":7910,"omorets":7911,"ime":7912,"ims":7913,"Ġisay":7914,"andrew":7915,"Ġsty":7916,"Ġston":7917,"Ġsting":7918,"Ġstra":7919,"Ġstanding":7920,"Ġstrock":7921,"Ġstadium":7922,"Ġyann":7923,"Ġyarm":7924,"Ġyasser":7925,"Ġey":7926,"Ġeto":7927,"Ġegar":7928,"Ġewing":7929,"Ġeidus":7930,"Ġalash":7931,"Ġalways":7932,"Ġalmost":7933,"Ġchid":7934,"Ġchenn":7935,"Ġchile":7936,"Ġchmel":7937,"Ġchallen":7938,"vez":7939,"acional":7940,"Ġasher":7941,"very":7942,"Ġarticles":7943,"otb":7944,"Ġheir":7945,"Ġhewerdine":7946,"apest":7947,"ighteous":7948,"Ġviel":7949,"Ġvind":7950,"Ġviet":7951,"Ġvinny":7952,"ĠvÃ¡zquez":7953,"ayo":7954,"etton":7955,"etnik":7956,"Ġleen":7957,"Ġlege":7958,"Ġlester":7959,"Ġleandro":7960,"ĠleÃ´nidas":7961,"athard":7962,"athaling":7963,"Ġwhar":7964,"Ġwheler":7965,"Ġwharton":7966,"istence":7967,"riers":7968,"rielle":7969,"arde":7970,"Ġ1820":7971,"Ġplaywright":7972,"Ġnationalist":7973,"osed":7974,"Ġfought":7975,"Ġcoleman":7976,"Ġ0000":7977,"resti":7978,"Ġtem":7979,"Ġteen":7980,"Ġtehran":7981,"Ġteksti":7982,"Ġbey":7983,"Ġbeathard":7984,"Ġiman":7985,"Ġimran":7986,"Ġneuf":7987,"occup":7988,"ueger":7989,"uejeraye":7990,"derick":7991,"Ġpole":7992,"Ġpoul":7993,"Ġpound":7994,"Ġpoem":7995,"Ġmarine":7996,"iej":7997,"shel":7998,"shish":7999,"shav":8000,"shuttleworth":8001,"manager":8002,"Ġlaurie":8003,"oux":8004,"Ġspar":8005,"Ġspace":8006,"udes":8007,"udine":8008,"ballos":8009,"Ġconor":8010,"ionov":8011,"ionios":8012,"akin":8013,"akers":8014,"akcÄ±":8015,"Ġcombr":8016,"eye":8017,"illic":8018,"ishna":8019,"Ġnewark":8020,"ovan":8021,"ovre":8022,"ovaj":8023,"Ġshik":8024,"Ġshiz":8025,"Ġshib":8026,"ickly":8027,"ends":8028,"rane":8029,"Ġapart":8030,"Ġapoll":8031,"Ġapost":8032,"avedra":8033,"Ġmehran":8034,"Ġmeeting":8035,"ably":8036,"ables":8037,"abolcs":8038,"ipers":8039,"ipworth":8040,"Ġjana":8041,"Ġjanash":8042,"soe":8043,"achev":8044,"Ġ67":8045,"Ġboo":8046,"Ġboog":8047,"ivÃ¢":8048,"tong":8049,"Ġorator":8050,"ikyan":8051,"Ġscand":8052,"Ġscotia":8053,"Ġscurry":8054,"Ġcarmel":8055,"eco":8056,"Ġprefe":8057,"Ġprecious":8058,"Ġnoel":8059,"Ġnohar":8060,"Ġnothing":8061,"Ġencom":8062,"Ġenergy":8063,"Ġmoon":8064,"Ġmoor":8065,"Ġmoen":8066,"Ġmoore":8067,"Ġmoley":8068,"oper":8069,"opes":8070,"Ġgohou":8071,"ograd":8072,"Ġpoly":8073,"astasi":8074,"astricht":8075,"ffie":8076,"Ġmandate":8077,"Ġmanier":8078,"Ġmanning":8079,"Ġmanuf":8080,"hne":8081,"ughter":8082,"Ġuwe":8083,"Ġurban":8084,"Ġuresti":8085,"Ġpartners":8086,"Ġcurrentnumber":8087,"Ġparish":8088,"Ġpartiz":8089,"Ġengle":8090,"Ġengaged":8091,"angalam":8092,"angionov":8093,"Ġknud":8094,"Ġtit":8095,"Ġtiffany":8096,"Ġtirath":8097,"peror":8098,"Ġedm":8099,"izka":8100,"Ġbruins":8101,"Ġbrumm":8102,"Ġschwart":8103,"Ġscharn":8104,"Ġ81":8105,"Ġ82":8106,"Ġ85":8107,"Ġ88":8108,"Ġ800":8109,"Ġcanucks":8110,"Ġprague":8111,"Ġpritch":8112,"sef":8113,"clus":8114,"Ġcollegi":8115,"Ġcollections":8116,"Ġ106":8117,"Ġfinals":8118,"urnoy":8119,"Ġcompeting":8120,"Ġcompiling":8121,"Ġ120":8122,"force":8123,"Ġ170":8124,"Ġmining":8125,"Ġmineral":8126,"Ġasselin":8127,"Ġ91":8128,"Ġ98":8129,"Ġ99":8130,"meth":8131,"Ġsutherland":8132,"Ġihl":8133,"Ġzen":8134,"Ġzap":8135,"Ġzhi":8136,"Ġzita":8137,"Ġziad":8138,"Ġzangionov":8139,"Ġsheikh":8140,"1945":8141,"boys":8142,"Ġadap":8143,"Ġadult":8144,"Ġadnan":8145,"Ġfranz":8146,"their":8147,"Ġfullback":8148,"Ġformercoach":8149,"Ġformerpart":8150,"adeth":8151,"Ġappony":8152,"Ġexistence":8153,"Ġperfe":8154,"Ġpercussion":8155,"anning":8156,"Ġ111":8157,"insinger":8158,"Ġusm":8159,"Ġusing":8160,"Ġusery":8161,"Ġusually":8162,"Ġusasz":8163,"Ġteresa":8164,"Ġnora":8165,"Ġnorman":8166,"Ġbarcel":8167,"Ġgeology":8168,"Ġgeoved":8169,"ajcza":8170,"Ġwarri":8171,"Ġwarburton":8172,"Ġguice":8173,"Ġguide":8174,"Ġguido":8175,"Ġguillermo":8176,"Ġguilty":8177,"Ġcommons":8178,"Ġgerard":8179,"Ã¡Å¡":8180,"Ġsteens":8181,"Ġevgen":8182,"coughlin":8183,"Ġbandleader":8184,"Ġcharam":8185,"Ġcharmian":8186,"atie":8187,"Ġgray":8188,"Ġgrendel":8189,"Ġactually":8190,"ledge":8191,"Ġabarca":8192,"Ġcruz":8193,"Ġhaico":8194,"Ġharris":8195,"Ġharald":8196,"Ġharmon":8197,"bylle":8198,"Ġsoon":8199,"Ġsolab":8200,"uthier":8201,"anca":8202,"Ġtrade":8203,"Ġtrustee":8204,"Ġsanter":8205,"Ġsanasy":8206,"Ġblu":8207,"Ġblas":8208,"brian":8209,"tista":8210,"Ġclan":8211,"Ġclifford":8212,"Ġdistinc":8213,"Ġmonk":8214,"Ġmostly":8215,"Ġruse":8216,"Ġruss":8217,"pect":8218,"Ġpresidency":8219,"Ġinternet":8220,"Ġinternationally":8221,"Ġbrace":8222,"Ġbraica":8223,"Ġbravery":8224,"Ġgreene":8225,"llor":8226,"Ġcrow":8227,"Ġcrown":8228,"2000":8229,"kauf":8230,"Ġamoo":8231,"Ġstarring":8232,"Ġqual":8233,"Ġquickly":8234,"vention":8235,"Ġgroza":8236,"hlrapp":8237,"ibe":8238,"Ġndong":8239,"Ġjackie":8240,"Ġswitch":8241,"Ġpublie":8242,"hail":8243,"itia":8244,"Ġmilitia":8245,"Ġhotel":8246,"Ġresult":8247,"Ġresumed":8248,"Ġmanaging":8249,"Ġpriti":8250,"Ġpriidu":8251,"Ġmcintire":8252,"Ġpopov":8253,"Ġ1874":8254,"Ġ1875":8255,"aula":8256,"Ã¼lker":8257,"Ġoutfielder":8258,"Ġoutstanding":8259,"Ġpatent":8260,"jean":8261,"ukoviÄĩ":8262,"Ġcastonzo":8263,"Ġbowring":8264,"Ġcorinth":8265,"Ġfrequently":8266,"Ġwebber":8267,"Ġconsecu":8268,"Ġsaud":8269,"Ġsaavedra":8270,"Ġsky":8271,"Ġskating":8272,"Ġskills":8273,"Ġskovaj":8274,"joart":8275,"Ġsuppl":8276,"Ġdepression":8277,"Ġvalencia":8278,"Ġvaluable":8279,"Ġlabels":8280,"Ġsigning":8281,"Ġmorell":8282,"Ġmorgan":8283,"Ġtrio":8284,"Ġtries":8285,"Ġshoot":8286,"ĠsimiÄĩ":8287,"Ġsimien":8288,"baugh":8289,"Ġperform":8290,"backs":8291,"Ġxia":8292,"Ġxingchen":8293,"ĠmaÅĦ":8294,"Ġmaastricht":8295,"linghouse":8296,"Ġinstitutions":8297,"racy":8298,"Ġsamir":8299,"Ġberk":8300,"Ġberry":8301,"Ġbelt":8302,"Ġclair":8303,"Ġclavell":8304,"Ġmartine":8305,"Ġluo":8306,"Ġluther":8307,"Ġtexans":8308,"Ġdemocracy":8309,"Ġcreating":8310,"ĠÃĵ":8311,"Ġmillar":8312,"Ġmillward":8313,"tarescu":8314,"Ġesther":8315,"Ġportugu":8316,"Ġavoid":8317,"Ġmelcher":8318,"Ġemelin":8319,"Ġemuejeraye":8320,"Ġemperor":8321,"Ġmatthias":8322,"Ġholman":8323,"project":8324,"risto":8325,"Ġtrained":8326,"Ġilloul":8327,"Ġfaraliza":8328,"Ġkaretnik":8329,"azzotti":8330,"ÃŃk":8331,"ÃŃost":8332,"Ġchairperson":8333,"iffe":8334,"Ġslim":8335,"ĠmurÃ§a":8336,"Ġincor":8337,"Ġestate":8338,"Ġaccoun":8339,"Ġaccused":8340,"Ġchiefs":8341,"Ġdoming":8342,"Ġdomestic":8343,"Ġtreat":8344,"Ġsharma":8345,"Ġprinceton":8346,"Ġvictorian":8347,"Ġtenor":8348,"Ġglou":8349,"Ġappoint":8350,"Ġcaus":8351,"Ġcause":8352,"Ġodis":8353,"Ġoperated":8354,"ndio":8355,"Ġbillboard":8356,"Ġmadondo":8357,"Ġwoody":8358,"Ġwoodlands":8359,"Ġjerae":8360,"Ġjeremy":8361,"Ġshortland":8362,"Ġshortstop":8363,"Ġcricketarchive":8364,"borg":8365,"Ġsubject":8366,"Ġbalajcza":8367,"Ġceballos":8368,"Ġpankewicz":8369,"Ġpanionios":8370,"Ġmerit":8371,"Ġmerchant":8372,"Ġwesthuiz":8373,"Ġtransport":8374,"Ġgeorgian":8375,"Ġgeorgetown":8376,"inesename":8377,"tivo":8378,"Ġmasoud":8379,"Ġlargest":8380,"Ġ1855":8381,"Ġappointer":8382,"sued":8383,"suff":8384,"Ġmalta":8385,"before":8386,"Ġakh":8387,"Ġborja":8388,"Ġborchard":8389,"Ġnbc":8390,"Ġgauss":8391,"Ġgauthier":8392,"Ġplot":8393,"Ġplanned":8394,"ecution":8395,"Ġchristianno":8396,"ijaya":8397,"Ġqi":8398,"Ġkaido":8399,"Ġkenny":8400,"Ġlegislature":8401,"Ġsuperliga":8402,"carr":8403,"draft":8404,"nationalteam":8405,"Ġdunav":8406,"Ġjuven":8407,"Ġrevival":8408,"Ġrevolution":8409,"Ġburish":8410,"Ġoliver":8411,"Ġbrooks":8412,"werth":8413,"Ġnomura":8414,"Ġlangdon":8415,"ribution":8416,"stein":8417,"Ġtrower":8418,"Ġtroops":8419,"Ġmodels":8420,"general":8421,"mitted":8422,"mitri":8423,"Ġanthology":8424,"Ġanthonis":8425,"Ġgraeme":8426,"Ġdeveloped":8427,"Ġkotham":8428,"Ġstrate":8429,"Ġleda":8430,"Ġteaching":8431,"Ġfrederik":8432,"yecto":8433,"Ġsavitt":8434,"Ġlightning":8435,"Ġremains":8436,"Ġchristina":8437,"Ġphotography":8438,"positions":8439,"Ġchem":8440,"Ġchet":8441,"Ġrealname":8442,"Ġboxing":8443,"Ġcornell":8444,"Ġcardiff":8445,"Ġfailure":8446,"Ġtychy":8447,"Ġdecade":8448,"Ġdecades":8449,"Ġramazzotti":8450,"landscape":8451,"Ġjeffreys":8452,"Ġsato":8453,"Ġngody":8454,"Ġtalbot":8455,"Ġalleged":8456,"Ġexecuted":8457,"Ġcompetitions":8458,"Ġsuccessfully":8459,"Ġrobertson":8460,"Ġfifa":8461,"ĠnikÃ§":8462,"Ġandrzej":8463,"Ġkrpey":8464,"Ġkrueger":8465,"Ġviscount":8466,"ÄįÃŃn":8467,"ĠbiukoviÄĩ":8468,"Ġgiant":8469,"Ġchapter":8470,"Ġvelox":8471,"Ġrobbie":8472,"Ġrobinson":8473,"Ġgriffith":8474,"Ġbaigor":8475,"Ġcalling":8476,"Ġpenedones":8477,"Ġislamic":8478,"Ġlatusa":8479,"Ġdominik":8480,"Ãºs":8481,"Ġcritical":8482,"Ġghazi":8483,"Ġghalay":8484,"Ġgilgeous":8485,"Ġkuipers":8486,"Ġashin":8487,"Ġashfield":8488,"Ġvasil":8489,"Ġvasily":8490,"Ġvasili":8491,"Ġ1790":8492,"Ġastronaut":8493,"Ġsires":8494,"Ġmachine":8495,"Ġdogg":8496,"chenkov":8497,"Ġwhitt":8498,"Ġwhitlow":8499,"Ġwhitgift":8500,"Ġpractic":8501,"Ġcharacters":8502,"Ġcrime":8503,"Ġpotential":8504,"Ġfratern":8505,"Ġjakub":8506,"agua":8507,"Ġcheryl":8508,"Ġcherbourg":8509,"Ġprosecution":8510,"Ġprovides":8511,"254":8512,"Ġautry":8513,"Ġbudapest":8514,"Ġcrawford":8515,"Ġhopkins":8516,"ĠnÃ©meth":8517,"Ġjonuzi":8518,"Ġestonia":8519,"Ġmathematical":8520,"blue":8521,"Ġpassing":8522,"ĠfernÃ¡ndez":8523,"Ġdickey":8524,"Ġgalloul":8525,"Ġgallantry":8526,"Ġgallinari":8527,"Ġmuseums":8528,"Ġlasttestagainst":8529,"Ġtestdebutagainst":8530,"Ġdonaldson":8531,"ĠÅł":8532,"ĠÅģÄĻ":8533,"Ġsugimoto":8534,"Ġbonta":8535,"Ġwolfe":8536,"Ġwolfgang":8537,"Ġludwik":8538,"endorfer":8539,"Ġphysician":8540,"holder":8541,"Ġsampo":8542,"Ġbuddy":8543,"Ġbuddhist":8544,"Ġflournoy":8545,"Ġkerr":8546,"Ġkerispatih":8547,"aghuraj":8548,"Ġlebanese":8549,"Ġpromoted":8550,"Ġpodium":8551,"iemcz":8552,"Ġadvisor":8553,"grell":8554,"Ġilleg":8555,"Ġthorpe":8556,"Ġhorwitz":8557,"Ġhurst":8558,"Ġlandmark":8559,"Ġrespectively":8560,"Ġchambers":8561,"Ġvenice":8562,"Ġbeautiful":8563,"Ġconcern":8564,"1963":8565,"Ġodidebutdate":8566,"Ġodidebutyear":8567,"Ġodidebutagainst":8568,"Ġivanovo":8569,"ĠivanoviÄĩ":8570,"Ġcritically":8571,"Ġpsych":8572,"elected":8573,"Ġucla":8574,"Ġhindmarsh":8575,"charles":8576,"Ġvideos":8577,"Ġleslie":8578,"Ġspringfield":8579,"Ġpublisher":8580,"Ġsaxophone":8581,"Ġmultiple":8582,"jiang":8583,"yiÄŁ":8584,"Ã«l":8585,"Ġbakhit":8586,"Ġpossible":8587,"Ġfusia":8588,"Ġfusari":8589,"Ġfisher":8590,"Ġmladenov":8591,"Ġoscar":8592,"Ġtasco":8593,"Ġgrenadier":8594,"itusi":8595,"Ġlutter":8596,"Ġlutricia":8597,"Ġkessel":8598,"Ġattempted":8599,"Ġattempts":8600,"boney":8601,"luo":8602,"pected":8603,"yuki":8604,"Ã¯na":8605,"Ġultim":8606,"Ġbirken":8607,"Ġcerem":8608,"Ġpavel":8609,"Ġancest":8610,"Ġtattarescu":8611,"Ġklausen":8612,"Ġrickford":8613,"Ġyankee":8614,"Ġviews":8615,"Ġfoote":8616,"Ġfootitt":8617,"Ġshirley":8618,"Ġappeal":8619,"country":8620,"Ġabbas":8621,"Ġabbey":8622,"Ġhistorical":8623,"ĠpetroviÄĩ":8624,"Ġparalympics":8625,"graefe":8626,"janaa":8627,"lications":8628,"Ġiafd":8629,"Ġumpire":8630,"Ġsedki":8631,"Ġbotan":8632,"Ġfleur":8633,"Ġwakayama":8634,"Ġwakamura":8635,"Ġnygaard":8636,"Ġnailab":8637,"Ġjessica":8638,"Ġgunpowder":8639,"Ġgreece":8640,"Ġtokpah":8641,"ĠchiÅŁ":8642,"Ġrodgers":8643,"Ġtelugu":8644,"Ġbeginning":8645,"abrizio":8646,"Ġgenerally":8647,"Ġproducts":8648,"Ġaleksey":8649,"Ġaleksandar":8650,"onymous":8651,"Ġinterests":8652,"Ġabdullah":8653,"midt":8654,"Ã¨re":8655,"Ã¸rge":8656,"Ġbaiynd":8657,"Ġthurston":8658,"ĠpakhalÃ©":8659,"Ġinitially":8660,"Ġtushar":8661,"Ġgaslight":8662,"ĠgÃ¶rÃ¶":8663,"Ġmechanics":8664,"Ġmobile":8665,"Ġ1398":8666,"Ġregarded":8667,"Ġannounced":8668,"Ġalexandra":8669,"Ġmcginnis":8670,"Ġadvocate":8671,"Ġjohannes":8672,"Ġpsychiatry":8673,"pankewicz":8674,"Ġponti":8675,"Ġdinos":8676,"Ġnimrod":8677,"Ġlankan":8678,"Ġrubiano":8679,"Ġtouchdown":8680,"Ġchernomorets":8681,"Ġrodriguez":8682,"Ġabolished":8683,"Ġabramov":8684,"Ġcontributing":8685,"Ġcommunications":8686,"Ġmikecz":8687,"Ġkeyboardist":8688,"Ġvladimir":8689,"kaluke":8690,"Ġthongkrue":8691,"Ġpossner":8692,"Ġfactory":8693,"ĠmÃ¼ggen":8694,"techn":8695,"Ġhilden":8696,"Ġhutchence":8697,"Ġgorbun":8698,"ĠchÃ©rif":8699,"Ġshapiro":8700,"Ġ6495":8701,"Ġcanonica":8702,"Ġextensively":8703,"alexander":8704,"Ġreserve":8705,"Ġjewish":8706,"Ġcorrespondent":8707,"Ġdeportivo":8708,"Ġmaccabi":8709,"Ġkrasnozhan":8710,"Ġmuneyasu":8711,"Ġdifferent":8712,"Ġresponsible":8713,"ĠÃĸzyiÄŁ":8714,"Ġunsuccessfully":8715,"camm":8716,"frederick":8717,"luca":8718,"Ġsfsr":8719,"Ġsoprano":8720,"Ġsophie":8721,"Ġboscaw":8722,"Ġthrone":8723,"Ġmustafa":8724,"Ġwanggai":8725,"Ġhickman":8726,"Ġhorses":8727,"Ġdimitar":8728,"Ġtaiwan":8729,"Ġlynn":8730,"Ġdeclared":8731,"Ġkreuz":8732,"Ġkashakashvili":8733,"Ġstandard":8734,"Ġlefebvre":8735,"Ġbeauty":8736,"Ġjoyner":8737,"Ġmethodist":8738,"Ġapproach":8739,"Ġlothian":8740,"Ġresignation":8741,"Ġcyrillic":8742,"Ġexperience":8743,"Ġsatyendra":8744,"Äįiar":8745,"Ġcfbdwid":8746,"Ġsorokin":8747,"Ġtasmania":8748,"Ġkazakhstan":8749,"ĠkukÃ«si":8750,"century":8751,"notable":8752,"rlÄĥ":8753,"Ġrbi":8754,"Ġsudan":8755,"Ġsacks":8756,"Ġsadeghi":8757,"Ġbentley":8758,"Ġbashaud":8759,"Ġcnn":8760,"Ġcamilo":8761,"Ġmatsubara":8762,"Ġoziemcz":8763,"Ġhousing":8764,"Ġdresden":8765,"Ġdedicated":8766,"Ġjagodina":8767,"Ġgabon":8768,"Ġlusikyan":8769,"Ġartistic":8770,"Ġrafael":8771,"Ġisaac":8772,"Ġyamada":8773,"Ġunexpected":8774,"Ġheidelbaugh":8775,"Ġvidmar":8776,"Ġlecturer":8777,"Ġspirit":8778,"Ġcolombo":8779,"Ġmegadeth":8780,"Ġmohiuddin":8781,"Ġprussia":8782,"Ġgenocide":8783,"Ġafghanistan":8784,"Ġsteingross":8785,"ĠstehlÃŃk":8786,"Ġsanjjanaa":8787,"Ġpetersburg":8788,"Ġblitzkrieg":8789,"ĠamÃ©rica":8790,"hausen":8791,"Ġsymbol":8792,"Ġsupported":8793,"Ġmoriarty":8794,"Ġmagomedov":8795,"Ġcelebr":8796,"Ġraiders":8797,"Ġhawaii":8798,"katalakshamma":8799,"Ġwimbledon":8800,"Ġdagestan":8801,"Ġresources":8802,"ĠsempoliÅĦski":8803,"Ġenvironmental":8804,"currently":8805,"gÃ¼strow":8806,"hivamsa":8807,"jpeg":8808,"joseph":8809,"lshchik":8810,"nieszka":8811,"æĸĩ":8812,"Ġordained":8813,"Ġessex":8814,"ĩÄ±nar":8815,"Ġamezquita":8816,"Ġalessandro":8817,"Ġauxerre":8818,"ĠbardakcÄ±":8819,"Ġbiondetti":8820,"Ġbledsoe":8821,"Ġbautista":8822,"Ġbakshin":8823,"arrieta":8824,"Ġcesena":8825,"Ġpendleton":8826,"Ġpelletier":8827,"Ġfrost":8828,"Ġmorning":8829,"Ġmysore":8830,"Ġmitev":8831,"Ġmgangira":8832,"Ġwaffen":8833,"Ġtheuerkauf":8834,"Ġhovlik":8835,"Ġhurrican":8836,"Ġhorta":8837,"Ġhossain":8838,"ĠhÃ¶grell":8839,"ĠhrnÄįiar":8840,"Ġhvidovre":8841,"Ġniedling":8842,"Ġnakhon":8843,"espncricinfo":8844,"ĠtrenÄįÃŃn":8845,"Ġtavori":8846,"Ġgolfer":8847,"ĠgÃ¢rlÄĥ":8848,"chapman":8849,"urciu":8850,"heorghe":8851,"Ġkovachev":8852,"ĠkÃ¼laots":8853,"Ġkulikova":8854,"Ġremembered":8855,"Ġratchasima":8856,"Ġforensic":8857,"Ġisaychenko":8858,"Ġyarmouth":8859,"Ġchennai":8860,"Ġvielwerth":8861,"Ġlegeay":8862,"athalingam":8863,"Ġtekstilshchik":8864,"Ġneufeld":8865,"occupation":8866,"Ġcombrinck":8867,"Ġshikurin":8868,"Ġshizuoka":8869,"Ġshibli":8870,"Ġjanashia":8871,"Ġboogie":8872,"ivÃ¢ndio":8873,"Ġprefecture":8874,"Ġnoharathalingam":8875,"Ġencompass":8876,"astasiia":8877,"Ġmanufact":8878,"Ġpartizan":8879,"Ġschwartz":8880,"Ġpritchard":8881,"Ġcollegiate":8882,"Ġzhiyu":8883,"Ġformerpartner":8884,"Ġapponyi":8885,"Ġbarcelona":8886,"Ġgeovedi":8887,"Ġsteensel":8888,"Ġsolabarrieta":8889,"Ã¼lkerim":8890,"Ġskovajsa":8891,"Ġsupplies":8892,"ĠmaÅĦka":8893,"Ġportuguese":8894,"Ġmelchert":8895,"Ġkaretnikov":8896,"Ġwesthuizen":8897,"Ġkothamangalam":8898,"ĠnikÃ§i":8899,"Ġkrpeyan":8900,"Ġbaigorria":8901,"Ġghalayni":8902,"Ġfraternity":8903,"ĠÅģÄĻcz":8904,"ĠchiÅŁinÄĥu":8905,"ĠgÃ¶rÃ¶g":8906,"Ġthongkruea":8907,"ĠmÃ¼ggenburg":8908,"Ġgorbunova":8909,"ĠÃĸzyiÄŁit":8910,"Ġboscawen":8911,"Ġoziemczuk":8912,"249":8913,"60":8914,"65":8915,"ax":8916,"aum":8917,"aend":8918,"aaki":8919,"aÃ«l":8920,"bn":8921,"bla":8922,"bir":8923,"bri":8924,"bart":8925,"bill":8926,"bÃ©":8927,"bah":8928,"bÃ¡":8929,"bai":8930,"bha":8931,"bates":8932,"bined":8933,"bbc":8934,"bient":8935,"beargarden":8936,"cro":8937,"cond":8938,"cys":8939,"dis":8940,"dam":8941,"del":8942,"due":8943,"dong":8944,"dÃ¶n":8945,"eman":8946,"eason":8947,"ease":8948,"fle":8949,"fus":8950,"fong":8951,"fred":8952,"face":8953,"gs":8954,"gon":8955,"gel":8956,"gate":8957,"got":8958,"gid":8959,"gies":8960,"gure":8961,"geral":8962,"gib":8963,"gets":8964,"gbakoto":8965,"hall":8966,"home":8967,"iation":8968,"ials":8969,"iled":8970,"ihiro":8971,"jang":8972,"jme":8973,"jubl":8974,"jann":8975,"jaya":8976,"ky":8977,"kow":8978,"kang":8979,"kala":8980,"lord":8981,"lop":8982,"like":8983,"lantz":8984,"lodar":8985,"mill":8986,"mke":8987,"mira":8988,"miss":8989,"mission":8990,"nbar":8991,"oi":8992,"obo":8993,"oby":8994,"oonist":8995,"oubles":8996,"pir":8997,"pac":8998,"pine":8999,"ptions":9000,"polis":9001,"pirelja":9002,"rs":9003,"rup":9004,"rine":9005,"sman":9006,"subl":9007,"sains":9008,"smith":9009,"tman":9010,"tak":9011,"tens":9012,"tunk":9013,"uted":9014,"umer":9015,"uder":9016,"ucc":9017,"uki":9018,"uana":9019,"von":9020,"vas":9021,"vun":9022,"vik":9023,"vince":9024,"vko":9025,"wes":9026,"wom":9027,"wald":9028,"wahls":9029,"wijaya":9030,"xton":9031,"ying":9032,"yevich":9033,"zon":9034,"zine":9035,"zana":9036,"zarus":9037,"£eanu":9038,"°Æ¡":9039,"Ã¥":9040,"ÃŁ":9041,"Å£eanu":9042,"Æ°Æ¡":9043,"Ð¼":9044,"Ð¾":9045,"×Ļ":9046,"Ø±":9047,"Ø³":9048,"à¯":9049,"àµ":9050,"ä»":9051,"Ġç":9052,"ĠæĿ":9053,"ĲÆ¡":9054,"Ġaus":9055,"Ġaub":9056,"Ġauth":9057,"Ġaval":9058,"Ġayan":9059,"Ġaziz":9060,"erah":9061,"then":9062,"thorn":9063,"three":9064,"inath":9065,"inrich":9066,"iniem":9067,"ont":9068,"onan":9069,"onent":9070,"onid":9071,"ansion":9072,"anche":9073,"Ġsg":9074,"Ġsie":9075,"Ġsession":9076,"ĠsÃ¡":9077,"Ġslo":9078,"Ġski":9079,"Ġsib":9080,"Ġsau":9081,"Ġslav":9082,"Ġsucceed":9083,"Ġsaye":9084,"oration":9085,"oros":9086,"tif":9087,"tirb":9088,"tivis":9089,"timo":9090,"tiations":9091,"Ġbup":9092,"Ġbold":9093,"Ġbally":9094,"Ġbinning":9095,"Ġbless":9096,"Ġbicy":9097,"aries":9098,"arthe":9099,"arinen":9100,"Ġcw":9101,"Ġced":9102,"Ġcut":9103,"Ġcust":9104,"Ġcial":9105,"Ġcris":9106,"Ġcates":9107,"Ġcatherine":9108,"enh":9109,"enve":9110,"enico":9111,"enkov":9112,"Ġthre":9113,"Ġthani":9114,"Ġthink":9115,"Ġthayer":9116,"Ġpd":9117,"Ġpi":9118,"Ġpx":9119,"Ġple":9120,"Ġpes":9121,"Ġpath":9122,"Ġpork":9123,"Ġpip":9124,"Ġpne":9125,"Ġpiet":9126,"Ġpiss":9127,"Ġpune":9128,"Ġpinch":9129,"Ġpomer":9130,"Ġpasha":9131,"Ġfi":9132,"Ġfas":9133,"Ġfigh":9134,"Ġfra":9135,"Ġfion":9136,"Ġfab":9137,"Ġfell":9138,"Ġfai":9139,"Ġfide":9140,"Ġfuk":9141,"Ġfoss":9142,"Ġfried":9143,"Ġfired":9144,"Ġfaye":9145,"Ġfener":9146,"Ġfencing":9147,"Ġfjoart":9148,"Ġfabrizio":9149,"alis":9150,"alot":9151,"alts":9152,"alem":9153,"lesi":9154,"lets":9155,"Ġmol":9156,"Ġmist":9157,"Ġmou":9158,"Ġmud":9159,"Ġmort":9160,"Ġmati":9161,"Ġmainst":9162,"ĠmÃ¤":9163,"Ġmignon":9164,"Ġmumon":9165,"Ġmtv":9166,"Ġwag":9167,"Ġword":9168,"Ġwish":9169,"Ġwong":9170,"Ġwonda":9171,"Ġwenlan":9172,"Ġwetton":9173,"tell":9174,"tefisk":9175,"Ġtheore":9176,"ises":9177,"isbane":9178,"isiak":9179,"isadr":9180,"Ġomer":9181,"Ġovers":9182,"Ġoma":9183,"Ġoko":9184,"Ġoverse":9185,"Ġhid":9186,"Ġhers":9187,"Ġhend":9188,"Ġhund":9189,"Ġhague":9190,"Ġhsb":9191,"Ġhyo":9192,"Ġhired":9193,"Ġhinch":9194,"Ġhalse":9195,"Ġhjk":9196,"Ġhristo":9197,"rela":9198,"Ġdil":9199,"Ġdad":9200,"Ġdum":9201,"Ġdah":9202,"Ġdron":9203,"Ġdaly":9204,"Ġdual":9205,"Ġdlam":9206,"ĠdÃº":9207,"Ġdamon":9208,"Ġdream":9209,"Ġdarts":9210,"ĠdvoÅĻÃ¡k":9211,"Ġdmitri":9212,"ĠdÃ¸rge":9213,"ĠdÆ°Æ¡":9214,"Ġnj":9215,"Ġnoc":9216,"Ġnip":9217,"Ġnature":9218,"Ġnamo":9219,"Ġnavy":9220,"Ġnancy":9221,"asure":9222,"aspor":9223,"Ġink":9224,"Ġint":9225,"Ġinga":9226,"Ġintel":9227,"amarca":9228,"Ġante":9229,"Ġanug":9230,"Ġanci":9231,"Ġanastasiia":9232,"ested":9233,"esovÃ¡":9234,"lau":9235,"lain":9236,"lage":9237,"icide":9238,"edu":9239,"edis":9240,"edonia":9241,"roke":9242,"irie":9243,"Ġ205":9244,"Ġtold":9245,"Ġtds":9246,"Ġtannone":9247,"Ġtagua":9248,"Ġjard":9249,"Ġjum":9250,"Ġjav":9251,"Ġjamal":9252,"Ġjavier":9253,"untu":9254,"unci":9255,"Ġgif":9256,"Ġgather":9257,"ĠgÃ¼":9258,"Ġgama":9259,"Ġgabri":9260,"Ġgandy":9261,"Ġgyeon":9262,"Ġgillian":9263,"Ġgheorghe":9264,"elizabeth":9265,"usalem":9266,"itant":9267,"ches":9268,"ching":9269,"chad":9270,"child":9271,"chinesename":9272,"olÃ©":9273,"ilia":9274,"illy":9275,"ilhach":9276,"urd":9277,"urst":9278,"urang":9279,"uries":9280,"atu":9281,"atti":9282,"atrian":9283,"Ġlich":9284,"Ġlund":9285,"ĠlÃ¡":9286,"Ġllo":9287,"Ġlose":9288,"Ġlds":9289,"Ġlopes":9290,"Ġljubl":9291,"hei":9292,"hew":9293,"beri":9294,"bern":9295,"Ġdevil":9296,"Ġdetec":9297,"igarh":9298,"Ġkal":9299,"Ġkle":9300,"Ġkig":9301,"Ġkup":9302,"Ġkamil":9303,"Ġkira":9304,"Ġkhy":9305,"Ġkader":9306,"Ġkamal":9307,"Ġkendall":9308,"Ġkedd":9309,"Ġkatie":9310,"Ġrex":9311,"Ġreyes":9312,"Ġreeder":9313,"Ġreelection":9314,"Ġark":9315,"Ġarri":9316,"Ġarmed":9317,"Ġaritz":9318,"Ġarena":9319,"sta":9320,"stas":9321,"staheli":9322,"Ġri":9323,"Ġrar":9324,"Ġric":9325,"Ġria":9326,"Ġrist":9327,"Ġrican":9328,"Ġrain":9329,"Ġrend":9330,"Ġrenn":9331,"Ġrca":9332,"Ġrafat":9333,"ĠrÃ¡k":9334,"Ġrival":9335,"Ġrising":9336,"Ġrusty":9337,"Ġrighteous":9338,"Ġraghuraj":9339,"Ġforet":9340,"Ġforty":9341,"Ġforms":9342,"adam":9343,"aded":9344,"adow":9345,"adav":9346,"adab":9347,"Ġtoo":9348,"Ġtoured":9349,"siem":9350,"siys":9351,"sibil":9352,"terian":9353,"imin":9354,"imar":9355,"imli":9356,"Ġismail":9357,"andan":9358,"andace":9359,"tles":9360,"tlett":9361,"Ġstans":9362,"Ġya":9363,"Ġyr":9364,"Ġyuri":9365,"Ġyagi":9366,"Ġyeni":9367,"Ġyosh":9368,"Ġeac":9369,"Ġeigh":9370,"Ġemin":9371,"Ġeamon":9372,"Ġegger":9373,"Ġeakin":9374,"titled":9375,"Ġalum":9376,"Ġalph":9377,"Ġalves":9378,"Ġalisa":9379,"Ġalonso":9380,"Ġaloi":9381,"Ġalpine":9382,"Ġaligarh":9383,"Ġchor":9384,"Ġchen":9385,"Ġchun":9386,"Ġchul":9387,"Ġcheshire":9388,"Ġchatrian":9389,"aco":9390,"Ġasst":9391,"Ġasunci":9392,"ottes":9393,"Ġunde":9394,"ided":9395,"Ġheinrich":9396,"aphic":9397,"Ġonline":9398,"Ġondar":9399,"Ġvs":9400,"Ġvit":9401,"Ġvav":9402,"Ġvog":9403,"Ġvino":9404,"Ġvoting":9405,"ayr":9406,"ayuki":9407,"utn":9408,"utov":9409,"tedt":9410,"ows":9411,"Ġsea":9412,"Ġsean":9413,"Ġseong":9414,"Ġseah":9415,"Ġatar":9416,"Ġleo":9417,"Ġleaf":9418,"Ġleamon":9419,"Ġlevert":9420,"atha":9421,"athi":9422,"upp":9423,"ardino":9424,"rah":9425,"race":9426,"rainian":9427,"lyse":9428,"Ġ1822":9429,"umble":9430,"Ġnationals":9431,"Ġroch":9432,"Ġroom":9433,"Ġroald":9434,"Ġrohan":9435,"Ġrosen":9436,"ĠuniÃ£o":9437,"Ġ3000":9438,"Ġcoat":9439,"Ġcook":9440,"Ġcoley":9441,"Ġcoyo":9442,"Ġproteam":9443,"Ġproyears":9444,"Ġprowins":9445,"Ġprocess":9446,"Ġproyecto":9447,"Ġtelec":9448,"geme":9449,"ustina":9450,"Ġbeaud":9451,"Ġimpro":9452,"Ġimdb":9453,"Ġneg":9454,"Ġnego":9455,"Ġneilson":9456,"Ġnejme":9457,"oca":9458,"Ġpoign":9459,"Ġmarian":9460,"Ġmarion":9461,"Ġmarines":9462,"Ġmariners":9463,"iec":9464,"sharon":9465,"shrine":9466,"Ġlad":9467,"Ġlazio":9468,"Ġlaunch":9469,"ĠlaÃ¯d":9470,"Ġlazarus":9471,"outier":9472,"Ġspa":9473,"Ġspending":9474,"cca":9475,"ccane":9476,"aint":9477,"Ġconclus":9478,"ordy":9479,"Ġcombin":9480,"Ġcombined":9481,"ishan":9482,"ifudd":9483,"Ġnewell":9484,"Ġjoan":9485,"ĠjovetiÄĩ":9486,"ovac":9487,"ovna":9488,"acki":9489,"Ġsha":9490,"Ġshut":9491,"Ġshak":9492,"Ġshank":9493,"Ġshimi":9494,"Ġshadow":9495,"Ġcolony":9496,"Ġcolima":9497,"Ġcollage":9498,"endoubles":9499,"rance":9500,"Ġcapable":9501,"ously":9502,"Ġmemo":9503,"oda":9504,"odidate":9505,"ryu":9506,"ebe":9507,"ipo":9508,"Ġjang":9509,"Ġ68":9510,"Ġ69":9511,"Ġserrano":9512,"Ġbojan":9513,"Ġbouglas":9514,"Ġmayumi":9515,"Ġ52":9516,"Ġ57":9517,"Ġortman":9518,"iko":9519,"undi":9520,"Ġscrum":9521,"Ġscanlan":9522,"Ġscardino":9523,"Ġcaron":9524,"Ġcarry":9525,"Ġcarmen":9526,"ection":9527,"ective":9528,"Ġhasler":9529,"Ġprec":9530,"Ġenlisted":9531,"Ġmoz":9532,"Ġmotion":9533,"Ġmoak":9534,"Ġmohand":9535,"Ġmount":9536,"opinath":9537,"opendoubles":9538,"emi":9539,"emat":9540,"Ġgoes":9541,"Ġgoing":9542,"lesranking":9543,"leskÃ¡":9544,"Ġrecurr":9545,"inee":9546,"orevna":9547,"Ġjulie":9548,"Ġpolo":9549,"oked":9550,"okip":9551,"Ġjunction":9552,"astart":9553,"anty":9554,"Ġmanito":9555,"Ġmanhat":9556,"Ġherly":9557,"Ġhershel":9558,"rennan":9559,"asselin":9560,"Ġparamo":9561,"Ġengeld":9562,"Ġtil":9563,"Ġtiras":9564,"perry":9565,"Ġedvin":9566,"Ġediting":9567,"ĠedivÃ¢ndio":9568,"Ġbras":9569,"Ġbramble":9570,"Ġbrisbane":9571,"Ġteamed":9572,"Ġschuen":9573,"Ġschmidt":9574,"Ġ86":9575,"Ġagnieszka":9576,"Ġphd":9577,"Ġphone":9578,"ldÄ±":9579,"Ġsingers":9580,"sela":9581,"cliffe":9582,"Ġ121":9583,"Ġ1780":9584,"Ġ1787":9585,"max":9586,"Ġ1530":9587,"Ġ1586":9588,"Ġminutes":9589,"Ġ95":9590,"Ġ96":9591,"Ġ900":9592,"Ġrepe":9593,"Ġsuet":9594,"Ġgenres":9595,"ashi":9596,"ashen":9597,"ashlie":9598,"ĠzÃ¡":9599,"Ġzabr":9600,"Ġzvez":9601,"Ġworth":9602,"Ġworanat":9603,"Ġworcestershire":9604,"sheffield":9605,"1989":9606,"Ġworkshop":9607,"Ġadalberto":9608,"Ġfrancois":9609,"Ġdraws":9610,"Ġ165":9611,"Ġappl":9612,"Ġappears":9613,"Ġapplications":9614,"Ġoffered":9615,"Ġexam":9616,"Ġexchan":9617,"Ġpersi":9618,"Ġperper":9619,"ilde":9620,"Ġbroke":9621,"Ġbrody":9622,"tual":9623,"Ġacid":9624,"Ġacost":9625,"ĠacÃ¡cio":9626,"Ġsouthwest":9627,"Ġtwisel":9628,"Ġbases":9629,"Ġpolitics":9630,"annah":9631,"Ġcalvin":9632,"Ġcaledonia":9633,"keley":9634,"Ġusman":9635,"Ġnorberg":9636,"Ġbari":9637,"Ġbarros":9638,"Ġbarbar":9639,"ĠbarrÃ©":9640,"Ġbartlett":9641,"Ġgeological":9642,"ajevo":9643,"Ġwarner":9644,"Ġguang":9645,"Ġguerre":9646,"Ġ1418":9647,"Ġ1416":9648,"Ġstep":9649,"Ġsteffie":9650,"aitis":9651,"encies":9652,"umberland":9653,"cote":9654,"maria":9655,"Ġcharity":9656,"Ġcharley":9657,"Ġstaten":9658,"rising":9659,"ĠgrÃ¶n":9660,"Ġgrims":9661,"Ġgrgure":9662,"Ġgraphic":9663,"unga":9664,"Ġterms":9665,"Ġsecure":9666,"hammed":9667,"spe":9668,"Ġabazi":9669,"Ġabreu":9670,"Ġcrandon":9671,"Ġhao":9672,"Ġhaayer":9673,"Ġhaokip":9674,"Ġharbour":9675,"neur":9676,"Ġelis":9677,"Ġelite":9678,"Ġelba":9679,"Ġeloff":9680,"Ġellyse":9681,"Ġdavit":9682,"Ġdavison":9683,"Ġwonder":9684,"byterian":9685,"Ġsucci":9686,"Ġchildhood":9687,"Ġlawsuit":9688,"Ġearle":9689,"Ġearning":9690,"Ġtriath":9691,"Ġpeleuli":9692,"kerios":9693,"Ġblind":9694,"Ġblida":9695,"Ġproduce":9696,"ttenham":9697,"Ġkings":9698,"Ġkingstown":9699,"Ġclive":9700,"Ġclark":9701,"Ġcloutier":9702,"Ġdistance":9703,"ensor":9704,"Ġyearpro":9705,"Ġbraves":9706,"ologian":9707,"Ġmichel":9708,"Ġcroix":9709,"Ġoverturn":9710,"2002":9711,"Ġdirectly":9712,"Ġamor":9713,"Ġamass":9714,"Ġdoug":9715,"Ġstara":9716,"Ġstarter":9717,"iously":9718,"ilesh":9719,"Ġquorum":9720,"Ġlastodidate":9721,"Ġactresses":9722,"Ġgrow":9723,"Ġgrowing":9724,"Ġruan":9725,"Ġalbion":9726,"iba":9727,"Ġregional":9728,"Ġjackets":9729,"Ġjackiem":9730,"mounce":9731,"mohammed":9732,"Ġannenkov":9733,"decwin":9734,"decloss":9735,"Ġauthorities":9736,"Ġseneg":9737,"Ġflash":9738,"Ġwald":9739,"Ġwaltham":9740,"Ġdisney":9741,"Ġdisease":9742,"Ġmilinko":9743,"Ġhour":9744,"Ġhoffman":9745,"Ġresistance":9746,"evac":9747,"Ġolympiad":9748,"Ġweller":9749,"degh":9750,"Ġmcdowell":9751,"Ġmcmanus":9752,"Ġseconds":9753,"Ġjeannette":9754,"Ġlegacy":9755,"Ġ1872":9756,"Ã³ir":9757,"Ã³ra":9758,"Ġbuchan":9759,"Ġbuccane":9760,"Ġpattern":9761,"Ġpatena":9762,"Ġpatrich":9763,"Ġpatricia":9764,"Ġstudent":9765,"Ġstudents":9766,"Ġ1885":9767,"Ġ1887":9768,"Ġ1889":9769,"jeon":9770,"uken":9771,"Ġcasas":9772,"Ġhelena":9773,"Ġhelmke":9774,"Ġresiding":9775,"Ġscotts":9776,"Ġmetz":9777,"Ġmetrop":9778,"Ġwestside":9779,"Ġwestminster":9780,"lbaum":9781,"naud":9782,"Ġconsec":9783,"Ġsaifudd":9784,"Ġskier":9785,"Ġskulls":9786,"Ġskipworth":9787,"Ġfeel":9788,"Ġfeinsinger":9789,"itarian":9790,"Ġphilanth":9791,"Ġyoungest":9792,"eppe":9793,"epolis":9794,"Ġdepalma":9795,"Ġtours":9796,"ksson":9797,"lines":9798,"Ġwashburn":9799,"Ġfoundations":9800,"Ġreceiver":9801,"Ġreceptions":9802,"Ġtried":9803,"Ġtrials":9804,"Ġtriple":9805,"Ġshoes":9806,"ĠsimÃ³n":9807,"Ġfieldgoals":9808,"Ġdanial":9809,"Ġdentist":9810,"atsu":9811,"agoza":9812,"bao":9813,"Ġperforms":9814,"Ġxie":9815,"Ġcamera":9816,"Ġmaiden":9817,"Ã¶l":9818,"Ġinterred":9819,"note":9820,"notes":9821,"noÅ¡":9822,"racted":9823,"Ġsamuel":9824,"Ġsamoa":9825,"Ġbert":9826,"Ġbertr":9827,"Ġberoe":9828,"Ġberkeley":9829,"Ġbelle":9830,"Ġbelgian":9831,"Ġbelarus":9832,"Ġclaudine":9833,"Ġpainted":9834,"Ġlula":9835,"Ġluke":9836,"Ġlutefisk":9837,"Ġtext":9838,"Ġmayoral":9839,"four":9840,"founded":9841,"Ġcrewe":9842,"isms":9843,"ĠÃľmit":9844,"ĠÃĩÄ±nar":9845,"Ġbreast":9846,"Ġbreeder":9847,"Ġbrewers":9848,"Ġdelmore":9849,"Ġespec":9850,"Ġporto":9851,"labha":9852,"Ġlibert":9853,"Ġaveraging":9854,"Ġmelton":9855,"Ġmelody":9856,"Ġemigrated":9857,"Ġerick":9858,"Ġcyrielle":9859,"Ġmattar":9860,"itski":9861,"Ġbattlefield":9862,"proclubs":9863,"province":9864,"tinari":9865,"Ġsomewh":9866,"Ġhonour":9867,"Ġtraff":9868,"unders":9869,"Ġfarnell":9870,"Ġfarrell":9871,"Ġnovoros":9872,"Ġnovitski":9873,"Ġkarnat":9874,"Ġrelation":9875,"Ġvirk":9876,"Ġromanian":9877,"skating":9878,"ÃŃpero":9879,"Ġowned":9880,"Ġeponymous":9881,"Ġboards":9882,"Ġslow":9883,"Ġslovakia":9884,"Ġslouk":9885,"Ġmurdo":9886,"Ġmurunga":9887,"Ġgrandchild":9888,"Ġdrag":9889,"Ġeleanor":9890,"Ġprogressed":9891,"hosiem":9892,"Ġsharks":9893,"Ġvictories":9894,"mente":9895,"Ġverde":9896,"Ġgloria":9897,"Ġ1805":9898,"Ġathens":9899,"Ġbeng":9900,"Ġbench":9901,"Ġbenedic":9902,"Ġcaen":9903,"Ġmoving":9904,"Ġukrainian":9905,"Ġblackman":9906,"obstad":9907,"oboda":9908,"Ġbillie":9909,"Ġbillion":9910,"Ġmadhop":9911,"Ġmikee":9912,"Ġwoodward":9913,"Ġangolan":9914,"Ġjerome":9915,"Ġjerusalem":9916,"Ġshortly":9917,"Ġcolumnist":9918,"Ġsocialist":9919,"borne":9920,"irovich":9921,"Ġceleste":9922,"Ġpanthers":9923,"Ġmerz":9924,"Ġnowacki":9925,"Ġparliamentary":9926,"Ġthroughout":9927,"Ġhamburg":9928,"Ġryd":9929,"Ġvoices":9930,"Ġbeganskating":9931,"1995":9932,"Ġtechniques":9933,"tivals":9934,"Ġbayne":9935,"Ġmasaaki":9936,"Ġraces":9937,"Ġraced":9938,"Ġ1850":9939,"Ġathlete":9940,"mingham":9941,"Ġivor":9942,"Ġmoshe":9943,"Ġmoskaluke":9944,"Ġtakashi":9945,"Ġ1831":9946,"Ġasif":9947,"Ġasimov":9948,"Ġborder":9949,"Ġmyc":9950,"Ġmyr":9951,"Ġgaizka":9952,"elphonse":9953,"Ġdevos":9954,"Ġpeterson":9955,"world":9956,"Ġpalat":9957,"Ġpalmer":9958,"Ġpalace":9959,"Ġmenkerios":9960,"Ġhalvor":9961,"Ġjacoby":9962,"Ġislanders":9963,"Ġdraftedyear":9964,"Ġdraftedround":9965,"Ġchristiana":9966,"henge":9967,"henry":9968,"Ġqing":9969,"Ġqian":9970,"Ġfestivals":9971,"Ġmacy":9972,"Ġmaciej":9973,"Ġrapper":9974,"Ġphysical":9975,"Ġlegislation":9976,"draw":9977,"dravko":9978,"lieutenant":9979,"richard":9980,"Ġfigue":9981,"Ġfiggeme":9982,"Ġdunlop":9983,"Ġtae":9984,"Ġtax":9985,"ĠtaÃ¯na":9986,"Ġtaurang":9987,"Ġjournalists":9988,"Ġburied":9989,"Ġbulwell":9990,"Ġolson":9991,"Ġdarren":9992,"Ġdarcys":9993,"Ġstarts":9994,"Ġcongre":9995,"Ġstephan":9996,"Ġgraduating":9997,"werin":9998,"Ġsett":9999,"Ġsetting":10000,"ength":10001,"Ġfellowship":10002,"Ġlieth":10003,"Ġlangford":10004,"Ġlangaitis":10005,"steven":10006,"Ġsomen":10007,"Ġduties":10008,"Ġdurban":10009,"Ġnatal":10010,"Ġtroy":10011,"Ġcaroline":10012,"Ġpopularly":10013,"Ġorganizations":10014,"warren":10015,"Ġpettinari":10016,"Ġobtained":10017,"Ġdeveloping":10018,"Ġkostas":10019,"Ġstrugg":10020,"Ġteaches":10021,"Ġpastteams":10022,"Ġlorton":10023,"Ġlorraine":10024,"Ġkeep":10025,"Ġvarna":10026,"ospalot":10027,"Ġphotograph":10028,"Ã¤n":10029,"Ġpresnell":10030,"Ġpreseason":10031,"Ġrealism":10032,"Ġrivera":10033,"Ġstanmore":10034,"Ġ1842":10035,"Ġfounders":10036,"Ġbradfield":10037,"ĠabdÃ¼lkerim":10038,"802":10039,"barry":10040,"feast":10041,"Ġcornelius":10042,"Ġpowerful":10043,"Ġferry":10044,"Ġdayna":10045,"Ġdrive":10046,"Ġramiro":10047,"Ġformal":10048,"Ġseventh":10049,"Ġexpert":10050,"Ġjeffrey":10051,"Ġhonored":10052,"Ġnguy":10053,"Ġtalk":10054,"Ġgarner":10055,"Ġgarlinghouse":10056,"Ġstockhol":10057,"Ġallegiance":10058,"Ġvolos":10059,"Ġvolga":10060,"Ġexpressed":10061,"Ġexpansion":10062,"Ġmcgill":10063,"iuseppe":10064,"ounced":10065,"Ġsarah":10066,"Ġsargs":10067,"Ġsarajevo":10068,"Ġwriters":10069,"Ġokina":10070,"Ġhogue":10071,"Ġhoggid":10072,"Ġkrishna":10073,"Ġrestaur":10074,"Ġraja":10075,"Ġrajai":10076,"Ġrajendra":10077,"Ġvisual":10078,"Ġmotherwell":10079,"Ġscholtz":10080,"Ġcompleting":10081,"winner":10082,"Ġbanker":10083,"Ġgianluca":10084,"Ġvella":10085,"Ġsherwin":10086,"Ġsherdog":10087,"Ġfinishes":10088,"Ġbailhach":10089,"Ġcallanan":10090,"Ġcredits":10091,"Ġpenitusi":10092,"Ġinnov":10093,"Ġlatur":10094,"Ġgoodloe":10095,"Ġfrancesca":10096,"Ġdefeating":10097,"Ġcyclones":10098,"Ġcongressman":10099,"Ġmikhail":10100,"Ġghassan":10101,"Ġghulam":10102,"Ġgyalts":10103,"Ġvasco":10104,"Ġ1792":10105,"Ġadvance":10106,"Ġjacobsen":10107,"Ġnomination":10108,"Ġnominations":10109,"castillo":10110,"Ġsibylle":10111,"Ġmachado":10112,"Ġdogs":10113,"Ġconvic":10114,"Ġindividuals":10115,"Ġcontinues":10116,"Ġcontinental":10117,"Ġregularly":10118,"Ġsaskia":10119,"track":10120,"wheler":10121,"Ã§e":10122,"Ġuribe":10123,"Ġpotgie":10124,"Ġfreddie":10125,"Ġmuhammad":10126,"Ġmuvun":10127,"Ġjustin":10128,"Ġjakobstad":10129,"Ġrange":10130,"Ġprospero":10131,"Ġalfredo":10132,"Ġscholarship":10133,"doug":10134,"Ä±ldÄ±":10135,"Ġsawai":10136,"Ġbilbao":10137,"Ġcraig":10138,"ĠnÃ©stor":10139,"Ġkirk":10140,"Ġhawes":10141,"Ġhawks":10142,"Ġhawthorn":10143,"bility":10144,"Ġbolton":10145,"Ġpersepolis":10146,"Ġpassed":10147,"Ġfernand":10148,"Ġmaine":10149,"Ġwatts":10150,"cheon":10151,"Ġlucie":10152,"Ġimpression":10153,"Ġweekly":10154,"Ġbreakthrough":10155,"Ġepisodes":10156,"khuli":10157,"Ġsugai":10158,"Ġnineteenth":10159,"Ġkwon":10160,"Ġkwame":10161,"Ġeagle":10162,"Ġphysicians":10163,"frank":10164,"frances":10165,"Ġernst":10166,"Ġernest":10167,"Ġsriwijaya":10168,"Ġsampson":10169,"Ġcatamarca":10170,"Ġfunds":10171,"Ġmesser":10172,"Ġhumanitarian":10173,"Ġintegr":10174,"Ġkerdegh":10175,"Ġkillam":10176,"Ġkilling":10177,"Ġvacated":10178,"Ġprominence":10179,"ĠpodesovÃ¡":10180,"Ġconstable":10181,"Ġextreme":10182,"profit":10183,"Ġmalaysian":10184,"Ġsvoboda":10185,"Ġsusan":10186,"Ġbernardo":10187,"Ġfutsal":10188,"Ġmoldovan":10189,"Ġhospitals":10190,"Ġlasted":10191,"appear":10192,"Ġvenerated":10193,"Ġconcerts":10194,"Ġcolonial":10195,"Ġzagora":10196,"Ġsupporting":10197,"Ġhenriksson":10198,"Ġelliston":10199,"Ġaikath":10200,"Ġsentenced":10201,"Ġbanjo":10202,"Ġbanisadr":10203,"Ġcinemat":10204,"Ġmrs":10205,"Ġmutu":10206,"Ġmutobo":10207,"Ġwheel":10208,"Ġhindu":10209,"Ġtarget":10210,"Ġtargets":10211,"Ġefforts":10212,"Ġchange":10213,"Ġchanois":10214,"Ġchanning":10215,"Ġsemif":10216,"Ġmemorable":10217,"Ġphillips":10218,"Ġpitching":10219,"Ġvalerian":10220,"Ġmotorcy":10221,"cope":10222,"ĠØ¹":10223,"Ġbloch":10224,"Ġbakhtiar":10225,"Ġbakhshish":10226,"Ġciurciu":10227,"Ġciuntu":10228,"Ġthought":10229,"Ġprairie":10230,"Ġmahar":10231,"Ġmahmud":10232,"Ġwahlstedt":10233,"Ġhometown":10234,"Ġhangul":10235,"Ġhangzhou":10236,"Ġnationwide":10237,"Ġnizhn":10238,"ĠtamÃ¡s":10239,"Ġgrenad":10240,"andrÃ©":10241,"Ġnevado":10242,"oudhary":10243,"Ġsprings":10244,"Ġspringer":10245,"Ġheroes":10246,"Ġdefenceman":10247,"Ġbuildings":10248,"Ġarchitecture":10249,"Ġryuji":10250,"darhod":10251,"large":10252,"Ġulrich":10253,"Ġsulu":10254,"Ġsully":10255,"Ġbirmingham":10256,"Ġcsilla":10257,"eniu":10258,"Ġpavlodar":10259,"Ġhajduk":10260,"Ġhajdarhod":10261,"Ġancina":10262,"Ġtanimoto":10263,"Ġtatul":10264,"ĠjesÃºs":10265,"Ġreplacing":10266,"Ġyanlin":10267,"Ġaldermen":10268,"Ġroscoe":10269,"Ġfocuses":10270,"Ġclaims":10271,"Ġclaimed":10272,"Ġaccomplish":10273,"Ġumpired":10274,"Ġsunni":10275,"Ġbharat":10276,"Ġfleet":10277,"Ġnovais":10278,"ĠgiÃ²":10279,"Ġlukanova":10280,"ĠlukÃ¡Å¡":10281,"Ġarnoux":10282,"Ġtokyo":10283,"Ġecology":10284,"ĠchiÈĻ":10285,"ĠromÃ¡n":10286,"Ġromaine":10287,"Ġsharyn":10288,"Ġsharychenkov":10289,"Ġ1751":10290,"Ġblonde":10291,"Ġqualified":10292,"Ġemirates":10293,"Ġmagnani":10294,"Ġjournalism":10295,"Ġsubsequent":10296,"stephen":10297,"stephens":10298,"Ġnigerian":10299,"Ġprosecut":10300,"midfielder":10301,"napolÃ©":10302,"Ġcurrie":10303,"Ġthurmann":10304,"Ġpicture":10305,"Ġpictures":10306,"Ġfurnace":10307,"Ġinjured":10308,"Ġanimals":10309,"chyenko":10310,"Ġlinda":10311,"Ġlinden":10312,"Ġmarriage":10313,"Ġcharlottes":10314,"Ġannouncer":10315,"Ġstudying":10316,"Ġalexandria":10317,"Ġoliveira":10318,"Ġviolinist":10319,"busch":10320,"subwin":10321,"uizamon":10322,"Ġsanderson":10323,"Ġburns":10324,"Ġcategory":10325,"Ġfitzharris":10326,"Ġmackay":10327,"Ġoilers":10328,"Ġhiroaki":10329,"Ġhiroyuki":10330,"Ġdinamo":10331,"Ġjarrad":10332,"Ġlanka":10333,"Ġkamberi":10334,"Ġkummer":10335,"Ġreading":10336,"Ġchoice":10337,"Ġrodrigo":10338,"Ġexhibition":10339,"Ġgeoffrey":10340,"Ġabolhassan":10341,"Ġabrams":10342,"Ġcontributor":10343,"Ġprivate":10344,"Ġcoroner":10345,"Ġcoronation":10346,"Ð¸ÑĽ":10347,"Ġvladimirovich":10348,"Ġigorevna":10349,"Ġumalat":10350,"Ġbhai":10351,"Ġbedabrata":10352,"Ġbatiuk":10353,"Ġbatillus":10354,"Ġfrickleton":10355,"Ġnashville":10356,"layne":10357,"Ġtolani":10358,"Ġrwanda":10359,"Ġstonehenge":10360,"Ġyui":10361,"Ġyuval":10362,"Ġleaves":10363,"Ġshavo":10364,"Ġensemb":10365,"Ġsteelers":10366,"Ġlastodiyear":10367,"Ġlastodiagainst":10368,"ĠÃīlio":10369,"Ġlibrary":10370,"Ġlibrarian":10371,"Ġaffiliate":10372,"Ġtranslated":10373,"Ġtransferred":10374,"Ġnicholas":10375,"jackson":10376,"javka":10377,"kelÃ¤":10378,"sami":10379,"uhong":10380,"ÙĦØ":10381,"Ġaeros":10382,"Ġaudio":10383,"Ġszabolcs":10384,"Ġbryant":10385,"Ġcelimli":10386,"Ġmvp":10387,"Ġwohlrapp":10388,"Ġwinds":10389,"Ġwrestler":10390,"Ġhulkk":10391,"Ġintroduc":10392,"Ġinformation":10393,"Ġgeyre":10394,"Ġdetermin":10395,"Ġkelso":10396,"Ġribamar":10397,"Ġyoussef":10398,"Ġchancellor":10399,"Ġuniversid":10400,"Ġlabrie":10401,"Ġcollabor":10402,"Ġcolombia":10403,"Ġencour":10404,"Ġknowledge":10405,"Ġzhenzong":10406,"Ġzaragoza":10407,"ĠquÃ©bÃ©":10408,"Ġdaejeon":10409,"Ġdemonstration":10410,"Ġconsisting":10411,"Ġsalamanca":10412,"Ġportrayed":10413,"Ġmatteucc":10414,"Ġslovenia":10415,"Ġsurgeons":10416,"Ġplanet":10417,"Ġpalestinian":10418,"Ġturntables":10419,"Ġremainder":10420,"Ġepiscopal":10421,"Ġchamberlayne":10422,"Ġpentathlete":10423,"Ġpseudonym":10424,"Ġrhythmic":10425,"fernÃ¡ndez":10426,"patrick":10427,"singlesranking":10428,"Õ¡Õ":10429,"ĠÄĲÆ¡":10430,"Ġbitam":10431,"Ġbordian":10432,"Ġcossar":10433,"Ġpedro":10434,"Ġflag":10435,"Ġfatah":10436,"Ġwyoming":10437,"Ġnsw":10438,"Ġtape":10439,"ĠtavÄįar":10440,"Ġtrygve":10441,"Ġlogan":10442,"students":10443,"Ġheerenve":10444,"Ġnephew":10445,"Ġrecruited":10446,"Ã©rard":10447,"Ġcurrentpositionplain":10448,"Ġziauddin":10449,"Ġfilmmaker":10450,"Ġpermanent":10451,"Ġgrammy":10452,"Ġweightlifting":10453,"Ġxiii":10454,"Ġestimated":10455,"Ġsurveyor":10456,"Ġtownsend":10457,"Ġtreasury":10458,"Ġargueta":10459,"Ġdevonta":10460,"Ġmontenegro":10461,"Ġspecializes":10462,"Ġfelicia":10463,"Ġconfirm":10464,"Ġneighborhoods":10465,"ĠtÄĥrÃ¢Å£eanu":10466,"nailab":10467,"zashe":10468,"Å¾iÄĩ":10469,"Ġsnapper":10470,"Ġcitta":10471,"Ġcimbal":10472,"Ġpackers":10473,"Ġfreshmen":10474,"Ġmaple":10475,"Ġmulligan":10476,"Ġmaterial":10477,"Ġmitchell":10478,"Ġtheodore":10479,"Ġhugo":10480,"Ġhollendorfer":10481,"Ġdorner":10482,"Ġdollar":10483,"Ġgagnon":10484,"Ġliability":10485,"Ġdeckers":10486,"Ġkahlbaum":10487,"Ġkannada":10488,"Ġkushchyenko":10489,"Ġreplacement":10490,"Ġetoundi":10491,"Ġchidid":10492,"Ġchallenge":10493,"Ġbeyond":10494,"shavn":10495,"Ġapollonius":10496,"Ġpolytechn":10497,"Ġzapata":10498,"Ġperfect":10499,"Ġdistinction":10500,"Ġrussell":10501,"Ġqualific":10502,"Ġconsecutive":10503,"Ġskylab":10504,"Ġberkshire":10505,"ÃŃostÃ³ir":10506,"Ġslimane":10507,"Ġincorpor":10508,"Ġdominguez":10509,"Ġtreatment":10510,"Ġappointment":10511,"Ġtransportation":10512,"suffix":10513,"Ġakhilesh":10514,"Ġqiuhong":10515,"Ġjuvenal":10516,"Ġvasilyev":10517,"Ġpracticing":10518,"ĠÅłpirelja":10519,"Ġbirkenhead":10520,"Ġceremony":10521,"Ġtouchdowns":10522,"Ġmanufacturer":10523,"bahÃ§e":10524,"gerald":10525,"gibson":10526,"subloss":10527,"sainsbury":10528,"tunkhwa":10529,"western":10530,"woman":10531,"zinei":10532,"Ġauthors":10533,"Ġavalanche":10534,"iniemi":10535,"onidzashe":10536,"ĠsÃ¡enz":10537,"Ġsloan":10538,"Ġslavia":10539,"tirbu":10540,"Ġbolden":10541,"Ġblessed":10542,"Ġbicycle":10543,"artheid":10544,"Ġcialente":10545,"Ġcatesby":10546,"Ġpisseri":10547,"Ġpomeroy":10548,"Ġfabisiak":10549,"Ġfukuoka":10550,"ĠfenerbahÃ§e":10551,"ĠmÃ¤kelÃ¤":10552,"Ġtheoretical":10553,"Ġomaha":10554,"Ġokochi":10555,"Ġhundred":10556,"Ġhsbc":10557,"Ġhinchcliffe":10558,"Ġdiler":10559,"Ġdaher":10560,"Ġdroney":10561,"Ġdlamini":10562,"ĠdÃºrÃ³":10563,"ĠdÆ°Æ¡ng":10564,"Ġnocera":10565,"Ġnippon":10566,"Ġintellect":10567,"Ġanugerah":10568,"Ġjardine":10569,"Ġjumper":10570,"ĠgÃ¼ler":10571,"ĠlÃ¡tÃ³":10572,"Ġljubljana":10573,"Ġdetective":10574,"Ġkuparinen":10575,"Ġkhyber":10576,"Ġkeddell":10577,"Ġristiniemi":10578,"ĠrÃ¡kospalot":10579,"adabida":10580,"siysk":10581,"sibilities":10582,"Ġstansfield":10583,"Ġyoshika":10584,"Ġeggert":10585,"ĠasunciÃ³n":10586,"ĠvaviÄĩ":10587,"Ġseahawks":10588,"Ġcoyotes":10589,"Ġbeaudin":10590,"Ġnegotiations":10591,"Ġnejmeh":10592,"Ġpoignant":10593,"Ġconclusion":10594,"Ġcombination":10595,"Ġmemoir":10596,"Ġrecurring":10597,"Ġmanitoba":10598,"Ġmanhattan":10599,"Ġparamount":10600,"Ġengeldinger":10601,"Ġtiraspol":10602,"Ġschuening":10603,"ĠzÃ¡leskÃ¡":10604,"Ġzabrze":10605,"Ġzvezda":10606,"Ġexchange":10607,"Ġacosta":10608,"Ġtwiselton":10609,"ĠgrÃ¶nhagen":10610,"Ġgrimsby":10611,"ĠgrgureviÄĩ":10612,"Ġoverturned":10613,"Ġsenegal":10614,"Ġbuccaneers":10615,"Ġpatenaude":10616,"Ġsaifuddien":10617,"Ġphilanthrop":10618,"noÅ¡t":10619,"Ġbertrand":10620,"Ġespecially":10621,"Ġnovorossiysk":10622,"Ġkarnataka":10623,"Ġsloukas":10624,"Ġmurdoch":10625,"Ġbenedict":10626,"Ġmadhopur":10627,"Ġfiggemeier":10628,"Ġtauranga":10629,"Ġpastteamsnote":10630,"Ġnguyen":10631,"Ġsargsyan":10632,"Ġhoggidy":10633,"Ġbailhache":10634,"Ġgyaltsen":10635,"Ġpotgieter":10636,"Ġmuvunyi":10637,"Ä±ldÄ±ray":10638,"Ġkerdeghly":10639,"Ġmutobola":10640,"ĠhajdarhodÅ¾iÄĩ":10641,"ĠchiÈĻinÄĥu":10642,"napolÃ©on":10643,"Ġcharlottesville":10644,"Ġhulkkonen":10645,"Ġintroduced":10646,"ĠquÃ©bÃ©cois":10647,"Ġmatteucci":10648,"ĠÄĲÆ¡n":10649,"Ġheerenveen":10650,"Ġpolytechnic":10651,"ĠrÃ¡kospalotai":10652,"110":10653,"32":10654,"39":10655,"48":10656,"52":10657,"500":10658,"95":10659,"bv":10660,"ben":10661,"bes":10662,"bay":10663,"bow":10664,"best":10665,"bach":10666,"bik":10667,"bati":10668,"blo":10669,"bÃ¼":10670,"beg":10671,"cla":10672,"cri":10673,"card":10674,"cend":10675,"cles":10676,"camp":10677,"cock":10678,"cron":10679,"creen":10680,"cribed":10681,"dal":10682,"duch":10683,"distance":10684,"eholder":10685,"fin":10686,"fon":10687,"far":10688,"fir":10689,"fit":10690,"fst":10691,"fey":10692,"fts":10693,"fort":10694,"fix":10695,"final":10696,"fldrafted":10697,"gart":10698,"gov":10699,"gham":10700,"guk":10701,"hk":10702,"hit":10703,"hame":10704,"high":10705,"hay":10706,"hov":10707,"hik":10708,"hugh":10709,"hys":10710,"http":10711,"hurst":10712,"iber":10713,"iÃº":10714,"iyes":10715,"iÃ¨re":10716,"jm":10717,"jv":10718,"jor":10719,"jul":10720,"jac":10721,"jak":10722,"jÅį":10723,"kol":10724,"kell":10725,"kuba":10726,"lce":10727,"last":10728,"lÃ©":10729,"lenn":10730,"lings":10731,"lincoln":10732,"length":10733,"mu":10734,"mes":10735,"mir":10736,"met":10737,"math":10738,"mart":10739,"mie":10740,"mod":10741,"nk":10742,"nen":10743,"nus":10744,"nim":10745,"nia":10746,"nath":10747,"nodar":10748,"oil":10749,"oster":10750,"ount":10751,"otica":10752,"pd":10753,"pul":10754,"pod":10755,"penc":10756,"pose":10757,"pace":10758,"poss":10759,"papan":10760,"pij":10761,"pression":10762,"pierre":10763,"pearce":10764,"party":10765,"ptian":10766,"piece":10767,"qed":10768,"rc":10769,"rh":10770,"rats":10771,"rays":10772,"sed":10773,"sol":10774,"sse":10775,"sden":10776,"saint":10777,"tre":10778,"tla":10779,"tsi":10780,"tter":10781,"tut":10782,"tting":10783,"taya":10784,"tÃ¼r":10785,"tendorf":10786,"two":10787,"trane":10788,"ua":10789,"uation":10790,"uff":10791,"uania":10792,"vic":10793,"vig":10794,"vian":10795,"vity":10796,"vinc":10797,"vind":10798,"venty":10799,"viously":10800,"wol":10801,"wig":10802,"wos":10803,"web":10804,"wai":10805,"warm":10806,"wondo":10807,"xs":10808,"yol":10809,"zy":10810,"zar":10811,"zap":10812,"zburg":10813,"zhi":10814,"zÅį":10815,"zzo":10816,"¡æĸĩ":10817,"§ÙĦØ":10818,"¨ì":10819,"¹Į":10820,"¿Ĺ":10821,"Ãª":10822,"Ãł":10823,"Ä«":10824,"Åĳ":10825,"Î±":10826,"Î½":10827,"ÏĤ":10828,"ÏĦ":10829,"Ð´":10830,"×ķ":10831,"ÛĮ":10832,"à¹Į":10833,"å¤":10834,"åħ":10835,"åŃ":10836,"å¿Ĺ":10837,"æķ":10838,"æĺ":10839,"íĽ":10840,"ĠÎ":10841,"Ġë":10842,"Ġtic":10843,"Ġears":10844,"Ġion":10845,"Ġvers":10846,"Ġip":10847,"Ġult":10848,"Ġordin":10849,"ļjp":10850,"Ġaa":10851,"Ġace":10852,"Ġaia":10853,"Ġaway":10854,"Ġaaa":10855,"erk":10856,"erran":10857,"erton":10858,"thir":10859,"thood":10860,"thwine":10861,"iny":10862,"inah":10863,"onn":10864,"onar":10865,"onounced":10866,"ano":10867,"anes":10868,"another":10869,"anÃ§":10870,"Ġsig":10871,"Ġsag":10872,"Ġster":10873,"Ġsut":10874,"Ġsos":10875,"Ġsust":10876,"Ġsiv":10877,"Ġsok":10878,"Ġsurr":10879,"Ġswe":10880,"Ġssp":10881,"Ġska":10882,"ĠsÃ¼":10883,"Ġsony":10884,"Ġsays":10885,"Ġsessions":10886,"oro":10887,"orted":10888,"orific":10889,"tit":10890,"Ġ119":10891,"Ġbing":10892,"Ġbun":10893,"Ġbce":10894,"Ġbum":10895,"ĠbÃ©":10896,"Ġbure":10897,"Ġbbr":10898,"Ġbuck":10899,"Ġbagh":10900,"Ġbiath":10901,"Ġbrennan":10902,"aris":10903,"aring":10904,"arsh":10905,"arthur":10906,"Ġcrb":10907,"Ġcul":10908,"Ġcos":10909,"Ġcric":10910,"Ġcaf":10911,"Ġcrum":10912,"Ġcuba":10913,"ened":10914,"engo":10915,"enworth":10916,"enthal":10917,"Ġthin":10918,"Ġthing":10919,"Ġthun":10920,"Ġthous":10921,"ĠthÃ¼r":10922,"Ġthail":10923,"Ġthresh":10924,"Ġpb":10925,"Ġpand":10926,"Ġpie":10927,"Ġpeer":10928,"Ġplo":10929,"Ġpinc":10930,"Ġpors":10931,"Ġpadu":10932,"Ġpellow":10933,"Ġpurs":10934,"Ġpasi":10935,"Ġpaula":10936,"Ġfear":10937,"Ġfey":10938,"Ġfled":10939,"Ġfender":10940,"Ġfais":10941,"Ġfunk":10942,"Ġfumb":10943,"Ġfalse":10944,"Ġfotb":10945,"Ġfumble":10946,"alb":10947,"alt":10948,"alom":10949,"alou":10950,"alaj":10951,"alani":10952,"albers":10953,"level":10954,"leutn":10955,"Ġmic":10956,"Ġmit":10957,"Ġmall":10958,"Ġmie":10959,"Ġmord":10960,"Ġmell":10961,"Ġmong":10962,"Ġmine":10963,"Ġmaw":10964,"Ġmersey":10965,"Ġmiro":10966,"Ġmbe":10967,"Ġmumb":10968,"Ġwc":10969,"Ġwan":10970,"Ġwad":10971,"Ġwav":10972,"Ġwfan":10973,"Ġwitch":10974,"Ġwange":10975,"Ġwqed":10976,"Ġtheologian":10977,"isation":10978,"istic":10979,"istics":10980,"isleton":10981,"Ġou":10982,"Ġow":10983,"Ġole":10984,"Ġoce":10985,"Ġoct":10986,"Ġoath":10987,"Ġosh":10988,"Ġoleg":10989,"Ġhk":10990,"Ġhil":10991,"Ġhut":10992,"Ġhary":10993,"Ġhack":10994,"Ġhands":10995,"Ġhanna":10996,"Ġhowell":10997,"Ġhordy":10998,"rete":10999,"rees":11000,"rets":11001,"relig":11002,"remo":11003,"ready":11004,"Ġ219":11005,"Ġdre":11006,"Ġdame":11007,"Ġdod":11008,"Ġdix":11009,"Ġdors":11010,"Ġdhar":11011,"Ġdrib":11012,"Ġdalian":11013,"Ġduel":11014,"Ġdata":11015,"Ġdumon":11016,"ĠdÃ³ra":11017,"Ġnay":11018,"Ġnath":11019,"Ġnab":11020,"Ġnuc":11021,"Ġnure":11022,"Ġnurse":11023,"Ġnlex":11024,"Ġnacional":11025,"Ġnfldrafted":11026,"asing":11027,"asub":11028,"aside":11029,"asium":11030,"asbourg":11031,"Ġing":11032,"Ġinfor":11033,"Ġinqu":11034,"Ġinsp":11035,"Ġinten":11036,"Ġinside":11037,"ĠinÃ¡cio":11038,"among":11039,"amington":11040,"amÄģ":11041,"amengo":11042,"Ġana":11043,"Ġanak":11044,"Ġango":11045,"Ġanita":11046,"Ġanzhi":11047,"esund":11048,"esiz":11049,"eshi":11050,"esposito":11051,"laughter":11052,"icature":11053,"icient":11054,"iciary":11055,"edin":11056,"educ":11057,"edward":11058,"edgar":11059,"editor":11060,"edited":11061,"roe":11062,"road":11063,"romero":11064,"iran":11065,"irving":11066,"Ġ206":11067,"Ġ208":11068,"Ġtn":11069,"Ġts":11070,"Ġtall":11071,"Ġtah":11072,"Ġtati":11073,"Ġtable":11074,"Ġtba":11075,"Ġtsar":11076,"Ġtadas":11077,"Ġandile":11078,"Ġandalou":11079,"Ġjen":11080,"Ġjill":11081,"Ġjai":11082,"Ġjena":11083,"Ġjama":11084,"Ġjets":11085,"Ġjagu":11086,"Ġjurist":11087,"uno":11088,"unte":11089,"unes":11090,"union":11091,"untain":11092,"unned":11093,"Ġgent":11094,"Ġgive":11095,"Ġgans":11096,"Ġgives":11097,"Ġgamma":11098,"Ġgomes":11099,"Ġgopinath":11100,"Ġgiuseppe":11101,"ĠgÃ©rard":11102,"elan":11103,"elia":11104,"eline":11105,"elck":11106,"eloff":11107,"elids":11108,"elhorn":11109,"uspe":11110,"itin":11111,"iture":11112,"itors":11113,"itÃ¤n":11114,"iterran":11115,"chem":11116,"chore":11117,"chast":11118,"charm":11119,"chwitz":11120,"olia":11121,"urus":11122,"urich":11123,"urday":11124,"uraman":11125,"enter":11126,"enture":11127,"aton":11128,"aters":11129,"atov":11130,"atta":11131,"Ġll":11132,"Ġlx":11133,"Ġlon":11134,"Ġlamp":11135,"Ġliam":11136,"Ġlumber":11137,"Ġlite":11138,"Ġliane":11139,"Ġlenny":11140,"Ġlublin":11141,"Ġlunch":11142,"Ġlrc":11143,"heath":11144,"berpunk":11145,"Ġdet":11146,"Ġdey":11147,"Ġdeep":11148,"Ġdeandre":11149,"igo":11150,"Ġkan":11151,"Ġkas":11152,"Ġklub":11153,"Ġkab":11154,"Ġkild":11155,"Ġkair":11156,"Ġkaw":11157,"Ġkyl":11158,"Ġkony":11159,"Ġkual":11160,"Ġkasper":11161,"Ġkups":11162,"Ġkandace":11163,"Ġkishan":11164,"Ġktla":11165,"Ġrel":11166,"Ġret":11167,"Ġrey":11168,"Ġreis":11169,"Ġreve":11170,"Ġrever":11171,"Ġreward":11172,"Ġrector":11173,"Ġrebo":11174,"Ġretain":11175,"Ġreader":11176,"Ġreverse":11177,"Ġreloc":11178,"Ġariel":11179,"Ġarica":11180,"Ġarms":11181,"Ġarlington":11182,"Ġarnaud":11183,"ĠarnoÅ¡t":11184,"Ġarvind":11185,"state":11186,"stra":11187,"stain":11188,"stov":11189,"stone":11190,"status":11191,"Ġrr":11192,"Ġrts":11193,"Ġrory":11194,"Ġrens":11195,"Ġrony":11196,"Ġrinz":11197,"Ġrenzong":11198,"Ġforum":11199,"Ġforbes":11200,"adition":11201,"adalaj":11202,"agn":11203,"agara":11204,"Ġtoul":11205,"Ġtoled":11206,"Ġtope":11207,"Ġtower":11208,"Ġtowards":11209,"Ġtottenham":11210,"sius":11211,"simon":11212,"teri":11213,"omic":11214,"omach":11215,"omutov":11216,"Ġisle":11217,"Ġisab":11218,"Ġissued":11219,"andi":11220,"andu":11221,"anded":11222,"tless":11223,"Ġstur":11224,"Ġstore":11225,"Ġstations":11226,"Ġstands":11227,"Ġstaged":11228,"Ġstutt":11229,"Ġstomach":11230,"ults":11231,"ulna":11232,"ullah":11233,"Ġye":11234,"Ġyet":11235,"Ġyak":11236,"Ġyem":11237,"Ġyah":11238,"Ġyev":11239,"Ġyury":11240,"Ġyao":11241,"platz":11242,"mberg":11243,"Ġeig":11244,"Ġeup":11245,"Ġetz":11246,"Ġalou":11247,"Ġaloy":11248,"Ġchl":11249,"Ġches":11250,"Ġchel":11251,"Ġchak":11252,"Ġchose":11253,"Ġchino":11254,"Ġchaud":11255,"Ġchaco":11256,"Ġchiba":11257,"Ġchoudhary":11258,"Ġchuraman":11259,"Ġchomutov":11260,"aces":11261,"action":11262,"acom":11263,"Ġashl":11264,"Ġaskalu":11265,"Ġaspir":11266,"vera":11267,"iang":11268,"iants":11269,"Ġunre":11270,"Ġunits":11271,"alli":11272,"allurg":11273,"allows":11274,"idan":11275,"idemi":11276,"Ġheyd":11277,"Ġheinz":11278,"Ġheiden":11279,"apa":11280,"apon":11281,"Ġvb":11282,"Ġvil":11283,"Ġvia":11284,"Ġvri":11285,"Ġvod":11286,"Ġvang":11287,"Ġvib":11288,"Ġvila":11289,"ĠvÃ¢":11290,"Ġvfa":11291,"eton":11292,"etary":11293,"utation":11294,"utub":11295,"ubin":11296,"ubice":11297,"Ġseg":11298,"Ġseals":11299,"Ġsector":11300,"Ġsequ":11301,"Ġsebr":11302,"ĠseÃ¡n":11303,"Ġsejavka":11304,"Ġsejm":11305,"Ġseventy":11306,"Ġseaside":11307,"Ġatp":11308,"Ġatkins":11309,"Ġatomic":11310,"Ġlea":11311,"Ġleif":11312,"Ġleip":11313,"Ġleop":11314,"Ġleamington":11315,"mere":11316,"mers":11317,"ista":11318,"uph":11319,"rique":11320,"uggen":11321,"ugesund":11322,"ugelhorn":11323,"rav":11324,"rative":11325,"raits":11326,"raving":11327,"rajaya":11328,"Ġ1821":11329,"Ġ1828":11330,"umoc":11331,"Ġnationalcom":11332,"Ġrough":11333,"Ġrode":11334,"Ġroster":11335,"Ġroots":11336,"Ġrogers":11337,"Ġrooster":11338,"Ġrostov":11339,"Ġroubin":11340,"Ġunique":11341,"osis":11342,"osing":11343,"oshi":11344,"Ġcoy":11345,"Ġcoal":11346,"Ġcour":11347,"Ġcooper":11348,"Ġprove":11349,"Ġprovision":11350,"Ġtemor":11351,"Ġbeled":11352,"Ġbeating":11353,"Ġbeograd":11354,"Ġimm":11355,"Ġimmed":11356,"Ġneon":11357,"Ġnebel":11358,"Ġneuch":11359,"Ġnegro":11360,"occal":11361,"uela":11362,"Ġpoles":11363,"Ġmarx":11364,"Ġmarry":11365,"ĠmarÃŃ":11366,"Ġmargin":11367,"Ġmarsden":11368,"ievich":11369,"shary":11370,"shine":11371,"short":11372,"shina":11373,"shane":11374,"shasa":11375,"manyam":11376,"Ġlajos":11377,"Ġlafay":11378,"Ġlauder":11379,"oua":11380,"Ġspel":11381,"Ġspend":11382,"Ġspee":11383,"Ġspelling":11384,"Ġspelled":11385,"uda":11386,"erslau":11387,"Ġconver":11388,"Ġconqu":11389,"Ġconcep":11390,"ordshire":11391,"aks":11392,"akar":11393,"aklis":11394,"Ġcompla":11395,"Ġcomets":11396,"Ġcombat":11397,"illers":11398,"illier":11399,"isher":11400,"ifax":11401,"Ġnewly":11402,"Ġnewcom":11403,"Ġnewbridge":11404,"Ġnewcas":11405,"Ġjozinei":11406,"ovi":11407,"Ġshod":11408,"Ġshop":11409,"Ġshock":11410,"Ġshaw":11411,"ĠshÅį":11412,"Ġcoltrane":11413,"icks":11414,"endon":11415,"endent":11416,"rank":11417,"rant":11418,"Ġcaprice":11419,"oustic":11420,"aving":11421,"avio":11422,"avada":11423,"avour":11424,"Ġfootnotes":11425,"Ġmeh":11426,"Ġmeasure":11427,"Ġbyu":11428,"ryan":11429,"abbre":11430,"abhivamsa":11431,"ipato":11432,"Ġjanne":11433,"Ġjanitor":11434,"Ġamericans":11435,"sohn":11436,"ache":11437,"acher":11438,"achipato":11439,"Ġ62":11440,"Ġ4802":11441,"Ġboy":11442,"Ġboom":11443,"Ġbourn":11444,"Ġbobru":11445,"Ġbogot":11446,"ucted":11447,"ivan":11448,"ivtsi":11449,"ikpapan":11450,"undo":11451,"undes":11452,"Ġscr":11453,"Ġscri":11454,"Ġscatter":11455,"Ġuniversal":11456,"Ġcars":11457,"Ġcarried":11458,"Ġcarriac":11459,"Ġcaricature":11460,"ected":11461,"Ġhasan":11462,"Ġpred":11463,"Ġpreston":11464,"Ġnoah":11465,"Ġenth":11466,"Ġenemy":11467,"Ġenforce":11468,"Ġmove":11469,"Ġmoiz":11470,"Ġmolec":11471,"emar":11472,"emouth":11473,"lesfield":11474,"owner":11475,"ogical":11476,"Ġpolins":11477,"oko":11478,"oker":11479,"okast":11480,"okesa":11481,"okalani":11482,"sonian":11483,"ĠjunÃŃpero":11484,"Ġaugsburg":11485,"ffd":11486,"ffen":11487,"Ġmanga":11488,"Ġherb":11489,"Ġherald":11490,"renee":11491,"ctors":11492,"Ġ71":11493,"Ġ755":11494,"Ġuan":11495,"Ġutil":11496,"Ġutica":11497,"assic":11498,"assel":11499,"assembly":11500,"asspor":11501,"Ġindrani":11502,"Ġparram":11503,"Ġparakar":11504,"Ġengraving":11505,"anges":11506,"sident":11507,"Ġtimo":11508,"Ġtidebut":11509,"Ġeditors":11510,"mentation":11511,"izing":11512,"Ġbring":11513,"Ġbrno":11514,"ĠbrÃ¸":11515,"Ġteama":11516,"Ġschedu":11517,"Ġagatha":11518,"Ġagustina":11519,"lda":11520,"Ġcanhoteiro":11521,"Ġpronounced":11522,"sea":11523,"seven":11524,"sequently":11525,"atedly":11526,"Ġcollet":11527,"Ġcollector":11528,"Ġ107":11529,"Ġ1045":11530,"Ġ1023":11531,"Ġfind":11532,"urnalist":11533,"Ġcompens":11534,"Ġ126":11535,"Ġ1724":11536,"Ġ1788":11537,"matic":11538,"Ġ1520":11539,"Ġmines":11540,"Ġassigned":11541,"Ġreported":11542,"Ġsuit":11543,"Ġsuzana":11544,"Ġsuicide":11545,"Ġsulabha":11546,"Ġgeneration":11547,"ĠgenzÅį":11548,"Ġzandon":11549,"Ġzdravko":11550,"Ġzurich":11551,"1983":11552,"1930":11553,"1935":11554,"1976":11555,"1977":11556,"1972":11557,"1928":11558,"1941":11559,"box":11560,"boer":11561,"boot":11562,"Ġadair":11563,"ampol":11564,"Ġfranco":11565,"Ġthatcher":11566,"raltar":11567,"Ġ160":11568,"Ġ168":11569,"Ġ1673":11570,"Ġ1606":11571,"Ġ1643":11572,"Ġ1694":11573,"Ġweimar":11574,"theless":11575,"tozap":11576,"Ġfullerton":11577,"clube":11578,"Ġformerchore":11579,"ricted":11580,"Ġexc":11581,"Ġexamp":11582,"Ġexact":11583,"Ġexcep":11584,"php":11585,"phil":11586,"Ġafc":11587,"Ġafldra":11588,"ildings":11589,"Ġbros":11590,"Ġacted":11591,"Ġactions":11592,"Ġacoustic":11593,"reek":11594,"Ġitf":11595,"Ġsouthampton":11596,"Ġsoutheast":11597,"Ġtwisleton":11598,"Ġbasel":11599,"Ġ116":11600,"Ġ118":11601,"good":11602,"Ġcali":11603,"kevin":11604,"Ġusl":11605,"Ġuses":11606,"Ġterror":11607,"Ġnoranda":11608,"Ġnorihiro":11609,"Ġnorayr":11610,"Ġbarack":11611,"Ġbarris":11612,"Ġgeffen":11613,"ajah":11614,"azulu":11615,"Ġguar":11616,"Ġguild":11617,"Ġguadalaj":11618,"Ġbatt":11619,"Ġbaton":11620,"Ġmediterran":11621,"Ġcommem":11622,"Ġcommanding":11623,"Ã¡ti":11624,"Ġstevan":11625,"marc":11626,"mare":11627,"marshall":11628,"marlow":11629,"week":11630,"Ġmidfield":11631,"Ġmidlands":11632,"Ġmidsum":11633,"Ġbandmates":11634,"hisar":11635,"Ġcharged":11636,"Ġchargers":11637,"Ġcharges":11638,"Ġ280":11639,"Ġ286":11640,"Ġstatleague":11641,"loth":11642,"load":11643,"Ġgras":11644,"Ġgrays":11645,"Ġterminal":11646,"vised":11647,"Ġallman":11648,"Ġallied":11649,"Ġallround":11650,"Ġlook":11651,"Ġsecured":11652,"Ġsecrets":11653,"spur":11654,"spira":11655,"Ġaba":11656,"Ġabu":11657,"Ġabil":11658,"Ġabuse":11659,"Ġabortion":11660,"Ġcru":11661,"Ġcrist":11662,"ĠcrÃŃostÃ³ir":11663,"Ġirina":11664,"Ġiraklis":11665,"Ġhail":11666,"Ġhaugesund":11667,"Ġharriers":11668,"Ġelena":11669,"Ġelvin":11670,"Ġdavide":11671,"bylu":11672,"Ġsole":11673,"Ġsoap":11674,"Ġsoft":11675,"Ġ218":11676,"Ġearn":11677,"anced":11678,"ancayo":11679,"Ġtracy":11680,"Ġtrampol":11681,"Ġsanremo":11682,"Ġpei":11683,"Ġpeach":11684,"Ġpeking":11685,"kerk":11686,"Ġbloc":11687,"Ġblog":11688,"Ġblank":11689,"brig":11690,"brad":11691,"bruck":11692,"bruce":11693,"bruno":11694,"Ġkingpin":11695,"Ġclim":11696,"Ġclip":11697,"Ġclerk":11698,"Ġdistribution":11699,"Ġmonroe":11700,"Ġmonetary":11701,"petition":11702,"caption":11703,"Ġinternal":11704,"Ġyearaend":11705,"Ġyearastart":11706,"Ġ260":11707,"Ġ269":11708,"ĠmichaÃ«l":11709,"Ġnotre":11710,"Ġnotably":11711,"valer":11712,"Ġcrop":11713,"Ġcrock":11714,"Ġhighlands":11715,"Ġdesire":11716,"Ġproducers":11717,"Ġdirecting":11718,"Ġamir":11719,"Ġamos":11720,"Ġamher":11721,"Ġsmt":11722,"Ġsmoke":11723,"iginovi":11724,"ileo":11725,"Ġquite":11726,"Ġyohei":11727,"Ġyoutub":11728,"Ġdaily":11729,"Ġdauph":11730,"Ġgrove":11731,"hlal":11732,"Ġrule":11733,"Ġinternationals":11734,"Ġalbio":11735,"Ġalbania":11736,"Ġministers":11737,"inojÅį":11738,"Ġregina":11739,"Ġregga":11740,"Ġregained":11741,"ronics":11742,"Ġndour":11743,"Ġswing":11744,"Ġswallows":11745,"enders":11746,"Ġflamengo":11747,"Ġflugelhorn":11748,"Ġdisband":11749,"Ġdismiss":11750,"Ġvicenz":11751,"gered":11752,"itimate":11753,"Ġmilitant":11754,"Ġmilsami":11755,"Ġhof":11756,"Ġhove":11757,"Ġhobart":11758,"Ġhooker":11759,"Ġresort":11760,"Ġmajors":11761,"Ġsyriac":11762,"Ġolympians":11763,"Ġolympiak":11764,"Ġunderstanding":11765,"Ġunderworld":11766,"Ġ1866":11767,"deacon":11768,"Ġmcdoug":11769,"Ġjeanne":11770,"Ġlegion":11771,"Ġrockford":11772,"aux":11773,"Ã¼sey":11774,"Ġotherwins":11775,"Ġotherparty":11776,"Ġups":11777,"ylie":11778,"ylokast":11779,"Ġbuch":11780,"Ġpatr":11781,"Ġpattaya":11782,"Ġalexei":11783,"Ġcases":11784,"Ġcasey":11785,"Ġresides":11786,"Ġscotsman":11787,"penalty":11788,"Ġbowery":11789,"Ġcorp":11790,"Ġcorps":11791,"Ġcorrup":11792,"Ġfreetown":11793,"Ġfrequent":11794,"Ġmetres":11795,"Ġmetallurg":11796,"Ġconsumer":11797,"Ġnorthampton":11798,"Ġnorthfle":11799,"Ġsaloon":11800,"Ġsalzburg":11801,"Ġfeet":11802,"journalist":11803,"Ġofficers":11804,"Ġofficially":11805,"Ġofficials":11806,"Ġzeiss":11807,"Ġzephy":11808,"Ġtourist":11809,"Ġtourism":11810,"Ġvalent":11811,"Ġvalue":11812,"kscreen":11813,"linear":11814,"Ġbetty":11815,"Ġmoreno":11816,"Ġreceive":11817,"Ġtribec":11818,"Ġrankings":11819,"post":11820,"schneider":11821,"schwerin":11822,"Ġsilent":11823,"Ġsilkscreen":11824,"Ġsimona":11825,"cision":11826,"Ġxama":11827,"Ġxylokast":11828,"Ġinvitation":11829,"Ġinventor":11830,"Ġinteractive":11831,"Ġintercep":11832,"Ġinterclube":11833,"Ġinstitution":11834,"Ġinstitutional":11835,"noj":11836,"Ġsami":11837,"Ġsamaj":11838,"Ġbelmont":11839,"Ġbelshina":11840,"Ġclaude":11841,"entity":11842,"Ġpains":11843,"Ġmarty":11844,"Ġtestcap":11845,"fox":11846,"ĠÃģ":11847,"ĠÃļjp":11848,"Ġcups":11849,"Ġheader":11850,"Ġheaded":11851,"Ġheadshot":11852,"Ġescap":11853,"Ġesteg":11854,"lable":11855,"siteit":11856,"Ġindians":11857,"Ġsmithsonian":11858,"garh":11859,"Ġarchdu":11860,"Ġarchduch":11861,"Ġarchdeacon":11862,"harajah":11863,"Ġavant":11864,"Ġavtozap":11865,"Ġemma":11866,"Ġerik":11867,"Ġerica":11868,"Ġerwin":11869,"Ġerika":11870,"Ġerrol":11871,"Ġcycle":11872,"Ġmatters":11873,"Ġhollett":11874,"prost":11875,"Ġtravel":11876,"Ġemphys":11877,"Ġfranciscan":11878,"Ġutrecht":11879,"Ġnovgor":11880,"Ġkaren":11881,"Ġkaroli":11882,"Ġrelated":11883,"Ġrelativ":11884,"month":11885,"intendent":11886,"Ġjudiciary":11887,"Ġepidemi":11888,"Ġprevent":11889,"Ġslot":11890,"Ġsurreal":11891,"Ġsurrey":11892,"Ġsurpris":11893,"Ġincub":11894,"Ġincident":11895,"Ġtownship":11896,"Ġjournals":11897,"Ġaccident":11898,"Ġelements":11899,"Ġ1811":11900,"Ġflorian":11901,"eking":11902,"ekwondo":11903,"Ġmakhach":11904,"Ġprogress":11905,"Ġpublication":11906,"Ġpublications":11907,"host":11908,"hounds":11909,"ulating":11910,"Ġmodder":11911,"Ġderry":11912,"Ġdomenico":11913,"Ġtrees":11914,"Ġshareholder":11915,"Ġalexanderplatz":11916,"Ġvera":11917,"Ġsixty":11918,"Ġ1801":11919,"Ġ1803":11920,"Ġ1808":11921,"Ġprovinc":11922,"Ġcaused":11923,"Ġcaucas":11924,"Ġodds":11925,"Ġodicap":11926,"Ġoperations":11927,"Ġblackhawks":11928,"ndby":11929,"obi":11930,"Ġairways":11931,"Ġmadge":11932,"Ġwoodland":11933,"Ġwoodford":11934,"Ġwoodville":11935,"Ġinfluence":11936,"Ġanglo":11937,"Ġcourtney":11938,"Ġorganisation":11939,"Ġsubotica":11940,"Ġbalasub":11941,"Ġbalikpapan":11942,"Ġpanzer":11943,"Ġmereng":11944,"2012":11945,"offic":11946,"armac":11947,"armstad":11948,"Ġhammer":11949,"Ġhamidi":11950,"Ġnicknames":11951,"Ġtranmere":11952,"Ġryder":11953,"Ġvote":11954,"Ġvojv":11955,"Ġgeorgios":11956,"Ġlars":11957,"Ġreturning":11958,"Ġ1857":11959,"beck":11960,"liu":11961,"Ġivi":11962,"Ġivka":11963,"Ġividel":11964,"Ġmalaw":11965,"Ġtakayuki":11966,"Ġlifetime":11967,"Ġ1838":11968,"Ġpoets":11969,"trower":11970,"Ġakhisar":11971,"Ġborough":11972,"Ġmyth":11973,"Ġmyron":11974,"Ġmyster":11975,"Ġdevices":11976,"Ġtraders":11977,"Ġpeterborough":11978,"wortley":11979,"Ġplus":11980,"Ġhalifax":11981,"Ġconstitutional":11982,"187":11983,"cials":11984,"Ġmacmill":11985,"Ġkenneth":11986,"Ġraped":11987,"Ġrapid":11988,"Ġspeaking":11989,"Ġlegislator":11990,"Ġsuperior":11991,"caron":11992,"Ġtaekwondo":11993,"Ġjuho":11994,"Ġspecific":11995,"htwine":11996,"urses":11997,"ursing":11998,"Ġstartup":11999,"Ġsettle":12000,"Ġfellowships":12001,"Ġtheaters":12002,"Ġnomuken":12003,"Ġcommittees":12004,"stefan":12005,"uzh":12006,"uzon":12007,"issance":12008,"ĠnatÃ¡n":12009,"Ġnatwest":12010,"balled":12011,"lambert":12012,"ware":12013,"Ġballot":12014,"Ġpetya":12015,"telbruck":12016,"Ġobama":12017,"Ġoblast":12018,"Ġanthrop":12019,"Ġturning":12020,"Ġgrace":12021,"Ġkhulna":12022,"Ġkouba":12023,"Ġrayyan":12024,"Ġstrasbourg":12025,"Ġmexborough":12026,"Ġbronx":12027,"Ġfrederic":12028,"Ġsilverhead":12029,"young":12030,"Ġsavannah":12031,"Ġpasto":12032,"Ġlorenz":12033,"Ġkevis":12034,"Ġchristen":12035,"Ġchristine":12036,"Ġcommunist":12037,"Ġmiddleweight":12038,"Ġifa":12039,"Ġpresbyterian":12040,"Ġreality":12041,"Ġ1844":12042,"Ġ1847":12043,"Ġabdel":12044,"Ġprogramme":12045,"ĠjosÃ©e":12046,"Ġferenc":12047,"Ġholdings":12048,"Ġdriving":12049,"Ġdecided":12050,"Ġformation":12051,"Ġtranscend":12052,"Ġsaturn":12053,"Ġsaturday":12054,"Ġngonidzashe":12055,"Ġtales":12056,"Ġtalents":12057,"Ġgarrison":12058,"Ġstreak":12059,"Ġstreets":12060,"Ġvolume":12061,"Ġvolunte":12062,"Ġexpress":12063,"Ġpaintings":12064,"Ġmartinique":12065,"Ã¢tel":12066,"Ġsaratov":12067,"Ġclem":12068,"Ġclemente":12069,"Ġfifty":12070,"Ġfifteen":12071,"Ġwritings":12072,"Ġhandel":12073,"Ġnikitin":12074,"Ġrail":12075,"Ġraunk":12076,"Ġappearancesa":12077,"Ġdoctors":12078,"Ġdoctorate":12079,"Ġinvolvement":12080,"Ġachieve":12081,"Ġsasaki":12082,"Ġsherborne":12083,"Ġscreened":12084,"Ġoxfordshire":12085,"Ġstatistician":12086,"morrison":12087,"paik":12088,"Ġcredit":12089,"Ġhills":12090,"Ġrecognize":12091,"Ġrecognise":12092,"Ġhighestsinglesranking":12093,"Ġmagazines":12094,"Ġargentinian":12095,"Ġgym":12096,"Ġashley":12097,"Ġvasile":12098,"Ġ1799":12099,"Ġaddress":12100,"Ġadventures":12101,"Ġdescrib":12102,"Ġliberia":12103,"Ġliberties":12104,"Ġparticipate":12105,"caster":12106,"casts":12107,"Ġsiwan":12108,"Ġsiadabida":12109,"Ġbangu":12110,"Ġmachico":12111,"Ġthemes":12112,"Ġdownload":12113,"Ġeastenders":12114,"Ġconferences":12115,"Ġcaptains":12116,"Ġbrianne":12117,"Ġsinglesrecord":12118,"Ġsinglestitles":12119,"Ġcontinue":12120,"Ġsaskato":12121,"1367":12122,"lorenzo":12123,"tradition":12124,"Ġpotche":12125,"Ġpottendorf":12126,"Ġhuachipato":12127,"Ġhuancayo":12128,"Ġhearts":12129,"Ġjake":12130,"Ġrenato":12131,"Ġrenowned":12132,"Ġeverly":12133,"Ġsergeant":12134,"Ġmovements":12135,"Ġelectric":12136,"Ġelectronics":12137,"Ġdefenseman":12138,"canhoteiro":12139,"doubles":12140,"tanimoto":12141,"Ġictr":12142,"Ġiconic":12143,"Ġautom":12144,"Ġautop":12145,"ĠpirÃ¡ti":12146,"Ġronald":12147,"Ġronnie":12148,"Ġconservation":12149,"Ġhalfback":12150,"nikola":12151,"Ġperspolis":12152,"Ġferns":12153,"Ġmainly":12154,"Ġgibraltar":12155,"Ġlucy":12156,"Ġluciano":12157,"Ġkimber":12158,"vette":12159,"Ġbreaking":12160,"Ġatlante":12161,"Ġatlantics":12162,"posed":12163,"à¸±":12164,"ĠÅŀ":12165,"ĠÐĲ":12166,"ĠÐĳ":12167,"Ġsugar":12168,"Ġmiles":12169,"Ġkwazulu":12170,"Ġselectors":12171,"Ġcoulson":12172,"Ġcommandant":12173,"Ġquartered":12174,"Ġmiddlesex":12175,"Ġangelo":12176,"francis":12177,"riders":12178,"Ġbuddha":12179,"Ġfunded":12180,"Ġfunding":12181,"Ġfloyd":12182,"Ġfairmont":12183,"Ġhumanities":12184,"Ġnarrated":12185,"Ġnarrow":12186,"Ġanalog":12187,"Ġgalway":12188,"Ġgalrani":12189,"Ġkillian":12190,"Ġvacancy":12191,"Ġ068":12192,"Ġpodokesa":12193,"Ġindonesian":12194,"Ġextra":12195,"Ġextant":12196,"Ġbroadcasts":12197,"Ġpioneering":12198,"297":12199,"331":12200,"ziad":12201,"à´¿":12202,"Ġsusanna":12203,"Ġsuspect":12204,"Ġpurley":12205,"Ġpurple":12206,"Ġpursuit":12207,"Ġpurpose":12208,"Ġfrontier":12209,"Ġmendota":12210,"Ġmendels":12211,"Ġmoldavian":12212,"Ġhorse":12213,"Ġhorror":12214,"Ġhurling":12215,"Ġnetworks":12216,"Ġchamplain":12217,"Ġvenkatalakshamma":12218,"Ġletter":12219,"Ġmarcos":12220,"Ġconcent":12221,"Ġconcrete":12222,"Ġcommercials":12223,"Ġjohanna":12224,"Ġjungle":12225,"Ġcorporal":12226,"Ġcorporate":12227,"Ġturnedpro":12228,"Ġrestingplace":12229,"Ġglobalization":12230,"Ġellen":12231,"Ġfelix":12232,"Ġfaced":12233,"Ġfantastic":12234,"Ġwildcats":12235,"Ġoldest":12236,"amalabhivamsa":12237,"charlie":12238,"Ġdealing":12239,"Ġeffort":12240,"Ġlesly":12241,"Ġlessons":12242,"Ġconditions":12243,"Ġstefano":12244,"Ġstefanie":12245,"Ġiraqi":12246,"Ġcameroon":12247,"Ġachievements":12248,"Ġmotoring":12249,"Ġorthodoxy":12250,"giovanna":12251,"group":12252,"ĠØ§ÙĦØ":12253,"Ġidelphonse":12254,"Ġpraised":12255,"Ġposth":12256,"Ġpicked":12257,"Ġoswald":12258,"Ġhanged":12259,"Ġtuomas":12260,"Ġtoni":12261,"Ġtonight":12262,"Ġtonetti":12263,"Ġtamper":12264,"Ġstaffordshire":12265,"Ġvincenzo":12266,"Ġattempt":12267,"Ġsprint":12268,"Ġmeegan":12269,"Ġcompanion":12270,"larrousse":12271,"natal":12272,"previously":12273,"Ġessay":12274,"Ġessendon":12275,"Ġsadie":12276,"Ġsangita":12277,"originally":12278,"Ġpaper":12279,"Ġpayan":12280,"Ġpayne":12281,"Ġmiranda":12282,"Ġdropped":12283,"Ġdatu":12284,"Ġancram":12285,"Ġjesus":12286,"Ġjessie":12287,"Ġlords":12288,"andez":12289,"Ġeugeniu":12290,"Ġvieux":12291,"Ġshirt":12292,"openresult":12293,"Ġpartnership":12294,"Ġphoebe":12295,"ĠÃĸdÃ¶n":12296,"Ġmakeup":12297,"Ġspeedway":12298,"Ġdoublesrecord":12299,"Ġdoublestitles":12300,"Ġbangladeshi":12301,"Ġsedita":12302,"Ġbotany":12303,"Ġwinners":12304,"Ġaragon":12305,"Ġegyptian":12306,"Ġrolling":12307,"Ġsharyl":12308,"Ġqualifier":12309,"Ġvocalists":12310,"Ġmagnate":12311,"Ġsurvived":12312,"Ġsurviving":12313,"ĠandrÃ©ia":12314,"nelson":12315,"parents":12316,"Ã±a":12317,"Ġsabha":12318,"Ġbailey":12319,"Ġcurtis":12320,"Ġpakhtunkhwa":12321,"Ġfurniture":12322,"Ġfurnaces":12323,"Ġwave":12324,"Ġhotspur":12325,"Ġniall":12326,"Ġniagara":12327,"Ġinjury":12328,"Ġinjuries":12329,"Ġantiqu":12330,"Ġtennis":12331,"Ġtruman":12332,"Ġtrumpet":12333,"Ġtrumbull":12334,"ĠgÃ¶tting":12335,"Ġkamehame":12336,"Ġplayoffs":12337,"Ġcousins":12338,"Ġmobb":12339,"Ġtillman":12340,"Ġsuffering":12341,"Ġcharlton":12342,"Ġcharlotte":12343,"Ġclarke":12344,"Ġclarrie":12345,"Ġmonarchy":12346,"Ġregarding":12347,"Ġadvocacy":12348,"Ġpsychiatrist":12349,"Ġfriends":12350,"Ġinvestigative":12351,"Ġinvestigating":12352,"throughout":12353,"Ġparaguayan":12354,"ciousness":12355,"honneur":12356,"honorific":12357,"subsequently":12358,"Ġåħ":12359,"Ġèĥ":12360,"Ġsitcom":12361,"ĠsÃ©tif":12362,"Ġputrajaya":12363,"Ġfitzgerald":12364,"Ġhazel":12365,"Ġhazlett":12366,"Ġnavar":12367,"Ġnaval":12368,"Ġnavig":12369,"Ġinswarm":12370,"lawrence":12371,"Ġgetashen":12372,"Ġkeeper":12373,"Ġarmory":12374,"Ġstake":12375,"Ġstrange":12376,"Ġstranger":12377,"Ġcherno":12378,"Ġsexually":12379,"Ġlevy":12380,"Ġlevski":12381,"Ġproperties":12382,"Ġmarketing":12383,"Ġexhibitions":12384,"Ġbestselling":12385,"Ġmcneill":12386,"Ġholyoke":12387,"Ġcommunication":12388,"Ġbroadcasting":12389,"Ġtrinidadian":12390,"Ġlokomotiva":12391,"cmg":12392,"nowiec":12393,"Ġbessie":12394,"ĠbesanÃ§":12395,"Ġthongkhosiem":12396,"Ġfrickley":12397,"ĠmÃ¼n":12398,"Ġhiatus":12399,"Ġdurham":12400,"Ġdestroyer":12401,"Ġlithuania":12402,"Ġrwandan":12403,"Ġleonid":12404,"Ġleavenworth":12405,"Ġextensive":12406,"Ġperuvian":12407,"Ġterritory":12408,"Ġterritories":12409,"aternal":12410,"Ġmacclesfield":12411,"Ġkrasnodar":12412,"Ġmuneyoshi":12413,"Ġresponsibilities":12414,"ĠÃĸztÃ¼r":12415,"authored":12416,"anthony":12417,"Ġbryn":12418,"Ġbabe":12419,"Ġbahonar":12420,"Ġfunction":12421,"Ġmvv":12422,"Ġwrestling":12423,"Ġopponent":12424,"Ġhulse":12425,"Ġduchy":12426,"Ġduchess":12427,"Ġtactics":12428,"Ġgrounds":12429,"christopher":12430,"Ġkappa":12431,"Ġribbon":12432,"Ġunsuspe":12433,"Ġvillain":12434,"Ġuniversiteit":12435,"Ġcoventry":12436,"Ġpromising":12437,"Ġcollaborated":12438,"Ġcolombian":12439,"Ġencoun":12440,"Ġrecoveries":12441,"Ġbrigade":12442,"Ġbrigadier":12443,"Ġzargham":12444,"1954":12445,"Ġevening":12446,"Ġpeaked":12447,"ĠquÃ©bec":12448,"Ġqueensland":12449,"Ġbelieve":12450,"Ġbelieved":12451,"Ġportrayal":12452,"Ġmatteo":12453,"Ġslovenian":12454,"Ġsurgeon":12455,"Ġturntabl":12456,"Ġremaining":12457,"Ġepiscopalian":12458,"Ġemployee":12459,"Ġbloodstain":12460,"Ġwitnessed":12461,"Ġsynthesiz":12462,"Ġpentathlon":12463,"Ġzimbabwean":12464,"buildings":12465,"ects":12466,"jimmy":12467,"mcmanus":12468,"writers":12469,"Ġcowboys":12470,"Ġclyde":12471,"enoord":12472,"Ġpardee":12473,"Ġpardubice":12474,"Ġpengiran":12475,"Ġmashup":12476,"Ġolsen":12477,"Ġnicolaus":12478,"Ġandrej":12479,"Ġkaduna":12480,"Ġkicked":12481,"Ġkaiser":12482,"Ġkaiserslau":12483,"ommun":12484,"Ġstorm":12485,"Ġstayed":12486,"Ġettelbruck":12487,"Ġechl":12488,"Ġalcazar":12489,"Ġvitalie":12490,"Ġcopies":12491,"Ġprotection":12492,"Ġlahore":12493,"Ġspokesman":12494,"Ġcommentator":12495,"Ġmanslaughter":12496,"Ġmanifesto":12497,"Ġknew":12498,"Ġexcellence":12499,"Ġevolved":12500,"Ġmontego":12501,"Ġlegendary":12502,"Ġbelonged":12503,"Ġarchaeology":12504,"Ġpanelist":12505,"Ġveteran":12506,"Ġveterans":12507,"Ġdisciplines":12508,"Ġfaithful":12509,"Ġinnocence":12510,"Ġinnocenzo":12511,"Ġmaximilian":12512,"Ġidentified":12513,"Ġpunjabi":12514,"Ġarnoldo":12515,"bedabrata":12516,"hungary":12517,"louis":12518,"mayassa":12519,"Ġizet":12520,"Ġsindhu":12521,"Ġbaksan":12522,"Ġbellmare":12523,"Ġclough":12524,"Ġtheravada":12525,"Ġmaldives":12526,"Ġwuhan":12527,"Ġwolves":12528,"Ġdakota":12529,"Ġnandamalabhivamsa":12530,"Ġlumpur":12531,"Ġlombard":12532,"iggins":12533,"Ġkinshasa":12534,"Ġreformed":12535,"Ġarsenal":12536,"Ġrahimi":12537,"Ġforeclos":12538,"Ġstyled":12539,"Ġstingrays":12540,"Ġvietnam":12541,"Ġwharf":12542,"Ġtemper":12543,"Ġpoems":12544,"Ġapostle":12545,"Ġoratorio":12546,"Ġtitans":12547,"Ġedmunds":12548,"Ġadaptation":12549,"Ġwarriors":12550,"Ġharrisburg":12551,"Ġswitchbacks":12552,"Ġcorinthians":12553,"Ġsaudi":12554,"projects":12555,"Ġaccounts":12556,"Ġgloucester":12557,"Ġcauses":12558,"Ġrevolutionary":12559,"Ġstrategies":12560,"Ġfrederikshavn":12561,"Ġconcerned":12562,"Ġultimately":12563,"Ġbotanical":12564,"Ġjohannesburg":12565,"Ġdinosaur":12566,"Ġtaiwanese":12567,"Ġsymbolism":12568,"Ġhurricanes":12569,"ĠÅģÄĻczna":12570,"2495":12571,"kowin":12572,"viktor":12573,"àµģ":12574,"Ġauschwitz":12575,"Ġskiing":12576,"Ġsiblings":12577,"Ġcustom":12578,"Ġthreat":12579,"Ġpneumoc":12580,"Ġfighter":12581,"Ġfraud":12582,"Ġfionnbar":12583,"Ġfriedrich":12584,"Ġmouillier":12585,"Ġmatilda":12586,"Ġmainstream":12587,"Ġherself":12588,"Ġhendrik":12589,"Ġjavin":12590,"Ġjamalul":12591,"Ġgabriel":12592,"Ġlundahl":12593,"Ġlloyd":12594,"Ġkigali":12595,"Ġarkansas":12596,"Ġrarely":12597,"Ġricardo":12598,"ĠyrjÃ¶":12599,"Ġalumnus":12600,"Ġalpha":12601,"Ġleafs":12602,"rahmanyam":12603,"Ġrochdale":12604,"Ġrosenborg":12605,"Ġimprovis":12606,"Ġladies":12607,"Ġlaunched":12608,"Ġshaun":12609,"Ġprecurs":12610,"opendoublesjuniorresult":12611,"Ġtilley":12612,"selaer":12613,"Ġrepeatedly":12614,"Ġapplied":12615,"Ġexaminer":12616,"Ġpersiba":12617,"Ġelisabeth":12618,"Ġtriathlete":12619,"Ġamassed":12620,"Ġgrowth":12621,"Ġscottsdale":12622,"Ġerickson":12623,"Ġtrafford":12624,"Ġbengals":12625,"Ġrydberg":12626,"Ġmyrtle":12627,"Ġcongregation":12628,"Ġsettler":12629,"Ġgarnered":12630,"Ġstockholm":12631,"Ġokinawa":12632,"Ġconvicted":12633,"Ġintegrity":12634,"appearances":12635,"Ġcinematographer":12636,"Ġwheelchair":12637,"Ġsemifinals":12638,"Ġmotorcycle":12639,"Ġmaharash":12640,"Ġnizhny":12641,"Ġgrenadines":12642,"Ġprosecutors":12643,"Ġbhaiya":12644,"Ġensemble":12645,"Ġwindsor":12646,"Ġuniversidad":12647,"Ġencouraged":12648,"Ġconfirmation":12649,"Ġqualification":12650,"Ġintellectual":12651,"Ġphilanthropist":12652,"batillus":12653,"bloom":12654,"cronjÃ©":12655,"fstroom":12656,"iÃºma":12657,"iyespor":12658,"koloss":12659,"lcea":12660,"metal":12661,"podium":12662,"pencil":12663,"possner":12664,"trevor":12665,"Ġticket":12666,"Ġsterling":12667,"Ġsosnowiec":12668,"Ġsustain":12669,"Ġsivasspor":12670,"Ġsokol":12671,"ĠsÃ¼per":12672,"Ġbureau":12673,"Ġbiathlon":12674,"ĠcriciÃºma":12675,"Ġcrumlin":12676,"ĠthÃ¼ringer":12677,"Ġthailand":12678,"Ġthreshold":12679,"Ġporsche":12680,"Ġpadua":12681,"Ġpursue":12682,"Ġfeyenoord":12683,"Ġfaisal":12684,"Ġfumbles":12685,"Ġfotboll":12686,"leutnant":12687,"Ġmongolia":12688,"Ġmawr":12689,"Ġmerseyside":12690,"Ġmumbai":12691,"Ġwangechi":12692,"Ġocean":12693,"Ġoshrat":12694,"Ġharyana":12695,"Ġdharma":12696,"Ġdumont":12697,"Ġnucle":12698,"Ġnuremberg":12699,"Ġangola":12700,"Ġtatiana":12701,"Ġjaguars":12702,"Ġgansu":12703,"elcke":12704,"charmian":12705,"Ġklubi":12706,"Ġkabylie":12707,"Ġkairat":12708,"Ġkylwos":12709,"Ġkuala":12710,"Ġretainer":12711,"Ġrensselaer":12712,"Ġrinzai":12713,"Ġtoledo":12714,"Ġtopeka":12715,"Ġisabella":12716,"Ġstuttgart":12717,"Ġyahoo":12718,"Ġyevna":12719,"Ġetzella":12720,"Ġalouettes":12721,"Ġaloysius":12722,"Ġchaudhary":12723,"Ġashlie":12724,"Ġheidenheim":12725,"Ġvrije":12726,"Ġvanguard":12727,"ĠvÃ¢lcea":12728,"Ġsebring":12729,"Ġleipzig":12730,"Ġleopold":12731,"Ġnationalcompetition":12732,"Ġroughriders":12733,"Ġtemora":12734,"Ġbelediyespor":12735,"Ġimmedi":12736,"Ġnebelhorn":12737,"ĠneuchÃ¢tel":12738,"Ġlafayette":12739,"Ġlauderdale":12740,"Ġnewcastle":12741,"abbrev":12742,"Ġbournemouth":12743,"Ġbobruisk":12744,"ĠbogotÃ¡":12745,"Ġcarriacou":12746,"Ġenforcement":12747,"Ġmoizan":12748,"Ġmolecular":12749,"Ġpolinski":12750,"Ġparramatta":12751,"ĠbrÃ¸ndby":12752,"Ġzandonadi":12753,"Ġformerchoreographer":12754,"Ġexactly":12755,"Ġafldraft":12756,"Ġbarrister":12757,"Ġguadalajara":12758,"Ġmediterranean":12759,"Ġmidsummer":12760,"byluiginovi":12761,"Ġamherst":12762,"Ġyoutube":12763,"Ġreggae":12764,"Ġdisbanded":12765,"Ġdismissed":12766,"Ġvicenza":12767,"Ġolympiakos":12768,"Ã¼seyin":12769,"Ġnorthamptonshire":12770,"Ġnorthfleet":12771,"Ġzephyrs":12772,"Ġtribeca":12773,"Ġxamax":12774,"Ġxylokastro":12775,"Ġinterceptions":12776,"ĠÃļjpest":12777,"Ġesteghlal":12778,"Ġarchduke":12779,"Ġarchduchess":12780,"Ġavtozapchast":12781,"Ġemphysema":12782,"Ġnovgorod":12783,"Ġkaroliina":12784,"Ġrelativity":12785,"Ġsurrealism":12786,"Ġbalasubrahmanyam":12787,"Ġmerengue":12788,"armstadt":12789,"Ġvojvodina":12790,"Ġivideliza":12791,"Ġmacmillan":12792,"Ġtranscendence":12793,"Ġsaskatoon":12794,"Ġpotchefstroom":12795,"doublesranking":12796,"Ġpodokesaurus":12797,"Ġmendelssohn":12798,"ĠgÃ¶ttingen":12799,"Ġkamehameha":12800,"ĠbesanÃ§on":12801,"ĠÃĸztÃ¼rk":12802,"Ġunsuspecting":12803,"Ġzarghami":12804,"Ġsynthesizers":12805,"Ġkaiserslautern":12806,"Ġpneumococcal":12807,"Ġmouillierat":12808,"/]":12809,"/~":12810,"013":12811,"220":12812,"267":12813,"289":12814,"286":12815,"34":12816,"36":12817,"376":12818,"400":12819,"433":12820,"440":12821,"57":12822,"535":12823,"61":12824,"62":12825,"887":12826,"91":12827,"99":12828,"aon":12829,"aus":12830,"aire":12831,"aism":12832,"atics":12833,"aurs":12834,"axel":12835,"aÐ½":12836,"aÃ±a":12837,"bi":12838,"bol":12839,"big":12840,"bad":12841,"bear":12842,"bap":12843,"bage":12844,"bry":12845,"bins":12846,"baz":12847,"bling":12848,"bula":12849,"bakh":12850,"bune":12851,"bovich":12852,"bhivamsa":12853,"cin":12854,"cot":12855,"cut":12856,"cly":12857,"cart":12858,"cie":12859,"cip":12860,"core":12861,"cstart":12862,"cents":12863,"cador":12864,"camer":12865,"crow":12866,"cott":12867,"caine":12868,"clay":12869,"cesto":12870,"dh":12871,"dn":12872,"dq":12873,"das":12874,"dad":12875,"dou":12876,"dest":12877,"dif":12878,"deb":12879,"dress":12880,"dance":12881,"dna":12882,"dien":12883,"dhouse":12884,"doria":12885,"dingen":12886,"dvoÅĻÃ¡k":12887,"darmstadt":12888,"eu":12889,"ez":12890,"eon":12891,"eti":12892,"ele":12893,"ech":12894,"ege":12895,"eers":12896,"equ":12897,"eira":12898,"eastern":12899,"elect":12900,"eÑĤ":12901,"eedd":12902,"fg":12903,"fi":12904,"fed":12905,"fur":12906,"fac":12907,"fri":12908,"fly":12909,"fell":12910,"fok":12911,"fast":12912,"fron":12913,"fuk":12914,"fare":12915,"feld":12916,"funded":12917,"fisher":12918,"gp":12919,"gir":12920,"game":12921,"gom":12922,"gard":12923,"gue":12924,"gion":12925,"gency":12926,"gli":12927,"gdr":12928,"guer":12929,"gordon":12930,"gressive":12931,"gnon":12932,"gillian":12933,"garde":12934,"hor":12935,"hed":12936,"hus":12937,"hil":12938,"had":12939,"hut":12940,"hard":12941,"hra":12942,"hart":12943,"hai":12944,"hans":12945,"hari":12946,"henz":12947,"hima":12948,"hovo":12949,"hroom":12950,"halse":12951,"hampton":12952,"having":12953,"hreek":12954,"higgins":12955,"iard":12956,"iers":12957,"ivers":12958,"ihl":12959,"iÃ³":12960,"iova":12961,"ihar":12962,"iÃ£o":12963,"iott":12964,"jj":12965,"jn":12966,"jon":12967,"jus":12968,"jom":12969,"juc":12970,"jaw":12971,"jones":12972,"jno":12973,"jits":12974,"jazz":12975,"jasper":12976,"jevac":12977,"kg":12978,"km":12979,"kr":12980,"kate":12981,"kent":12982,"kap":12983,"kia":12984,"kut":12985,"kers":12986,"keb":12987,"kok":12988,"kies":12989,"kara":12990,"klaus":12991,"kopp":12992,"konstantin":12993,"killers":12994,"lf":12995,"lm":12996,"lr":12997,"lla":12998,"lut":12999,"list":13000,"log":13001,"lisa":13002,"ludw":13003,"lenny":13004,"lcb":13005,"lassic":13006,"mi":13007,"mis":13008,"mol":13009,"mil":13010,"mand":13011,"mick":13012,"mik":13013,"mio":13014,"mma":13015,"mory":13016,"mina":13017,"mys":13018,"mons":13019,"mese":13020,"mike":13021,"mony":13022,"msk":13023,"macy":13024,"mumon":13025,"making":13026,"mills":13027,"nt":13028,"near":13029,"nord":13030,"nov":13031,"nÃ©":13032,"nÃ¡":13033,"nica":13034,"nelle":13035,"nolan":13036,"nadeem":13037,"nielsen":13038,"oz":13039,"oan":13040,"oen":13041,"och":13042,"oire":13043,"ound":13044,"oqu":13045,"oons":13046,"oque":13047,"otee":13048,"otis":13049,"ourne":13050,"oise":13051,"oja":13052,"ozen":13053,"oeste":13054,"oaks":13055,"pm":13056,"pes":13057,"pad":13058,"pers":13059,"pain":13060,"pav":13061,"pts":13062,"publ":13063,"prac":13064,"pyle":13065,"pakist":13066,"pret":13067,"pworth":13068,"pdf":13069,"pathi":13070,"penter":13071,"qbloom":13072,"rar":13073,"run":13074,"rand":13075,"rong":13076,"rina":13077,"rors":13078,"rint":13079,"randy":13080,"rimin":13081,"sl":13082,"sun":13083,"sil":13084,"sur":13085,"sity":13086,"sup":13087,"sud":13088,"sec":13089,"sung":13090,"sley":13091,"sington":13092,"slav":13093,"sworth":13094,"succeed":13095,"swick":13096,"sardar":13097,"selling":13098,"svetlana":13099,"smyth":13100,"tun":13101,"tat":13102,"tag":13103,"tou":13104,"tland":13105,"trick":13106,"tuddenham":13107,"ule":13108,"urb":13109,"utle":13110,"uous":13111,"uell":13112,"utist":13113,"uque":13114,"uÄĩ":13115,"uila":13116,"uji":13117,"ujan":13118,"uwal":13119,"uaries":13120,"vc":13121,"vl":13122,"vol":13123,"via":13124,"voc":13125,"viz":13126,"vina":13127,"vide":13128,"vira":13129,"view":13130,"vii":13131,"wp":13132,"wen":13133,"wis":13134,"whe":13135,"winger":13136,"wolf":13137,"wata":13138,"xy":13139,"xic":13140,"xim":13141,"xington":13142,"xual":13143,"yed":13144,"yus":13145,"yag":13146,"ysi":13147,"yev":13148,"yca":13149,"yards":13150,"yrd":13151,"yassin":13152,"yÄ±ldÄ±ray":13153,"zed":13154,"zia":13155,"zers":13156,"zran":13157,"zell":13158,"zze":13159,"zani":13160,"zhu":13161,"zni":13162,"ziana":13163,"zanne":13164,"zanotti":13165,"zuy":13166,"zuh":13167,"zwol":13168,"¢å¿Ĺ":13169,"£ķ":13170,"¤ì":13171,"¥Õ":13172,"¦Ļ":13173,"§¿":13174,"§Ħ":13175,"°¢å¿Ĺ":13176,"±ç":13177,"²ł":13178,"¸ã":13179,"»ĥ":13180,"½el":13181,"Ã¬":13182,"Ãī":13183,"Åı":13184,"Åĵ":13185,"Åł":13186,"Èĺ":13187,"ÈĽ":13188,"ÉĻ":13189,"Êĥ":13190,"ÊĴ":13191,"ËĲ":13192,"Î¿":13193,"Ïĥ":13194,"ÑĨ":13195,"Õ«":13196,"Õ¥Õ":13197,"ÖĢ":13198,"×ĳ":13199,"Ø¯":13200,"Ùģ":13201,"ÙĪ":13202,"å°":13203,"åŁ":13204,"æ¸":13205,"æĽ":13206,"æľ":13207,"ìĹ":13208,"ì²ł":13209,"Ġ>":13210,"ĠÕ":13211,"Ġä":13212,"Ġê":13213,"Ġik":13214,"Ġign":13215,"Ġà¸":13216,"Ġà´":13217,"Ġà®":13218,"ĠÙħ":13219,"ĠÈĺ":13220,"Ģ¸ã":13221,"Ĥ¨ì":13222,"ĥİ":13223,"ħsa":13224,"Ĩlf":13225,"İle":13226,"ı¯":13227,"Ĳè":13228,"ķà®":13229,"ĺà¸":13230,"ĺ¤ì":13231,"ĺì²ł":13232,"Ļà¸":13233,"ļÏ":13234,"Ŀ´":13235,"ĿĴ":13236,"Ŀĺì²ł":13237,"ŃØ³":13238,"Ġaj":13239,"Ġau":13240,"Ġay":13241,"Ġati":13242,"Ġarb":13243,"Ġaid":13244,"Ġahn":13245,"Ġamp":13246,"Ġaqu":13247,"Ġavis":13248,"Ġaene":13249,"Ġaired":13250,"Ġauf":13251,"Ġazer":13252,"Ġahead":13253,"Ġayr":13254,"Ġalain":13255,"erl":13256,"eror":13257,"eric":13258,"erra":13259,"erich":13260,"erous":13261,"erik":13262,"erne":13263,"erved":13264,"ertis":13265,"thor":13266,"that":13267,"thri":13268,"thames":13269,"thuen":13270,"inv":13271,"inas":13272,"inate":13273,"inos":13274,"inthe":13275,"inics":13276,"initi":13277,"intin":13278,"inkov":13279,"inxs":13280,"onj":13281,"onte":13282,"oning":13283,"once":13284,"onel":13285,"only":13286,"onÃ©":13287,"onna":13288,"oncesto":13289,"anch":13290,"aney":13291,"anov":13292,"Ġsti":13293,"Ġstic":13294,"Ġsue":13295,"Ġscc":13296,"Ġsich":13297,"Ġsort":13298,"Ġsass":13299,"Ġsull":13300,"Ġsah":13301,"Ġstern":13302,"Ġsile":13303,"Ġsno":13304,"Ġsween":13305,"Ġsize":13306,"Ġsearch":13307,"Ġsvin":13308,"ĠsÅĵ":13309,"orer":13310,"oris":13311,"ored":13312,"orow":13313,"orial":13314,"orative":13315,"orrow":13316,"orlar":13317,"orovna":13318,"orlÃ©":13319,"tile":13320,"tise":13321,"tified":13322,"tibha":13323,"Ġbk":13324,"Ġbear":13325,"Ġbath":13326,"Ġbust":13327,"Ġbrom":13328,"Ġbif":13329,"Ġbod":13330,"Ġbere":13331,"Ġbild":13332,"ĠbÃ¼":13333,"Ġbene":13334,"Ġbij":13335,"Ġbott":13336,"Ġbacon":13337,"Ġbible":13338,"Ġbaman":13339,"Ġboca":13340,"Ġbundes":13341,"Ġbfg":13342,"ares":13343,"arit":13344,"arol":13345,"ario":13346,"arph":13347,"artist":13348,"arical":13349,"areg":13350,"arning":13351,"arafat":13352,"artie":13353,"arthy":13354,"Ġcac":13355,"Ġcum":13356,"Ġcres":13357,"Ġcry":13358,"Ġcash":13359,"Ġcory":13360,"ĠcÃ¡":13361,"Ġcind":13362,"Ġcurt":13363,"Ġciting":13364,"Ġcpac":13365,"Ġcumberland":13366,"Ġcurses":13367,"enr":13368,"ention":13369,"enary":13370,"enie":13371,"enens":13372,"enough":13373,"enuri":13374,"enasa":13375,"enadi":13376,"enthood":13377,"enkap":13378,"Ġthom":13379,"Ġthorn":13380,"Ġthames":13381,"Ġpor":13382,"Ġpsi":13383,"Ġpul":13384,"Ġpub":13385,"Ġply":13386,"Ġpill":13387,"Ġpry":13388,"Ġpah":13389,"Ġpto":13390,"Ġpier":13391,"Ġpaz":13392,"Ġpanc":13393,"Ġpba":13394,"Ġpemb":13395,"Ġpais":13396,"Ġpays":13397,"Ġpowell":13398,"Ġpapp":13399,"Ġpiece":13400,"Ġportion":13401,"Ġpupp":13402,"Ġppd":13403,"Ġpvc":13404,"Ġfis":13405,"Ġfears":13406,"Ġfres":13407,"Ġfine":13408,"Ġfah":13409,"Ġfann":13410,"Ġfaw":13411,"Ġfans":13412,"Ġfinger":13413,"Ġfior":13414,"Ġfuel":13415,"Ġflav":13416,"Ġfsa":13417,"Ġfidel":13418,"Ġfuen":13419,"Ġfencer":13420,"Ġfavour":13421,"alan":13422,"alla":13423,"alup":13424,"alers":13425,"alore":13426,"algo":13427,"alford":13428,"alwins":13429,"alencar":13430,"leum":13431,"lege":13432,"leased":13433,"leberg":13434,"leweb":13435,"Ġmf":13436,"Ġmx":13437,"Ġmes":13438,"Ġmight":13439,"Ġmiz":13440,"Ġmaz":13441,"Ġmaf":13442,"Ġmile":13443,"Ġmace":13444,"Ġmoss":13445,"Ġmba":13446,"Ġmude":13447,"Ġmondo":13448,"Ġmiche":13449,"Ġmaternal":13450,"Ġwed":13451,"Ġwig":13452,"Ġwear":13453,"Ġwick":13454,"Ġwend":13455,"Ġwine":13456,"Ġwant":13457,"Ġwcl":13458,"Ġwah":13459,"Ġwade":13460,"Ġwaj":13461,"Ġwoll":13462,"Ġwrist":13463,"Ġwahl":13464,"Ġwives":13465,"ĠwÅĤ":13466,"Ġwacker":13467,"Ġwupper":13468,"Ġwants":13469,"Ġwrong":13470,"tet":13471,"tev":13472,"tese":13473,"temin":13474,"telsb":13475,"Ġthems":13476,"Ġtheories":13477,"Ġtheological":13478,"isch":13479,"iska":13480,"ispo":13481,"israel":13482,"ismatic":13483,"Ġoc":13484,"Ġot":13485,"Ġober":13486,"Ġoum":13487,"Ġoud":13488,"Ġoire":13489,"Ġoss":13490,"Ġoll":13491,"Ġouz":13492,"Ġomb":13493,"Ġoeste":13494,"Ġoonj":13495,"Ġhm":13496,"Ġhath":13497,"Ġhain":13498,"Ġhach":13499,"Ġhai":13500,"Ġhaf":13501,"Ġhood":13502,"Ġhailed":13503,"Ġhapp":13504,"Ġhuge":13505,"Ġhnk":13506,"Ġhrh":13507,"ĠhÃ¼seyin":13508,"rea":13509,"reg":13510,"rel":13511,"rem":13512,"reve":13513,"reuth":13514,"realist":13515,"reiche":13516,"Ġdv":13517,"Ġdy":13518,"Ġdal":13519,"Ġdas":13520,"Ġdot":13521,"Ġdup":13522,"Ġdts":13523,"Ġdik":13524,"ĠdÃ©":13525,"Ġdang":13526,"Ġdated":13527,"Ġdenn":13528,"Ġdiam":13529,"Ġdaf":13530,"Ġdons":13531,"Ġdale":13532,"Ġdrew":13533,"Ġdrey":13534,"Ġdush":13535,"Ġdusty":13536,"Ġdileo":13537,"Ġnk":13538,"Ġnr":13539,"Ġner":13540,"Ġnan":13541,"Ġness":13542,"Ġnak":13543,"Ġnach":13544,"Ġnah":13545,"Ġnaw":13546,"Ġnite":13547,"Ġnij":13548,"Ġnwide":13549,"Ġninth":13550,"Ġnasser":13551,"Ġnero":13552,"Ġniece":13553,"Ġnursing":13554,"Ġnwp":13555,"Ġnenadi":13556,"asin":13557,"asar":13558,"assi":13559,"aspx":13560,"asota":13561,"astical":13562,"asavy":13563,"asaki":13564,"Ġinou":13565,"Ġints":13566,"Ġinsti":13567,"Ġinval":13568,"Ġinfielder":13569,"Ġinning":13570,"Ġinste":13571,"Ġinfan":13572,"Ġinfr":13573,"Ġinline":13574,"Ġinches":13575,"Ġincheon":13576,"amy":13577,"amor":13578,"aming":13579,"amie":13580,"amend":13581,"amateur":13582,"Ġanat":13583,"Ġanger":13584,"Ġanya":13585,"Ġanwar":13586,"Ġanja":13587,"Ġantan":13588,"Ġankar":13589,"esi":13590,"estion":13591,"esian":13592,"eski":13593,"eschi":13594,"esheim":13595,"lace":13596,"laiv":13597,"lava":13598,"laura":13599,"lakov":13600,"laoise":13601,"ici":13602,"icu":13603,"iced":13604,"ication":13605,"icist":13606,"icles":13607,"icies":13608,"icting":13609,"eders":13610,"roa":13611,"rosi":13612,"rook":13613,"roger":13614,"rows":13615,"rokes":13616,"roÃŁ":13617,"iry":13618,"irÅį":13619,"irense":13620,"Ġ204":13621,"Ġ207":13622,"Ġtc":13623,"Ġtp":13624,"Ġtx":13625,"Ġtun":13626,"Ġtag":13627,"Ġtver":13628,"Ġtut":13629,"Ġtain":13630,"Ġtrom":13631,"Ġtab":13632,"Ġtys":13633,"Ġtaw":13634,"Ġtuf":13635,"ĠtÃ¼r":13636,"Ġtutor":13637,"ĠtÃ¶l":13638,"ingue":13639,"ingham":13640,"ingakash":13641,"Ġandree":13642,"Ġjc":13643,"Ġjs":13644,"Ġjas":13645,"Ġjol":13646,"Ġjub":13647,"Ġjong":13648,"Ġjina":13649,"Ġjive":13650,"ĠjÃ³":13651,"Ġjays":13652,"Ġjesse":13653,"ĠjÃº":13654,"Ġjmg":13655,"ĠjÅ«":13656,"Ġjalis":13657,"Ġjinah":13658,"Ġjalom":13659,"Ġjicks":13660,"uni":13661,"unting":13662,"united":13663,"unya":13664,"unesse":13665,"unthor":13666,"Ġgorn":13667,"Ġgap":13668,"Ġgly":13669,"Ġgers":13670,"Ġgain":13671,"Ġgich":13672,"Ġgov":13673,"Ġgma":13674,"Ġgaz":13675,"Ġgone":13676,"Ġgau":13677,"Ġglyn":13678,"Ġglee":13679,"Ġgwang":13680,"Ġguggen":13681,"Ġgoua":13682,"ceased":13683,"cept":13684,"celeste":13685,"elo":13686,"elic":13687,"elig":13688,"elton":13689,"elong":13690,"elles":13691,"elves":13692,"elodi":13693,"elblue":13694,"uson":13695,"usar":13696,"ushan":13697,"usual":13698,"usli":13699,"itas":13700,"itter":13701,"itted":13702,"itational":13703,"itated":13704,"itania":13705,"itrea":13706,"ched":13707,"chos":13708,"chuk":13709,"cheng":13710,"chestnut":13711,"chika":13712,"choeller":13713,"chÃ©ri":13714,"chuzh":13715,"ols":13716,"olent":13717,"olod":13718,"ollo":13719,"oltz":13720,"olitan":13721,"olyevich":13722,"ille":13723,"ilis":13724,"ilong":13725,"ilyn":13726,"url":13727,"uration":13728,"urra":13729,"urred":13730,"urance":13731,"urini":13732,"enton":13733,"entan":13734,"atl":13735,"atlan":13736,"Ġlk":13737,"Ġlt":13738,"Ġlis":13739,"Ġlic":13740,"Ġlow":13741,"Ġlif":13742,"ĠlÃ©":13743,"Ġlies":13744,"Ġlied":13745,"Ġlans":13746,"Ġlinger":13747,"ĠlÃ¼":13748,"Ġlsu":13749,"Ġlanding":13750,"Ġluna":13751,"Ġlenin":13752,"Ġlingu":13753,"ĠlÃ©r":13754,"hee":13755,"heinz":13756,"hejiang":13757,"berra":13758,"berok":13759,"berfl":13760,"berwell":13761,"Ġdeed":13762,"Ġdeem":13763,"Ġdemp":13764,"Ġdeleg":13765,"Ġdeacon":13766,"Ġdecision":13767,"Ġdeceased":13768,"ige":13769,"igs":13770,"igore":13771,"igrap":13772,"iggered":13773,"Ġkc":13774,"Ġkil":13775,"Ġkub":13776,"Ġkly":13777,"Ġkak":13778,"Ġkav":13779,"Ġkry":13780,"Ġkell":13781,"Ġkael":13782,"Ġkix":13783,"Ġkhl":13784,"Ġkind":13785,"Ġkep":13786,"Ġkyn":13787,"Ġkari":13788,"Ġkrist":13789,"Ġkids":13790,"Ġkapp":13791,"Ġkorne":13792,"Ġkurd":13793,"ĠkÄ«":13794,"Ġkrav":13795,"Ġkassel":13796,"Ġkcmg":13797,"Ġreper":13798,"Ġrequ":13799,"Ġreason":13800,"Ġrevis":13801,"Ġregan":13802,"Ġreev":13803,"Ġrebe":13804,"Ġrelie":13805,"Ġreform":13806,"Ġretained":13807,"Ġreelected":13808,"Ġreilly":13809,"Ġreasin":13810,"amey":13811,"ameless":13812,"Ġarc":13813,"Ġaria":13814,"Ġarra":13815,"Ġarray":13816,"Ġarkh":13817,"Ġartill":13818,"Ġaranz":13819,"stand":13820,"stock":13821,"stuart":13822,"Ġrc":13823,"Ġrg":13824,"Ġrat":13825,"Ġrall":13826,"Ġrab":13827,"Ġrip":13828,"Ġrong":13829,"ĠrÃ©":13830,"Ġrated":13831,"Ġraz":13832,"Ġrating":13833,"Ġrani":13834,"Ġrays":13835,"Ġruck":13836,"Ġrza":13837,"Ġrural":13838,"Ġrise":13839,"Ġrpa":13840,"Ġrigor":13841,"Ġrare":13842,"Ġrhead":13843,"Ġrii":13844,"Ġrkv":13845,"Ġramey":13846,"Ġwasser":13847,"Ġfora":13848,"Ġfork":13849,"Ġforder":13850,"Ġforrest":13851,"adir":13852,"adim":13853,"adman":13854,"adys":13855,"adult":13856,"adÃ³":13857,"adlin":13858,"adho":13859,"adhy":13860,"adise":13861,"agena":13862,"Ġtopped":13863,"Ġtobak":13864,"Ġtogli":13865,"Ġtoxic":13866,"six":13867,"sitive":13868,"siph":13869,"tery":13870,"terey":13871,"terson":13872,"teroff":13873,"omon":13874,"omar":13875,"omba":13876,"omberok":13877,"img":13878,"imran":13879,"imens":13880,"Ġisis":13881,"Ġisles":13882,"Ġisma":13883,"Ġisbn":13884,"earcher":13885,"earhead":13886,"andh":13887,"andus":13888,"anders":13889,"andona":13890,"Ġstal":13891,"Ġstork":13892,"Ġstab":13893,"Ġstok":13894,"Ġstamp":13895,"Ġstade":13896,"Ġstood":13897,"Ġstable":13898,"Ġstint":13899,"Ġstints":13900,"Ġstour":13901,"ĠstÄĻ":13902,"Ġstroke":13903,"Ġstunned":13904,"Ġstrokes":13905,"ulo":13906,"uler":13907,"ulin":13908,"ulted":13909,"ulary":13910,"Ġyard":13911,"Ġyue":13912,"Ġyang":13913,"Ġyael":13914,"Ġyasu":13915,"Ġyassin":13916,"Ġyeast":13917,"Ġyvon":13918,"Ġyadav":13919,"ĠyÄ±ldÄ±ray":13920,"Ġyoko":13921,"Ġyuzon":13922,"Ġyertis":13923,"plaza":13924,"platens":13925,"Ġeu":13926,"Ġecc":13927,"Ġeif":13928,"Ġebel":13929,"Ġeile":13930,"Ġeury":13931,"Ġeworth":13932,"Ġeuf":13933,"Ġewart":13934,"Ġeinstein":13935,"Ġeihl":13936,"Ġalm":13937,"Ġally":13938,"Ġalto":13939,"Ġalone":13940,"Ġalamed":13941,"Ġaldon":13942,"Ġaligned":13943,"Ġalgi":13944,"Ġalois":13945,"Ġalready":13946,"Ġchr":13947,"Ġchoc":13948,"Ġchrom":13949,"Ġchore":13950,"Ġchant":13951,"Ġchuck":13952,"Ġcheng":13953,"ĠchÃ¢":13954,"Ġchronic":13955,"Ġchalwins":13956,"veu":13957,"veer":13958,"vember":13959,"vett":13960,"acal":13961,"acle":13962,"acity":13963,"acio":13964,"acesh":13965,"Ġasc":13966,"Ġasch":13967,"Ġasador":13968,"Ġascen":13969,"verly":13970,"vertis":13971,"verhampton":13972,"otar":13973,"ottil":13974,"Ġunb":13975,"Ġund":13976,"Ġunop":13977,"Ġuncon":13978,"Ġunrest":13979,"Ġunusual":13980,"Ġunteroff":13981,"orno":13982,"allstar":13983,"idar":13984,"iday":13985,"idjan":13986,"idental":13987,"Ġhem":13988,"Ġheav":13989,"Ġhealy":13990,"Ġhegel":13991,"Ġheilong":13992,"apo":13993,"apas":13994,"apat":13995,"appen":13996,"apeta":13997,"apartheid":13998,"Ġonwards":13999,"ighted":14000,"ighbors":14001,"iao":14002,"iaer":14003,"iabÃ¡":14004,"Ġvc":14005,"Ġvag":14006,"Ġviz":14007,"Ġvamp":14008,"Ġvaul":14009,"Ġvander":14010,"ĠvÃŃ":14011,"Ġvij":14012,"ĠvÃ¤":14013,"Ġvidu":14014,"Ġvault":14015,"Ġventures":14016,"Ġvrats":14017,"Ġvinkov":14018,"Ġvadim":14019,"ayan":14020,"etalli":14021,"uto":14022,"utter":14023,"utros":14024,"utality":14025,"ubi":14026,"ubine":14027,"ubio":14028,"owo":14029,"owes":14030,"owed":14031,"owers":14032,"Ġsemar":14033,"Ġseaf":14034,"Ġseki":14035,"Ġseance":14036,"Ġsevo":14037,"Ġsebas":14038,"Ġsebovich":14039,"Ġatkv":14040,"Ġatmos":14041,"Ġplate":14042,"Ġplager":14043,"Ġplatin":14044,"Ġleth":14045,"Ġleigh":14046,"Ġless":14047,"Ġlesk":14048,"Ġlecture":14049,"Ġlexington":14050,"Ġleotar":14051,"athe":14052,"athcly":14053,"merli":14054,"Ġwhig":14055,"Ġwhalers":14056,"istencia":14057,"upon":14058,"uport":14059,"uppen":14060,"upret":14061,"rienne":14062,"ardari":14063,"rach":14064,"rahi":14065,"Ġ182":14066,"Ġ1800":14067,"Ġ1824":14068,"Ġplayback":14069,"Ġplayboys":14070,"umo":14071,"umal":14072,"umously":14073,"Ġnationalism":14074,"Ġroma":14075,"Ġrosk":14076,"Ġrods":14077,"Ġroshi":14078,"Ġrouge":14079,"Ġrotter":14080,"Ġroelcke":14081,"osomes":14082,"osvÃ¡":14083,"oscope":14084,"arta":14085,"ithness":14086,"Ġfoul":14087,"Ġfoley":14088,"Ġfoyle":14089,"Ġfountain":14090,"Ġ321":14091,"Ġcob":14092,"Ġcox":14093,"Ġcoup":14094,"Ġcovers":14095,"Ġcoff":14096,"Ġcock":14097,"Ġcoinc":14098,"Ġcode":14099,"Ġcoordin":14100,"Ġcotia":14101,"Ġcocaine":14102,"Ġcotemin":14103,"Ġprop":14104,"Ġproton":14105,"Ġpromp":14106,"Ġprotest":14107,"Ġproble":14108,"reso":14109,"resÃ¶":14110,"Ġteys":14111,"Ġteix":14112,"Ġtehreek":14113,"gee":14114,"gei":14115,"geoff":14116,"ustend":14117,"Ġbeth":14118,"Ġbeall":14119,"Ġbeats":14120,"Ġbeira":14121,"Ġbeek":14122,"Ġbegin":14123,"Ġbeef":14124,"Ġbejuc":14125,"Ġbezuh":14126,"Ġbeverly":14127,"Ġimg":14128,"Ġimit":14129,"Ġimple":14130,"Ġimitation":14131,"Ġnei":14132,"Ġneal":14133,"Ġneat":14134,"Ġneath":14135,"Ġneoc":14136,"Ġneuro":14137,"Ġneeds":14138,"Ġnebula":14139,"ocation":14140,"ocrin":14141,"ueva":14142,"ueÃ±":14143,"ders":14144,"derek":14145,"derminster":14146,"derkerk":14147,"Ġpositive":14148,"Ġmarl":14149,"Ġmarsh":14150,"Ġmarina":14151,"Ġmarek":14152,"Ġmarvell":14153,"Ġmarinko":14154,"Ġmartha":14155,"Ġmarharajah":14156,"Ġmarguer":14157,"Ġmarilyn":14158,"ieu":14159,"shin":14160,"shon":14161,"shar":14162,"shman":14163,"shore":14164,"shao":14165,"shanes":14166,"Ġlag":14167,"Ġlay":14168,"Ġlaur":14169,"Ġlage":14170,"Ġlack":14171,"Ġlatest":14172,"Ġlada":14173,"Ġlabs":14174,"Ġlaude":14175,"Ġlacro":14176,"Ġlapworth":14177,"Ġspy":14178,"Ġspit":14179,"Ġspot":14180,"Ġspell":14181,"Ġspons":14182,"Ġspino":14183,"Ġspare":14184,"Ġspatter":14185,"Ġspirelja":14186,"Ġsphas":14187,"Ġspearhead":14188,"Ġspacesh":14189,"udas":14190,"udad":14191,"udok":14192,"udio":14193,"baller":14194,"esso":14195,"esses":14196,"essed":14197,"Ġconfl":14198,"Ġconvention":14199,"ordrecht":14200,"ione":14201,"romeo":14202,"Ġcomedic":14203,"ests":14204,"estown":14205,"estone":14206,"ichi":14207,"ichy":14208,"illon":14209,"illor":14210,"illiard":14211,"ishin":14212,"ifer":14213,"ifts":14214,"ifeng":14215,"Ġnewest":14216,"Ġnewry":14217,"Ġnewbury":14218,"Ġjoel":14219,"Ġjoond":14220,"Ġjoanne":14221,"Ġsham":14222,"Ġshel":14223,"Ġshur":14224,"Ġshia":14225,"Ġship":14226,"Ġshantz":14227,"Ġships":14228,"Ġshonan":14229,"Ġshreve":14230,"Ġshudok":14231,"Ġcold":14232,"Ġcolchester":14233,"icky":14234,"ickle":14235,"endan":14236,"endar":14237,"endit":14238,"endum":14239,"ranton":14240,"Ġcapp":14241,"Ġcapt":14242,"Ġcapelle":14243,"Ġcaptured":14244,"Ġcapacity":14245,"Ġapartheid":14246,"Ġapache":14247,"also":14248,"Ġmecom":14249,"Ġmeans":14250,"Ġmeitan":14251,"Ġmezzo":14252,"Ġmemory":14253,"Ġmethuen":14254,"odica":14255,"odorovna":14256,"Ġbyung":14257,"ryÅį":14258,"abled":14259,"abakh":14260,"abouts":14261,"abala":14262,"ability":14263,"abulary":14264,"ebel":14265,"ebuy":14266,"ebourne":14267,"ebrook":14268,"versity":14269,"tsville":14270,"ipa":14271,"ipe":14272,"ipas":14273,"ipur":14274,"ippe":14275,"soon":14276,"soph":14277,"ached":14278,"achita":14279,"Ġ630":14280,"Ġsere":14281,"ĠserÃ©":14282,"Ġserial":14283,"Ġserena":14284,"Ġsereg":14285,"Ġ4000":14286,"Ġboh":14287,"Ġbop":14288,"Ġboing":14289,"Ġbobo":14290,"Ġboyle":14291,"Ġbohem":14292,"Ġbotev":14293,"Ġboutros":14294,"Ġwhole":14295,"irect":14296,"uced":14297,"ucatu":14298,"ivar":14299,"ivia":14300,"iviÃ¨re":14301,"ivoire":14302,"Ġ56":14303,"Ġ574":14304,"tone":14305,"toni":14306,"tony":14307,"Ġoran":14308,"Ġorek":14309,"Ġorli":14310,"Ġorient":14311,"Ġorange":14312,"Ġoranges":14313,"ikov":14314,"ikker":14315,"ikka":14316,"unding":14317,"ello":14318,"Ġscen":14319,"Ġscunthor":14320,"Ġscranton":14321,"ongwe":14322,"onglo":14323,"ongsil":14324,"Ġcarlo":14325,"Ġcarib":14326,"Ġcarna":14327,
[...]
